{
  "version": "1.0",
  "truncation": null,
  "padding": null,
  "added_tokens": [
    {
      "id": 0,
      "content": "[PAD]",
      "single_word": false,
      "lstrip": false,
      "rstrip": false,
      "normalized": false,
      "special": true
    },
    {
      "id": 1,
      "content": "[unused1]",
      "single_word": false,
      "lstrip": false,
      "rstrip": false,
      "normalized": false,
      "special": true
    },
    {
      "id": 2,
      "content": "[unused2]",
      "single_word": false,
      "lstrip": false,
      "rstrip": false,
      "normalized": false,
      "special": true
    },
    {
      "id": 3,
      "content": "[unused3]",
      "single_word": false,
      "lstrip": false,
      "rstrip": false,
      "normalized": false,
      "special": true
    },
    {
      "id": 4,
      "content": "[unused4]",
      "single_word": false,
      "lstrip": false,
      "rstrip": false,
      "normalized": false,
      "special": true
    },
    {
      "id": 5,
      "content": "[unused5]",
      "single_word": false,
      "lstrip": false,
      "rstrip": false,
      "normalized": false,
      "special": true
    },
    {
      "id": 6,
      "content": "[unused6]",
      "single_word": false,
      "lstrip": false,
      "rstrip": false,
      "normalized": false,
      "special": true
    },
    {
      "id": 7,
      "content": "[unused7]",
      "single_word": false,
      "lstrip": false,
      "rstrip": false,
      "normalized": false,
      "special": true
    },
    {
      "id": 8,
      "content": "[unused8]",
      "single_word": false,
      "lstrip": false,
      "rstrip": false,
      "normalized": false,
      "special": true
    },
    {
      "id": 9,
      "content": "[unused9]",
      "single_word": false,
      "lstrip": false,
      "rstrip": false,
      "normalized": false,
      "special": true
    },
    {
      "id": 10,
      "content": "[unused10]",
      "single_word": false,
      "lstrip": false,
      "rstrip": false,
      "normalized": false,
      "special": true
    },
    {
      "id": 11,
      "content": "[unused11]",
      "single_word": false,
      "lstrip": false,
      "rstrip": false,
      "normalized": false,
      "special": true
    },
    {
      "id": 12,
      "content": "[unused12]",
      "single_word": false,
      "lstrip": false,
      "rstrip": false,
      "normalized": false,
      "special": true
    },
    {
      "id": 13,
      "content": "[unused13]",
      "single_word": false,
      "lstrip": false,
      "rstrip": false,
      "normalized": false,
      "special": true
    },
    {
      "id": 14,
      "content": "[unused14]",
      "single_word": false,
      "lstrip": false,
      "rstrip": false,
      "normalized": false,
      "special": true
    },
    {
      "id": 15,
      "content": "[unused15]",
      "single_word": false,
      "lstrip": false,
      "rstrip": false,
      "normalized": false,
      "special": true
    },
    {
      "id": 16,
      "content": "[unused16]",
      "single_word": false,
      "lstrip": false,
      "rstrip": false,
      "normalized": false,
      "special": true
    },
    {
      "id": 17,
      "content": "[unused17]",
      "single_word": false,
      "lstrip": false,
      "rstrip": false,
      "normalized": false,
      "special": true
    },
    {
      "id": 18,
      "content": "[unused18]",
      "single_word": false,
      "lstrip": false,
      "rstrip": false,
      "normalized": false,
      "special": true
    },
    {
      "id": 19,
      "content": "[unused19]",
      "single_word": false,
      "lstrip": false,
      "rstrip": false,
      "normalized": false,
      "special": true
    },
    {
      "id": 20,
      "content": "[unused20]",
      "single_word": false,
      "lstrip": false,
      "rstrip": false,
      "normalized": false,
      "special": true
    },
    {
      "id": 21,
      "content": "[unused21]",
      "single_word": false,
      "lstrip": false,
      "rstrip": false,
      "normalized": false,
      "special": true
    },
    {
      "id": 22,
      "content": "[unused22]",
      "single_word": false,
      "lstrip": false,
      "rstrip": false,
      "normalized": false,
      "special": true
    },
    {
      "id": 23,
      "content": "[unused23]",
      "single_word": false,
      "lstrip": false,
      "rstrip": false,
      "normalized": false,
      "special": true
    },
    {
      "id": 24,
      "content": "[unused24]",
      "single_word": false,
      "lstrip": false,
      "rstrip": false,
      "normalized": false,
      "special": true
    },
    {
      "id": 25,
      "content": "[unused25]",
      "single_word": false,
      "lstrip": false,
      "rstrip": false,
      "normalized": false,
      "special": true
    },
    {
      "id": 26,
      "content": "[unused26]",
      "single_word": false,
      "lstrip": false,
      "rstrip": false,
      "normalized": false,
      "special": true
    },
    {
      "id": 27,
      "content": "[unused27]",
      "single_word": false,
      "lstrip": false,
      "rstrip": false,
      "normalized": false,
      "special": true
    },
    {
      "id": 28,
      "content": "[unused28]",
      "single_word": false,
      "lstrip": false,
      "rstrip": false,
      "normalized": false,
      "special": true
    },
    {
      "id": 29,
      "content": "[unused29]",
      "single_word": false,
      "lstrip": false,
      "rstrip": false,
      "normalized": false,
      "special": true
    },
    {
      "id": 30,
      "content": "[unused30]",
      "single_word": false,
      "lstrip": false,
      "rstrip": false,
      "normalized": false,
      "special": true
    },
    {
      "id": 31,
      "content": "[unused31]",
      "single_word": false,
      "lstrip": false,
      "rstrip": false,
      "normalized": false,
      "special": true
    },
    {
      "id": 32,
      "content": "[unused32]",
      "single_word": false,
      "lstrip": false,
      "rstrip": false,
      "normalized": false,
      "special": true
    },
    {
      "id": 33,
      "content": "[unused33]",
      "single_word": false,
      "lstrip": false,
      "rstrip": false,
      "normalized": false,
      "special": true
    },
    {
      "id": 34,
      "content": "[unused34]",
      "single_word": false,
      "lstrip": false,
      "rstrip": false,
      "normalized": false,
      "special": true
    },
    {
      "id": 35,
      "content": "[unused35]",
      "single_word": false,
      "lstrip": false,
      "rstrip": false,
      "normalized": false,
      "special": true
    },
    {
      "id": 36,
      "content": "[unused36]",
      "single_word": false,
      "lstrip": false,
      "rstrip": false,
      "normalized": false,
      "special": true
    },
    {
      "id": 37,
      "content": "[unused37]",
      "single_word": false,
      "lstrip": false,
      "rstrip": false,
      "normalized": false,
      "special": true
    },
    {
      "id": 38,
      "content": "[unused38]",
      "single_word": false,
      "lstrip": false,
      "rstrip": false,
      "normalized": false,
      "special": true
    },
    {
      "id": 39,
      "content": "[unused39]",
      "single_word": false,
      "lstrip": false,
      "rstrip": false,
      "normalized": false,
      "special": true
    },
    {
      "id": 40,
      "content": "[unused40]",
      "single_word": false,
      "lstrip": false,
      "rstrip": false,
      "normalized": false,
      "special": true
    },
    {
      "id": 41,
      "content": "[unused41]",
      "single_word": false,
      "lstrip": false,
      "rstrip": false,
      "normalized": false,
      "special": true
    },
    {
      "id": 42,
      "content": "[unused42]",
      "single_word": false,
      "lstrip": false,
      "rstrip": false,
      "normalized": false,
      "special": true
    },
    {
      "id": 43,
      "content": "[unused43]",
      "single_word": false,
      "lstrip": false,
      "rstrip": false,
      "normalized": false,
      "special": true
    },
    {
      "id": 44,
      "content": "[unused44]",
      "single_word": false,
      "lstrip": false,
      "rstrip": false,
      "normalized": false,
      "special": true
    },
    {
      "id": 45,
      "content": "[unused45]",
      "single_word": false,
      "lstrip": false,
      "rstrip": false,
      "normalized": false,
      "special": true
    },
    {
      "id": 46,
      "content": "[unused46]",
      "single_word": false,
      "lstrip": false,
      "rstrip": false,
      "normalized": false,
      "special": true
    },
    {
      "id": 47,
      "content": "[unused47]",
      "single_word": false,
      "lstrip": false,
      "rstrip": false,
      "normalized": false,
      "special": true
    },
    {
      "id": 48,
      "content": "[unused48]",
      "single_word": false,
      "lstrip": false,
      "rstrip": false,
      "normalized": false,
      "special": true
    },
    {
      "id": 49,
      "content": "[unused49]",
      "single_word": false,
      "lstrip": false,
      "rstrip": false,
      "normalized": false,
      "special": true
    },
    {
      "id": 50,
      "content": "[unused50]",
      "single_word": false,
      "lstrip": false,
      "rstrip": false,
      "normalized": false,
      "special": true
    },
    {
      "id": 51,
      "content": "[unused51]",
      "single_word": false,
      "lstrip": false,
      "rstrip": false,
      "normalized": false,
      "special": true
    },
    {
      "id": 52,
      "content": "[unused52]",
      "single_word": false,
      "lstrip": false,
      "rstrip": false,
      "normalized": false,
      "special": true
    },
    {
      "id": 53,
      "content": "[unused53]",
      "single_word": false,
      "lstrip": false,
      "rstrip": false,
      "normalized": false,
      "special": true
    },
    {
      "id": 54,
      "content": "[unused54]",
      "single_word": false,
      "lstrip": false,
      "rstrip": false,
      "normalized": false,
      "special": true
    },
    {
      "id": 55,
      "content": "[unused55]",
      "single_word": false,
      "lstrip": false,
      "rstrip": false,
      "normalized": false,
      "special": true
    },
    {
      "id": 56,
      "content": "[unused56]",
      "single_word": false,
      "lstrip": false,
      "rstrip": false,
      "normalized": false,
      "special": true
    },
    {
      "id": 57,
      "content": "[unused57]",
      "single_word": false,
      "lstrip": false,
      "rstrip": false,
      "normalized": false,
      "special": true
    },
    {
      "id": 58,
      "content": "[unused58]",
      "single_word": false,
      "lstrip": false,
      "rstrip": false,
      "normalized": false,
      "special": true
    },
    {
      "id": 59,
      "content": "[unused59]",
      "single_word": false,
      "lstrip": false,
      "rstrip": false,
      "normalized": false,
      "special": true
    },
    {
      "id": 60,
      "content": "[unused60]",
      "single_word": false,
      "lstrip": false,
      "rstrip": false,
      "normalized": false,
      "special": true
    },
    {
      "id": 61,
      "content": "[unused61]",
      "single_word": false,
      "lstrip": false,
      "rstrip": false,
      "normalized": false,
      "special": true
    },
    {
      "id": 62,
      "content": "[unused62]",
      "single_word": false,
      "lstrip": false,
      "rstrip": false,
      "normalized": false,
      "special": true
    },
    {
      "id": 63,
      "content": "[unused63]",
      "single_word": false,
      "lstrip": false,
      "rstrip": false,
      "normalized": false,
      "special": true
    },
    {
      "id": 64,
      "content": "[unused64]",
      "single_word": false,
      "lstrip": false,
      "rstrip": false,
      "normalized": false,
      "special": true
    },
    {
      "id": 65,
      "content": "[unused65]",
      "single_word": false,
      "lstrip": false,
      "rstrip": false,
      "normalized": false,
      "special": true
    },
    {
      "id": 66,
      "content": "[unused66]",
      "single_word": false,
      "lstrip": false,
      "rstrip": false,
      "normalized": false,
      "special": true
    },
    {
      "id": 67,
      "content": "[unused67]",
      "single_word": false,
      "lstrip": false,
      "rstrip": false,
      "normalized": false,
      "special": true
    },
    {
      "id": 68,
      "content": "[unused68]",
      "single_word": false,
      "lstrip": false,
      "rstrip": false,
      "normalized": false,
      "special": true
    },
    {
      "id": 69,
      "content": "[unused69]",
      "single_word": false,
      "lstrip": false,
      "rstrip": false,
      "normalized": false,
      "special": true
    },
    {
      "id": 70,
      "content": "[unused70]",
      "single_word": false,
      "lstrip": false,
      "rstrip": false,
      "normalized": false,
      "special": true
    },
    {
      "id": 71,
      "content": "[unused71]",
      "single_word": false,
      "lstrip": false,
      "rstrip": false,
      "normalized": false,
      "special": true
    },
    {
      "id": 72,
      "content": "[unused72]",
      "single_word": false,
      "lstrip": false,
      "rstrip": false,
      "normalized": false,
      "special": true
    },
    {
      "id": 73,
      "content": "[unused73]",
      "single_word": false,
      "lstrip": false,
      "rstrip": false,
      "normalized": false,
      "special": true
    },
    {
      "id": 74,
      "content": "[unused74]",
      "single_word": false,
      "lstrip": false,
      "rstrip": false,
      "normalized": false,
      "special": true
    },
    {
      "id": 75,
      "content": "[unused75]",
      "single_word": false,
      "lstrip": false,
      "rstrip": false,
      "normalized": false,
      "special": true
    },
    {
      "id": 76,
      "content": "[unused76]",
      "single_word": false,
      "lstrip": false,
      "rstrip": false,
      "normalized": false,
      "special": true
    },
    {
      "id": 77,
      "content": "[unused77]",
      "single_word": false,
      "lstrip": false,
      "rstrip": false,
      "normalized": false,
      "special": true
    },
    {
      "id": 78,
      "content": "[unused78]",
      "single_word": false,
      "lstrip": false,
      "rstrip": false,
      "normalized": false,
      "special": true
    },
    {
      "id": 79,
      "content": "[unused79]",
      "single_word": false,
      "lstrip": false,
      "rstrip": false,
      "normalized": false,
      "special": true
    },
    {
      "id": 80,
      "content": "[unused80]",
      "single_word": false,
      "lstrip": false,
      "rstrip": false,
      "normalized": false,
      "special": true
    },
    {
      "id": 81,
      "content": "[unused81]",
      "single_word": false,
      "lstrip": false,
      "rstrip": false,
      "normalized": false,
      "special": true
    },
    {
      "id": 82,
      "content": "[unused82]",
      "single_word": false,
      "lstrip": false,
      "rstrip": false,
      "normalized": false,
      "special": true
    },
    {
      "id": 83,
      "content": "[unused83]",
      "single_word": false,
      "lstrip": false,
      "rstrip": false,
      "normalized": false,
      "special": true
    },
    {
      "id": 84,
      "content": "[unused84]",
      "single_word": false,
      "lstrip": false,
      "rstrip": false,
      "normalized": false,
      "special": true
    },
    {
      "id": 85,
      "content": "[unused85]",
      "single_word": false,
      "lstrip": false,
      "rstrip": false,
      "normalized": false,
      "special": true
    },
    {
      "id": 86,
      "content": "[unused86]",
      "single_word": false,
      "lstrip": false,
      "rstrip": false,
      "normalized": false,
      "special": true
    },
    {
      "id": 87,
      "content": "[unused87]",
      "single_word": false,
      "lstrip": false,
      "rstrip": false,
      "normalized": false,
      "special": true
    },
    {
      "id": 88,
      "content": "[unused88]",
      "single_word": false,
      "lstrip": false,
      "rstrip": false,
      "normalized": false,
      "special": true
    },
    {
      "id": 89,
      "content": "[unused89]",
      "single_word": false,
      "lstrip": false,
      "rstrip": false,
      "normalized": false,
      "special": true
    },
    {
      "id": 90,
      "content": "[unused90]",
      "single_word": false,
      "lstrip": false,
      "rstrip": false,
      "normalized": false,
      "special": true
    },
    {
      "id": 91,
      "content": "[unused91]",
      "single_word": false,
      "lstrip": false,
      "rstrip": false,
      "normalized": false,
      "special": true
    },
    {
      "id": 92,
      "content": "[unused92]",
      "single_word": false,
      "lstrip": false,
      "rstrip": false,
      "normalized": false,
      "special": true
    },
    {
      "id": 93,
      "content": "[unused93]",
      "single_word": false,
      "lstrip": false,
      "rstrip": false,
      "normalized": false,
      "special": true
    },
    {
      "id": 94,
      "content": "[unused94]",
      "single_word": false,
      "lstrip": false,
      "rstrip": false,
      "normalized": false,
      "special": true
    },
    {
      "id": 95,
      "content": "[unused95]",
      "single_word": false,
      "lstrip": false,
      "rstrip": false,
      "normalized": false,
      "special": true
    },
    {
      "id": 96,
      "content": "[unused96]",
      "single_word": false,
      "lstrip": false,
      "rstrip": false,
      "normalized": false,
      "special": true
    },
    {
      "id": 97,
      "content": "[unused97]",
      "single_word": false,
      "lstrip": false,
      "rstrip": false,
      "normalized": false,
      "special": true
    },
    {
      "id": 98,
      "content": "[unused98]",
      "single_word": false,
      "lstrip": false,
      "rstrip": false,
      "normalized": false,
      "special": true
    },
    {
      "id": 99,
      "content": "[unused99]",
      "single_word": false,
      "lstrip": false,
      "rstrip": false,
      "normalized": false,
      "special": true
    },
    {
      "id": 100,
      "content": "[UNK]",
      "single_word": false,
      "lstrip": false,
      "rstrip": false,
      "normalized": false,
      "special": true
    },
    {
      "id": 101,
      "content": "[CLS]",
      "single_word": false,
      "lstrip": false,
      "rstrip": false,
      "normalized": false,
      "special": true
    },
    {
      "id": 102,
      "content": "[SEP]",
      "single_word": false,
      "lstrip": false,
      "rstrip": false,
      "normalized": false,
      "special": true
    },
    {
      "id": 103,
      "content": "[MASK]",
      "single_word": false,
      "lstrip": false,
      "rstrip": false,
      "normalized": false,
      "special": true
    }
  ],
  "normalizer": {
    "type": "Sequence",
    "normalizers": [
      {
        "type": "NFD"
      },
      {
        "type": "StripAccents"
      }
    ]
  },
  "pre_tokenizer": {
    "type": "BertPreTokenizer"
  },
  "post_processor": null,
  "decoder": null,
  "model": {
    "type": "WordPiece",
    "unk_token": "[UNK]",
    "continuing_subword_prefix": "##",
    "max_input_chars_per_word": 100,
    "vocab": {
      "[PAD]": 0,
      "[unused1]": 1,
      "[unused2]": 2,
      "[unused3]": 3,
      "[unused4]": 4,
      "[unused5]": 5,
      "[unused6]": 6,
      "[unused7]": 7,
      "[unused8]": 8,
      "[unused9]": 9,
      "[unused10]": 10,
      "[unused11]": 11,
      "[unused12]": 12,
      "[unused13]": 13,
      "[unused14]": 14,
      "[unused15]": 15,
      "[unused16]": 16,
      "[unused17]": 17,
      "[unused18]": 18,
      "[unused19]": 19,
      "[unused20]": 20,
      "[unused21]": 21,
      "[unused22]": 22,
      "[unused23]": 23,
      "[unused24]": 24,
      "[unused25]": 25,
      "[unused26]": 26,
      "[unused27]": 27,
      "[unused28]": 28,
      "[unused29]": 29,
      "[unused30]": 30,
      "[unused31]": 31,
      "[unused32]": 32,
      "[unused33]": 33,
      "[unused34]": 34,
      "[unused35]": 35,
      "[unused36]": 36,
      "[unused37]": 37,
      "[unused38]": 38,
      "[unused39]": 39,
      "[unused40]": 40,
      "[unused41]": 41,
      "[unused42]": 42,
      "[unused43]": 43,
      "[unused44]": 44,
      "[unused45]": 45,
      "[unused46]": 46,
      "[unused47]": 47,
      "[unused48]": 48,
      "[unused49]": 49,
      "[unused50]": 50,
      "[unused51]": 51,
      "[unused52]": 52,
      "[unused53]": 53,
      "[unused54]": 54,
      "[unused55]": 55,
      "[unused56]": 56,
      "[unused57]": 57,
      "[unused58]": 58,
      "[unused59]": 59,
      "[unused60]": 60,
      "[unused61]": 61,
      "[unused62]": 62,
      "[unused63]": 63,
      "[unused64]": 64,
      "[unused65]": 65,
      "[unused66]": 66,
      "[unused67]": 67,
      "[unused68]": 68,
      "[unused69]": 69,
      "[unused70]": 70,
      "[unused71]": 71,
      "[unused72]": 72,
      "[unused73]": 73,
      "[unused74]": 74,
      "[unused75]": 75,
      "[unused76]": 76,
      "[unused77]": 77,
      "[unused78]": 78,
      "[unused79]": 79,
      "[unused80]": 80,
      "[unused81]": 81,
      "[unused82]": 82,
      "[unused83]": 83,
      "[unused84]": 84,
      "[unused85]": 85,
      "[unused86]": 86,
      "[unused87]": 87,
      "[unused88]": 88,
      "[unused89]": 89,
      "[unused90]": 90,
      "[unused91]": 91,
      "[unused92]": 92,
      "[unused93]": 93,
      "[unused94]": 94,
      "[unused95]": 95,
      "[unused96]": 96,
      "[unused97]": 97,
      "[unused98]": 98,
      "[unused99]": 99,
      "[UNK]": 100,
      "[CLS]": 101,
      "[SEP]": 102,
      "[MASK]": 103,
      "!": 104,
      "\"": 105,
      "#": 106,
      "$": 107,
      "%": 108,
      "&": 109,
      "'": 110,
      "(": 111,
      ")": 112,
      "*": 113,
      "+": 114,
      ",": 115,
      "-": 116,
      ".": 117,
      "/": 118,
      "0": 119,
      "1": 120,
      "2": 121,
      "3": 122,
      "4": 123,
      "5": 124,
      "6": 125,
      "7": 126,
      "8": 127,
      "9": 128,
      ":": 129,
      ";": 130,
      "<": 131,
      "=": 132,
      ">": 133,
      "?": 134,
      "@": 135,
      "A": 136,
      "B": 137,
      "C": 138,
      "D": 139,
      "E": 140,
      "F": 141,
      "G": 142,
      "H": 143,
      "I": 144,
      "J": 145,
      "K": 146,
      "L": 147,
      "M": 148,
      "N": 149,
      "O": 150,
      "P": 151,
      "Q": 152,
      "R": 153,
      "S": 154,
      "T": 155,
      "U": 156,
      "V": 157,
      "W": 158,
      "X": 159,
      "Y": 160,
      "Z": 161,
      "[": 162,
      "\\": 163,
      "]": 164,
      "^": 165,
      "_": 166,
      "`": 167,
      "a": 168,
      "b": 169,
      "c": 170,
      "d": 171,
      "e": 172,
      "f": 173,
      "g": 174,
      "h": 175,
      "i": 176,
      "j": 177,
      "k": 178,
      "l": 179,
      "m": 180,
      "n": 181,
      "o": 182,
      "p": 183,
      "q": 184,
      "r": 185,
      "s": 186,
      "t": 187,
      "u": 188,
      "v": 189,
      "w": 190,
      "x": 191,
      "y": 192,
      "z": 193,
      "{": 194,
      "|": 195,
      "}": 196,
      "~": 197,
      "": 198,
      "": 199,
      "": 200,
      "": 201,
      "": 202,
      "": 203,
      "": 204,
      "": 205,
      "": 206,
      "": 207,
      "": 208,
      "": 209,
      "": 210,
      "": 211,
      "": 212,
      "": 213,
      "": 214,
      "": 215,
      "": 216,
      "": 217,
      "": 218,
      "": 219,
      "": 220,
      "": 221,
      "¡": 222,
      "¢": 223,
      "£": 224,
      "¤": 225,
      "¥": 226,
      "¦": 227,
      "§": 228,
      "¨": 229,
      "©": 230,
      "ª": 231,
      "«": 232,
      "¬": 233,
      "­": 234,
      "®": 235,
      "¯": 236,
      "°": 237,
      "±": 238,
      "²": 239,
      "³": 240,
      "´": 241,
      "µ": 242,
      "¶": 243,
      "·": 244,
      "¸": 245,
      "¹": 246,
      "º": 247,
      "»": 248,
      "¼": 249,
      "½": 250,
      "¾": 251,
      "¿": 252,
      "Æ": 253,
      "Ð": 254,
      "×": 255,
      "Ø": 256,
      "Þ": 257,
      "ß": 258,
      "æ": 259,
      "ð": 260,
      "÷": 261,
      "ø": 262,
      "þ": 263,
      "Đ": 264,
      "đ": 265,
      "ħ": 266,
      "ı": 267,
      "Ĳ": 268,
      "ĸ": 269,
      "Ł": 270,
      "ł": 271,
      "Ŋ": 272,
      "ŋ": 273,
      "Œ": 274,
      "œ": 275,
      "Ŧ": 276,
      "ŧ": 277,
      "ſ": 278,
      "Ɓ": 279,
      "ƅ": 280,
      "Ɔ": 281,
      "ƈ": 282,
      "Ɖ": 283,
      "ƍ": 284,
      "Ǝ": 285,
      "Ə": 286,
      "Ɛ": 287,
      "ƒ": 288,
      "Ɣ": 289,
      "Ɩ": 290,
      "Ɨ": 291,
      "Ƙ": 292,
      "ƙ": 293,
      "ƛ": 294,
      "Ɯ": 295,
      "Ɲ": 296,
      "ƞ": 297,
      "Ɵ": 298,
      "Ƥ": 299,
      "Ƨ": 300,
      "ƨ": 301,
      "Ʃ": 302,
      "Ƭ": 303,
      "Ʈ": 304,
      "Ʊ": 305,
      "Ʋ": 306,
      "Ƴ": 307,
      "ƴ": 308,
      "Ƶ": 309,
      "ƶ": 310,
      "Ʒ": 311,
      "Ƹ": 312,
      "ƹ": 313,
      "ƺ": 314,
      "ƿ": 315,
      "ǀ": 316,
      "ǁ": 317,
      "ǂ": 318,
      "ǃ": 319,
      "ǝ": 320,
      "ǥ": 321,
      "Ƿ": 322,
      "Ƞ": 323,
      "ȡ": 324,
      "ȣ": 325,
      "Ȥ": 326,
      "ȥ": 327,
      "ȵ": 328,
      "ȶ": 329,
      "Ȼ": 330,
      "ȼ": 331,
      "ɀ": 332,
      "Ɂ": 333,
      "Ƀ": 334,
      "Ʌ": 335,
      "Ɇ": 336,
      "ɐ": 337,
      "ɑ": 338,
      "ɒ": 339,
      "ɓ": 340,
      "ɔ": 341,
      "ɕ": 342,
      "ɖ": 343,
      "ɗ": 344,
      "ɘ": 345,
      "ə": 346,
      "ɚ": 347,
      "ɛ": 348,
      "ɜ": 349,
      "ɝ": 350,
      "ɟ": 351,
      "ɡ": 352,
      "ɢ": 353,
      "ɣ": 354,
      "ɤ": 355,
      "ɥ": 356,
      "ɦ": 357,
      "ɧ": 358,
      "ɨ": 359,
      "ɩ": 360,
      "ɪ": 361,
      "ɫ": 362,
      "ɬ": 363,
      "ɭ": 364,
      "ɮ": 365,
      "ɯ": 366,
      "ɰ": 367,
      "ɱ": 368,
      "ɲ": 369,
      "ɳ": 370,
      "ɴ": 371,
      "ɵ": 372,
      "ɶ": 373,
      "ɷ": 374,
      "ɸ": 375,
      "ɹ": 376,
      "ɻ": 377,
      "ɼ": 378,
      "ɽ": 379,
      "ɾ": 380,
      "ɿ": 381,
      "ʀ": 382,
      "ʁ": 383,
      "ʂ": 384,
      "ʃ": 385,
      "ʅ": 386,
      "ʈ": 387,
      "ʉ": 388,
      "ʊ": 389,
      "ʋ": 390,
      "ʌ": 391,
      "ʎ": 392,
      "ʏ": 393,
      "ʐ": 394,
      "ʑ": 395,
      "ʒ": 396,
      "ʔ": 397,
      "ʕ": 398,
      "ʘ": 399,
      "ʝ": 400,
      "ʟ": 401,
      "ʤ": 402,
      "ʦ": 403,
      "ʧ": 404,
      "ʰ": 405,
      "ʱ": 406,
      "ʲ": 407,
      "ʷ": 408,
      "ʹ": 409,
      "ʺ": 410,
      "ʼ": 411,
      "ʾ": 412,
      "ˁ": 413,
      "˂": 414,
      "˃": 415,
      "˄": 416,
      "ˆ": 417,
      "ˇ": 418,
      "ˉ": 419,
      "ˍ": 420,
      "ː": 421,
      "ˑ": 422,
      "˖": 423,
      "˘": 424,
      "˙": 425,
      "˚": 426,
      "˛": 427,
      "˜": 428,
      "˝": 429,
      "˞": 430,
      "˟": 431,
      "ˠ": 432,
      "ˡ": 433,
      "ˢ": 434,
      "ˣ": 435,
      "ˤ": 436,
      "˥": 437,
      "˧": 438,
      "˨": 439,
      "˩": 440,
      "˪": 441,
      "˫": 442,
      "˭": 443,
      "ˮ": 444,
      "˴": 445,
      "˷": 446,
      "˸": 447,
      "˿": 448,
      "Ͱ": 449,
      "ͱ": 450,
      "Ͳ": 451,
      "ͳ": 452,
      "ͻ": 453,
      "Ϳ": 454,
      "΀": 455,
      "΁": 456,
      "΂": 457,
      "΃": 458,
      "΄": 459,
      "΍": 460,
      "Α": 461,
      "Β": 462,
      "Γ": 463,
      "Δ": 464,
      "Ε": 465,
      "Ζ": 466,
      "Η": 467,
      "Θ": 468,
      "Ι": 469,
      "Κ": 470,
      "Λ": 471,
      "Μ": 472,
      "Ν": 473,
      "Ξ": 474,
      "Ο": 475,
      "Π": 476,
      "Ρ": 477,
      "Σ": 478,
      "Τ": 479,
      "Υ": 480,
      "Φ": 481,
      "Χ": 482,
      "Ψ": 483,
      "Ω": 484,
      "α": 485,
      "β": 486,
      "γ": 487,
      "δ": 488,
      "ε": 489,
      "ζ": 490,
      "η": 491,
      "θ": 492,
      "ι": 493,
      "κ": 494,
      "λ": 495,
      "μ": 496,
      "ν": 497,
      "ξ": 498,
      "ο": 499,
      "π": 500,
      "ρ": 501,
      "ς": 502,
      "σ": 503,
      "τ": 504,
      "υ": 505,
      "φ": 506,
      "χ": 507,
      "ψ": 508,
      "ω": 509,
      "Ϗ": 510,
      "ϐ": 511,
      "ϑ": 512,
      "ϒ": 513,
      "ϕ": 514,
      "ϖ": 515,
      "Ϝ": 516,
      "ϝ": 517,
      "Ϡ": 518,
      "Ϫ": 519,
      "ϫ": 520,
      "Ϭ": 521,
      "ϭ": 522,
      "ϰ": 523,
      "ϱ": 524,
      "ϲ": 525,
      "ϴ": 526,
      "ϵ": 527,
      "ϸ": 528,
      "Ϲ": 529,
      "Ϻ": 530,
      "ϻ": 531,
      "ϼ": 532,
      "Є": 533,
      "Ѕ": 534,
      "І": 535,
      "Ј": 536,
      "А": 537,
      "Б": 538,
      "В": 539,
      "Г": 540,
      "Д": 541,
      "Е": 542,
      "Ж": 543,
      "З": 544,
      "И": 545,
      "К": 546,
      "Л": 547,
      "М": 548,
      "Н": 549,
      "О": 550,
      "П": 551,
      "Р": 552,
      "С": 553,
      "Т": 554,
      "У": 555,
      "Ф": 556,
      "Х": 557,
      "Ц": 558,
      "Ч": 559,
      "Ш": 560,
      "Ы": 561,
      "Ь": 562,
      "Э": 563,
      "Ю": 564,
      "Я": 565,
      "а": 566,
      "б": 567,
      "в": 568,
      "г": 569,
      "д": 570,
      "е": 571,
      "ж": 572,
      "з": 573,
      "и": 574,
      "к": 575,
      "л": 576,
      "м": 577,
      "н": 578,
      "о": 579,
      "п": 580,
      "р": 581,
      "с": 582,
      "т": 583,
      "у": 584,
      "ф": 585,
      "х": 586,
      "ц": 587,
      "ч": 588,
      "ш": 589,
      "щ": 590,
      "ы": 591,
      "ь": 592,
      "э": 593,
      "ю": 594,
      "я": 595,
      "є": 596,
      "ѕ": 597,
      "і": 598,
      "ј": 599,
      "ћ": 600,
      "Ѡ": 601,
      "Ѱ": 602,
      "ѱ": 603,
      "Ѳ": 604,
      "Ѵ": 605,
      "ѵ": 606,
      "Ґ": 607,
      "ґ": 608,
      "Қ": 609,
      "қ": 610,
      "ҝ": 611,
      "ҟ": 612,
      "Ҡ": 613,
      "ҡ": 614,
      "Ҫ": 615,
      "ҫ": 616,
      "Ү": 617,
      "ү": 618,
      "Ұ": 619,
      "Ҳ": 620,
      "ҳ": 621,
      "һ": 622,
      "Ӏ": 623,
      "Ӕ": 624,
      "ӕ": 625,
      "ә": 626,
      "Ө": 627,
      "ө": 628,
      "Ӷ": 629,
      "Ӽ": 630,
      "ӿ": 631,
      "ԁ": 632,
      "Ԏ": 633,
      "ԏ": 634,
      "Ԑ": 635,
      "ԑ": 636,
      "Ո": 637,
      "Ւ": 638,
      "Փ": 639,
      "ՙ": 640,
      "՚": 641,
      "՛": 642,
      "՜": 643,
      "ղ": 644,
      "ո": 645,
      "ւ": 646,
      "օ": 647,
      "։": 648,
      "֊": 649,
      "־": 650,
      "׀": 651,
      "׃": 652,
      "א": 653,
      "ב": 654,
      "ו": 655,
      "י": 656,
      "מ": 657,
      "ס": 658,
      "פ": 659,
      "ץ": 660,
      "ק": 661,
      "ר": 662,
      "ש": 663,
      "ת": 664,
      "׳": 665,
      "״": 666,
      "׹": 667,
      "،": 668,
      "؛": 669,
      "ء": 670,
      "ا": 671,
      "ب": 672,
      "ة": 673,
      "ت": 674,
      "ث": 675,
      "ج": 676,
      "ح": 677,
      "خ": 678,
      "د": 679,
      "ذ": 680,
      "ر": 681,
      "ز": 682,
      "س": 683,
      "ش": 684,
      "ص": 685,
      "ض": 686,
      "ط": 687,
      "ظ": 688,
      "ع": 689,
      "غ": 690,
      "ـ": 691,
      "ف": 692,
      "ق": 693,
      "ك": 694,
      "ل": 695,
      "م": 696,
      "ن": 697,
      "ه": 698,
      "و": 699,
      "ى": 700,
      "ي": 701,
      "٠": 702,
      "١": 703,
      "٢": 704,
      "٣": 705,
      "٤": 706,
      "٥": 707,
      "٦": 708,
      "٩": 709,
      "٪": 710,
      "٬": 711,
      "٭": 712,
      "چ": 713,
      "ک": 714,
      "ی": 715,
      "ۥ": 716,
      "۰": 717,
      "ݣ": 718,
      "߂": 719,
      "ߚ": 720,
      "ߝ": 721,
      "ߢ": 722,
      "ߣ": 723,
      "ࡩ": 724,
      "ࢤ": 725,
      "ࢧ": 726,
      "ࣈ": 727,
      "अ": 728,
      "आ": 729,
      "ई": 730,
      "उ": 731,
      "ऊ": 732,
      "ए": 733,
      "क": 734,
      "ख": 735,
      "ग": 736,
      "च": 737,
      "छ": 738,
      "ज": 739,
      "झ": 740,
      "ञ": 741,
      "ट": 742,
      "ठ": 743,
      "ड": 744,
      "ढ": 745,
      "ण": 746,
      "त": 747,
      "थ": 748,
      "द": 749,
      "ध": 750,
      "न": 751,
      "प": 752,
      "फ": 753,
      "ब": 754,
      "भ": 755,
      "म": 756,
      "य": 757,
      "र": 758,
      "ल": 759,
      "ळ": 760,
      "व": 761,
      "श": 762,
      "ष": 763,
      "स": 764,
      "ह": 765,
      "०": 766,
      "१": 767,
      "२": 768,
      "অ": 769,
      "ক": 770,
      "ন": 771,
      "ভ": 772,
      "ম": 773,
      "ষ": 774,
      "স": 775,
      "০": 776,
      "৯": 777,
      "ଌ": 778,
      "അ": 779,
      "ഇ": 780,
      "ഈ": 781,
      "ഉ": 782,
      "എ": 783,
      "ക": 784,
      "ഖ": 785,
      "ഗ": 786,
      "ഘ": 787,
      "ങ": 788,
      "ച": 789,
      "ജ": 790,
      "ഞ": 791,
      "ട": 792,
      "ഠ": 793,
      "ണ": 794,
      "ത": 795,
      "ദ": 796,
      "ധ": 797,
      "ന": 798,
      "പ": 799,
      "ഫ": 800,
      "ബ": 801,
      "ഭ": 802,
      "മ": 803,
      "യ": 804,
      "ര": 805,
      "റ": 806,
      "ല": 807,
      "ള": 808,
      "ഴ": 809,
      "വ": 810,
      "ശ": 811,
      "ഷ": 812,
      "സ": 813,
      "ഹ": 814,
      "ก": 815,
      "ข": 816,
      "ค": 817,
      "ง": 818,
      "ช": 819,
      "ญ": 820,
      "ฏ": 821,
      "ต": 822,
      "ท": 823,
      "ธ": 824,
      "น": 825,
      "บ": 826,
      "ป": 827,
      "ผ": 828,
      "ฝ": 829,
      "พ": 830,
      "ฟ": 831,
      "ภ": 832,
      "ม": 833,
      "ย": 834,
      "ร": 835,
      "ล": 836,
      "ว": 837,
      "ศ": 838,
      "ส": 839,
      "ห": 840,
      "อ": 841,
      "ะ": 842,
      "า": 843,
      "฿": 844,
      "เ": 845,
      "แ": 846,
      "โ": 847,
      "ใ": 848,
      "ไ": 849,
      "๥": 850,
      "໿": 851,
      "༅": 852,
      "་": 853,
      "༌": 854,
      "།": 855,
      "ཀ": 856,
      "ཁ": 857,
      "ག": 858,
      "ང": 859,
      "ཆ": 860,
      "ཉ": 861,
      "ཏ": 862,
      "ཐ": 863,
      "ད": 864,
      "ན": 865,
      "ཕ": 866,
      "བ": 867,
      "མ": 868,
      "ཚ": 869,
      "ཛ": 870,
      "ཞ": 871,
      "འ": 872,
      "ར": 873,
      "ལ": 874,
      "ཤ": 875,
      "ས": 876,
      "ཨ": 877,
      "ခ": 878,
      "ᄀ": 879,
      "ᄁ": 880,
      "ᄂ": 881,
      "ᄃ": 882,
      "ᄄ": 883,
      "ᄅ": 884,
      "ᄆ": 885,
      "ᄇ": 886,
      "ᄈ": 887,
      "ᄉ": 888,
      "ᄊ": 889,
      "ᄋ": 890,
      "ᄌ": 891,
      "ᄎ": 892,
      "ᄏ": 893,
      "ᄐ": 894,
      "ᄑ": 895,
      "ᄒ": 896,
      "ᅟ": 897,
      "ᅡ": 898,
      "ᅢ": 899,
      "ᅣ": 900,
      "ᅥ": 901,
      "ᅦ": 902,
      "ᅧ": 903,
      "ᅨ": 904,
      "ᅩ": 905,
      "ᅪ": 906,
      "ᅫ": 907,
      "ᅬ": 908,
      "ᅭ": 909,
      "ᅮ": 910,
      "ᅯ": 911,
      "ᅰ": 912,
      "ᅱ": 913,
      "ᅲ": 914,
      "ᅳ": 915,
      "ᅴ": 916,
      "ᅵ": 917,
      "ᆨ": 918,
      "ᆩ": 919,
      "ᆪ": 920,
      "ᆫ": 921,
      "ᆬ": 922,
      "ᆭ": 923,
      "ᆮ": 924,
      "ᆯ": 925,
      "ᆰ": 926,
      "ᆲ": 927,
      "ᆴ": 928,
      "ᆷ": 929,
      "ᆸ": 930,
      "ᆹ": 931,
      "ᆺ": 932,
      "ᆻ": 933,
      "ᆼ": 934,
      "ᆽ": 935,
      "ᆾ": 936,
      "ᆿ": 937,
      "ᇀ": 938,
      "ᇁ": 939,
      "ᇂ": 940,
      "ᇞ": 941,
      "ም": 942,
      "ር": 943,
      "ሻ": 944,
      "ታ": 945,
      "እ": 946,
      "ኩ": 947,
      "ገ": 948,
      "ጠ": 949,
      "ᐃ": 950,
      "ᐅ": 951,
      "ᐊ": 952,
      "ᑎ": 953,
      "ᒐ": 954,
      "ᒡ": 955,
      "ᒥ": 956,
      "ᒪ": 957,
      "ᓕ": 958,
      "ᔪ": 959,
      "ᖅ": 960,
      "ᗡ": 961,
      "᛫": 962,
      "ក": 963,
      "គ": 964,
      "ត": 965,
      "រ": 966,
      "ᴂ": 967,
      "ᴅ": 968,
      "ᴋ": 969,
      "ᴌ": 970,
      "ᴍ": 971,
      "ᴏ": 972,
      "ᴐ": 973,
      "ᴓ": 974,
      "ᴢ": 975,
      "ᴦ": 976,
      "ᴧ": 977,
      "ᴨ": 978,
      "ᴪ": 979,
      "ᴫ": 980,
      "ᴳ": 981,
      "ᴵ": 982,
      "ᴷ": 983,
      "ᴹ": 984,
      "ᴺ": 985,
      "ᴼ": 986,
      "ᴽ": 987,
      "ᴾ": 988,
      "ᴿ": 989,
      "ᵀ": 990,
      "ᵃ": 991,
      "ᵈ": 992,
      "ᵐ": 993,
      "ᵒ": 994,
      "ᵗ": 995,
      "ᵚ": 996,
      "ᵝ": 997,
      "ᵞ": 998,
      "ᵡ": 999,
      "ᵢ": 1000,
      "ᵥ": 1001,
      "ᵦ": 1002,
      "ᵧ": 1003,
      "ᵪ": 1004,
      "ᵶ": 1005,
      "ᵹ": 1006,
      "ᶍ": 1007,
      "ᶓ": 1008,
      "ᶟ": 1009,
      "ᶫ": 1010,
      "ᶯ": 1011,
      "ᶲ": 1012,
      "ᶺ": 1013,
      "ẞ": 1014,
      "ẟ": 1015,
      "ỿ": 1016,
      "᾽": 1017,
      "᾿": 1018,
      "῾": 1019,
      "​": 1020,
      "‌": 1021,
      "‍": 1022,
      "‎": 1023,
      "‏": 1024,
      "‐": 1025,
      "‑": 1026,
      "‒": 1027,
      "–": 1028,
      "—": 1029,
      "―": 1030,
      "‖": 1031,
      "‗": 1032,
      "‘": 1033,
      "’": 1034,
      "‚": 1035,
      "‛": 1036,
      "“": 1037,
      "”": 1038,
      "„": 1039,
      "‟": 1040,
      "†": 1041,
      "‡": 1042,
      "•": 1043,
      "․": 1044,
      "‥": 1045,
      "…": 1046,
      "‧": 1047,
      "‪": 1048,
      "‫": 1049,
      "‬": 1050,
      "‭": 1051,
      "‰": 1052,
      "‱": 1053,
      "′": 1054,
      "″": 1055,
      "‴": 1056,
      "‶": 1057,
      "‹": 1058,
      "›": 1059,
      "※": 1060,
      "‾": 1061,
      "‿": 1062,
      "⁀": 1063,
      "⁁": 1064,
      "⁃": 1065,
      "⁄": 1066,
      "⁎": 1067,
      "⁒": 1068,
      "⁓": 1069,
      "⁕": 1070,
      "⁗": 1071,
      "⁝": 1072,
      "⁠": 1073,
      "⁡": 1074,
      "⁢": 1075,
      "⁣": 1076,
      "⁤": 1077,
      "⁰": 1078,
      "ⁱ": 1079,
      "⁴": 1080,
      "⁵": 1081,
      "⁶": 1082,
      "⁷": 1083,
      "⁸": 1084,
      "⁹": 1085,
      "⁺": 1086,
      "⁻": 1087,
      "⁽": 1088,
      "⁾": 1089,
      "ⁿ": 1090,
      "₀": 1091,
      "₁": 1092,
      "₂": 1093,
      "₃": 1094,
      "₄": 1095,
      "₅": 1096,
      "₆": 1097,
      "₇": 1098,
      "₈": 1099,
      "₉": 1100,
      "₊": 1101,
      "₋": 1102,
      "₌": 1103,
      "₍": 1104,
      "₎": 1105,
      "ₐ": 1106,
      "ₑ": 1107,
      "ₓ": 1108,
      "ₘ": 1109,
      "ₙ": 1110,
      "ₚ": 1111,
      "ₛ": 1112,
      "₣": 1113,
      "₤": 1114,
      "₦": 1115,
      "₩": 1116,
      "₪": 1117,
      "₫": 1118,
      "€": 1119,
      "₮": 1120,
      "₰": 1121,
      "₱": 1122,
      "₳": 1123,
      "₵": 1124,
      "₸": 1125,
      "₹": 1126,
      "₺": 1127,
      "₽": 1128,
      "₿": 1129,
      "ℂ": 1130,
      "℃": 1131,
      "℅": 1132,
      "ℇ": 1133,
      "℉": 1134,
      "ℋ": 1135,
      "ℌ": 1136,
      "ℍ": 1137,
      "ℎ": 1138,
      "ℏ": 1139,
      "ℐ": 1140,
      "ℑ": 1141,
      "ℒ": 1142,
      "ℓ": 1143,
      "ℕ": 1144,
      "№": 1145,
      "℗": 1146,
      "℘": 1147,
      "ℙ": 1148,
      "ℚ": 1149,
      "ℛ": 1150,
      "ℜ": 1151,
      "ℝ": 1152,
      "℞": 1153,
      "℠": 1154,
      "™": 1155,
      "ℤ": 1156,
      "℧": 1157,
      "ℬ": 1158,
      "ℭ": 1159,
      "℮": 1160,
      "ℰ": 1161,
      "ℱ": 1162,
      "Ⅎ": 1163,
      "ℳ": 1164,
      "ℴ": 1165,
      "ℵ": 1166,
      "ℷ": 1167,
      "ℼ": 1168,
      "ℽ": 1169,
      "⅀": 1170,
      "⅃": 1171,
      "ⅅ": 1172,
      "ⅆ": 1173,
      "ⅇ": 1174,
      "⅒": 1175,
      "⅓": 1176,
      "⅔": 1177,
      "⅕": 1178,
      "⅖": 1179,
      "⅗": 1180,
      "⅘": 1181,
      "⅙": 1182,
      "⅚": 1183,
      "⅛": 1184,
      "⅜": 1185,
      "⅝": 1186,
      "⅞": 1187,
      "Ⅰ": 1188,
      "Ⅱ": 1189,
      "Ⅲ": 1190,
      "Ⅳ": 1191,
      "Ⅴ": 1192,
      "Ⅵ": 1193,
      "Ⅶ": 1194,
      "Ⅷ": 1195,
      "Ⅸ": 1196,
      "Ⅹ": 1197,
      "Ⅺ": 1198,
      "Ⅻ": 1199,
      "ⅰ": 1200,
      "ⅱ": 1201,
      "ⅲ": 1202,
      "ⅳ": 1203,
      "ⅴ": 1204,
      "ⅵ": 1205,
      "ⅹ": 1206,
      "↋": 1207,
      "←": 1208,
      "↑": 1209,
      "→": 1210,
      "↓": 1211,
      "↔": 1212,
      "↕": 1213,
      "↗": 1214,
      "↘": 1215,
      "↙": 1216,
      "↝": 1217,
      "↦": 1218,
      "↨": 1219,
      "↪": 1220,
      "↱": 1221,
      "↷": 1222,
      "↻": 1223,
      "↼": 1224,
      "↽": 1225,
      "↿": 1226,
      "⇀": 1227,
      "⇄": 1228,
      "⇅": 1229,
      "⇆": 1230,
      "⇇": 1231,
      "⇉": 1232,
      "⇋": 1233,
      "⇌": 1234,
      "⇐": 1235,
      "⇑": 1236,
      "⇒": 1237,
      "⇓": 1238,
      "⇔": 1239,
      "⇝": 1240,
      "⇢": 1241,
      "⇨": 1242,
      "⇾": 1243,
      "⇿": 1244,
      "∀": 1245,
      "∂": 1246,
      "∃": 1247,
      "∅": 1248,
      "∆": 1249,
      "∇": 1250,
      "∈": 1251,
      "∊": 1252,
      "∋": 1253,
      "∎": 1254,
      "∏": 1255,
      "∐": 1256,
      "∑": 1257,
      "−": 1258,
      "∓": 1259,
      "∕": 1260,
      "∖": 1261,
      "∗": 1262,
      "∘": 1263,
      "∙": 1264,
      "√": 1265,
      "∛": 1266,
      "∝": 1267,
      "∞": 1268,
      "∟": 1269,
      "∠": 1270,
      "∡": 1271,
      "∢": 1272,
      "∣": 1273,
      "∥": 1274,
      "∧": 1275,
      "∨": 1276,
      "∩": 1277,
      "∪": 1278,
      "∫": 1279,
      "∮": 1280,
      "∱": 1281,
      "∴": 1282,
      "∶": 1283,
      "∷": 1284,
      "∸": 1285,
      "∼": 1286,
      "∽": 1287,
      "∾": 1288,
      "≂": 1289,
      "≃": 1290,
      "≅": 1291,
      "≈": 1292,
      "≊": 1293,
      "≌": 1294,
      "≍": 1295,
      "≏": 1296,
      "≐": 1297,
      "≑": 1298,
      "≒": 1299,
      "≔": 1300,
      "≖": 1301,
      "≘": 1302,
      "≙": 1303,
      "≜": 1304,
      "≡": 1305,
      "≣": 1306,
      "≤": 1307,
      "≥": 1308,
      "≦": 1309,
      "≧": 1310,
      "≨": 1311,
      "≪": 1312,
      "≫": 1313,
      "≲": 1314,
      "≳": 1315,
      "≶": 1316,
      "≷": 1317,
      "≺": 1318,
      "≻": 1319,
      "≼": 1320,
      "≽": 1321,
      "≾": 1322,
      "≿": 1323,
      "⊂": 1324,
      "⊃": 1325,
      "⊆": 1326,
      "⊇": 1327,
      "⊊": 1328,
      "⊎": 1329,
      "⊓": 1330,
      "⊔": 1331,
      "⊕": 1332,
      "⊖": 1333,
      "⊗": 1334,
      "⊘": 1335,
      "⊙": 1336,
      "⊚": 1337,
      "⊛": 1338,
      "⊝": 1339,
      "⊞": 1340,
      "⊟": 1341,
      "⊠": 1342,
      "⊡": 1343,
      "⊢": 1344,
      "⊣": 1345,
      "⊤": 1346,
      "⊥": 1347,
      "⊳": 1348,
      "⊸": 1349,
      "⊿": 1350,
      "⋁": 1351,
      "⋂": 1352,
      "⋃": 1353,
      "⋄": 1354,
      "⋅": 1355,
      "⋆": 1356,
      "⋈": 1357,
      "⋊": 1358,
      "⋍": 1359,
      "⋎": 1360,
      "⋗": 1361,
      "⋘": 1362,
      "⋙": 1363,
      "⋜": 1364,
      "⋝": 1365,
      "⋮": 1366,
      "⋯": 1367,
      "⌀": 1368,
      "⌃": 1369,
      "⌈": 1370,
      "⌉": 1371,
      "⌊": 1372,
      "⌋": 1373,
      "⌐": 1374,
      "⌒": 1375,
      "⌖": 1376,
      "⌜": 1377,
      "⌝": 1378,
      "⌠": 1379,
      "⌢": 1380,
      "⌣": 1381,
      "⍙": 1382,
      "⍛": 1383,
      "⍦": 1384,
      "⍬": 1385,
      "⍰": 1386,
      "⍳": 1387,
      "⍴": 1388,
      "⍵": 1389,
      "⍺": 1390,
      "⎓": 1391,
      "⎔": 1392,
      "⎕": 1393,
      "⎛": 1394,
      "⎤": 1395,
      "⎯": 1396,
      "⎼": 1397,
      "⏊": 1398,
      "␣": 1399,
      "①": 1400,
      "②": 1401,
      "③": 1402,
      "④": 1403,
      "⑤": 1404,
      "⑥": 1405,
      "⑦": 1406,
      "⑧": 1407,
      "⑨": 1408,
      "⑩": 1409,
      "⑴": 1410,
      "⑵": 1411,
      "⑶": 1412,
      "Ⓑ": 1413,
      "Ⓒ": 1414,
      "Ⓕ": 1415,
      "Ⓝ": 1416,
      "Ⓟ": 1417,
      "Ⓡ": 1418,
      "ⓒ": 1419,
      "ⓟ": 1420,
      "─": 1421,
      "━": 1422,
      "│": 1423,
      "┄": 1424,
      "┅": 1425,
      "┏": 1426,
      "└": 1427,
      "┛": 1428,
      "├": 1429,
      "┤": 1430,
      "┬": 1431,
      "┴": 1432,
      "┻": 1433,
      "═": 1434,
      "║": 1435,
      "╗": 1436,
      "╪": 1437,
      "╫": 1438,
      "╳": 1439,
      "▁": 1440,
      "█": 1441,
      "▉": 1442,
      "░": 1443,
      "▒": 1444,
      "▓": 1445,
      "■": 1446,
      "□": 1447,
      "▪": 1448,
      "▫": 1449,
      "▬": 1450,
      "▯": 1451,
      "▱": 1452,
      "▲": 1453,
      "△": 1454,
      "▴": 1455,
      "▵": 1456,
      "▶": 1457,
      "▸": 1458,
      "▹": 1459,
      "►": 1460,
      "▼": 1461,
      "▽": 1462,
      "▾": 1463,
      "▿": 1464,
      "◆": 1465,
      "◇": 1466,
      "◊": 1467,
      "○": 1468,
      "◎": 1469,
      "●": 1470,
      "◗": 1471,
      "◦": 1472,
      "◯": 1473,
      "◻": 1474,
      "◼": 1475,
      "◽": 1476,
      "◾": 1477,
      "★": 1478,
      "☆": 1479,
      "☉": 1480,
      "☐": 1481,
      "☑": 1482,
      "☓": 1483,
      "☯": 1484,
      "☱": 1485,
      "☹": 1486,
      "☺": 1487,
      "☼": 1488,
      "♀": 1489,
      "♁": 1490,
      "♂": 1491,
      "♠": 1492,
      "♡": 1493,
      "♢": 1494,
      "♣": 1495,
      "♥": 1496,
      "♦": 1497,
      "♪": 1498,
      "♭": 1499,
      "♮": 1500,
      "♯": 1501,
      "⚥": 1502,
      "⚫": 1503,
      "✓": 1504,
      "✔": 1505,
      "✕": 1506,
      "✗": 1507,
      "✘": 1508,
      "✜": 1509,
      "✝": 1510,
      "✠": 1511,
      "✧": 1512,
      "✱": 1513,
      "✴": 1514,
      "✶": 1515,
      "❋": 1516,
      "❖": 1517,
      "❶": 1518,
      "❷": 1519,
      "➀": 1520,
      "➁": 1521,
      "➂": 1522,
      "➃": 1523,
      "➔": 1524,
      "➙": 1525,
      "➜": 1526,
      "➝": 1527,
      "➞": 1528,
      "➢": 1529,
      "➤": 1530,
      "➧": 1531,
      "⟀": 1532,
      "⟁": 1533,
      "⟂": 1534,
      "⟝": 1535,
      "⟦": 1536,
      "⟧": 1537,
      "⟨": 1538,
      "⟩": 1539,
      "⟪": 1540,
      "⟫": 1541,
      "⟵": 1542,
      "⟶": 1543,
      "⟷": 1544,
      "⟺": 1545,
      "⟼": 1546,
      "⠃": 1547,
      "⠇": 1548,
      "⠉": 1549,
      "⠐": 1550,
      "⠒": 1551,
      "⠕": 1552,
      "⠗": 1553,
      "⠙": 1554,
      "⠞": 1555,
      "⠬": 1556,
      "⠻": 1557,
      "⤳": 1558,
      "⦀": 1559,
      "⦁": 1560,
      "⦌": 1561,
      "⦵": 1562,
      "⧁": 1563,
      "⧄": 1564,
      "⧅": 1565,
      "⧎": 1566,
      "⧧": 1567,
      "⧫": 1568,
      "⧸": 1569,
      "⧹": 1570,
      "⨀": 1571,
      "⨁": 1572,
      "⨂": 1573,
      "⨉": 1574,
      "⨦": 1575,
      "⨪": 1576,
      "⨯": 1577,
      "⨰": 1578,
      "⩒": 1579,
      "⩦": 1580,
      "⩼": 1581,
      "⩽": 1582,
      "⩾": 1583,
      "⩿": 1584,
      "⪅": 1585,
      "⪆": 1586,
      "⪍": 1587,
      "⪕": 1588,
      "⪖": 1589,
      "⪝": 1590,
      "⪞": 1591,
      "⪡": 1592,
      "⪢": 1593,
      "⪯": 1594,
      "⪰": 1595,
      "⫅": 1596,
      "⫖": 1597,
      "⫫": 1598,
      "⫹": 1599,
      "⫽": 1600,
      "⬄": 1601,
      "⬓": 1602,
      "⬛": 1603,
      "⬜": 1604,
      "⬡": 1605,
      "⬢": 1606,
      "⬧": 1607,
      "⬰": 1608,
      "⬽": 1609,
      "⭘": 1610,
      "⮚": 1611,
      "Ⱔ": 1612,
      "Ⱕ": 1613,
      "Ⱪ": 1614,
      "ⱪ": 1615,
      "Ⱶ": 1616,
      "ⱷ": 1617,
      "ⲫ": 1618,
      "ⴄ": 1619,
      "ⵙ": 1620,
      "⸍": 1621,
      "⸦": 1622,
      "⸧": 1623,
      "⸰": 1624,
      "⸱": 1625,
      "⸳": 1626,
      "⸸": 1627,
      "⸺": 1628,
      "⸻": 1629,
      "⿤": 1630,
      "⿥": 1631,
      "⿬": 1632,
      "⿲": 1633,
      "⿿": 1634,
      "、": 1635,
      "。": 1636,
      "〈": 1637,
      "〉": 1638,
      "《": 1639,
      "》": 1640,
      "「": 1641,
      "」": 1642,
      "『": 1643,
      "【": 1644,
      "】": 1645,
      "〓": 1646,
      "〔": 1647,
      "〕": 1648,
      "〖": 1649,
      "〗": 1650,
      "〚": 1651,
      "〛": 1652,
      "〜": 1653,
      "〝": 1654,
      "〞": 1655,
      "〟": 1656,
      "〰": 1657,
      "あ": 1658,
      "い": 1659,
      "ぅ": 1660,
      "う": 1661,
      "え": 1662,
      "お": 1663,
      "か": 1664,
      "き": 1665,
      "く": 1666,
      "け": 1667,
      "こ": 1668,
      "さ": 1669,
      "し": 1670,
      "す": 1671,
      "せ": 1672,
      "そ": 1673,
      "た": 1674,
      "ち": 1675,
      "っ": 1676,
      "つ": 1677,
      "て": 1678,
      "と": 1679,
      "な": 1680,
      "に": 1681,
      "の": 1682,
      "は": 1683,
      "ひ": 1684,
      "ふ": 1685,
      "ま": 1686,
      "み": 1687,
      "め": 1688,
      "も": 1689,
      "や": 1690,
      "よ": 1691,
      "ら": 1692,
      "り": 1693,
      "る": 1694,
      "れ": 1695,
      "わ": 1696,
      "を": 1697,
      "ん": 1698,
      "゜": 1699,
      "ア": 1700,
      "ィ": 1701,
      "イ": 1702,
      "ェ": 1703,
      "エ": 1704,
      "カ": 1705,
      "ク": 1706,
      "ケ": 1707,
      "コ": 1708,
      "サ": 1709,
      "シ": 1710,
      "ス": 1711,
      "タ": 1712,
      "チ": 1713,
      "ッ": 1714,
      "ツ": 1715,
      "テ": 1716,
      "ト": 1717,
      "ナ": 1718,
      "ニ": 1719,
      "ノ": 1720,
      "ハ": 1721,
      "ヒ": 1722,
      "フ": 1723,
      "ヘ": 1724,
      "ホ": 1725,
      "マ": 1726,
      "ミ": 1727,
      "ム": 1728,
      "メ": 1729,
      "モ": 1730,
      "ュ": 1731,
      "ラ": 1732,
      "リ": 1733,
      "ル": 1734,
      "レ": 1735,
      "ロ": 1736,
      "ン": 1737,
      "・": 1738,
      "ー": 1739,
      "ㄍ": 1740,
      "ㄹ": 1741,
      "ㄾ": 1742,
      "ㅊ": 1743,
      "ㅏ": 1744,
      "ㅐ": 1745,
      "ㅑ": 1746,
      "ㅓ": 1747,
      "ㅕ": 1748,
      "ㅗ": 1749,
      "ㅛ": 1750,
      "ㅜ": 1751,
      "ㅠ": 1752,
      "ㅣ": 1753,
      "ㆍ": 1754,
      "㎂": 1755,
      "㎍": 1756,
      "㎎": 1757,
      "㎕": 1758,
      "㎖": 1759,
      "㎛": 1760,
      "㎝": 1761,
      "㎟": 1762,
      "㎡": 1763,
      "㎥": 1764,
      "㎶": 1765,
      "㏒": 1766,
      "㒐": 1767,
      "㯌": 1768,
      "一": 1769,
      "丸": 1770,
      "丹": 1771,
      "二": 1772,
      "人": 1773,
      "仙": 1774,
      "倫": 1775,
      "关": 1776,
      "养": 1777,
      "化": 1778,
      "十": 1779,
      "卍": 1780,
      "参": 1781,
      "味": 1782,
      "囊": 1783,
      "地": 1784,
      "壮": 1785,
      "复": 1786,
      "大": 1787,
      "妇": 1788,
      "子": 1789,
      "射": 1790,
      "平": 1791,
      "府": 1792,
      "康": 1793,
      "延": 1794,
      "房": 1795,
      "承": 1796,
      "新": 1797,
      "方": 1798,
      "春": 1799,
      "毒": 1800,
      "气": 1801,
      "汤": 1802,
      "泉": 1803,
      "注": 1804,
      "活": 1805,
      "消": 1806,
      "液": 1807,
      "清": 1808,
      "温": 1809,
      "湯": 1810,
      "湿": 1811,
      "潜": 1812,
      "热": 1813,
      "片": 1814,
      "王": 1815,
      "生": 1816,
      "痛": 1817,
      "痞": 1818,
      "瘀": 1819,
      "瘟": 1820,
      "白": 1821,
      "益": 1822,
      "祛": 1823,
      "粒": 1824,
      "红": 1825,
      "肝": 1826,
      "肾": 1827,
      "胃": 1828,
      "胆": 1829,
      "胶": 1830,
      "脉": 1831,
      "脾": 1832,
      "至": 1833,
      "艾": 1834,
      "节": 1835,
      "芎": 1836,
      "芪": 1837,
      "荣": 1838,
      "虎": 1839,
      "虛": 1840,
      "血": 1841,
      "补": 1842,
      "败": 1843,
      "迪": 1844,
      "透": 1845,
      "逐": 1846,
      "阳": 1847,
      "附": 1848,
      "陽": 1849,
      "颗": 1850,
      "饮": 1851,
      "骨": 1852,
      "鹤": 1853,
      "麦": 1854,
      "黃": 1855,
      "龄": 1856,
      "ꓕ": 1857,
      "ꓫ": 1858,
      "ꓼ": 1859,
      "꓿": 1860,
      "ꘌ": 1861,
      "ꙍ": 1862,
      "ꙙ": 1863,
      "ꙡ": 1864,
      "ꜛ": 1865,
      "Ꜥ": 1866,
      "Ꜫ": 1867,
      "ꝏ": 1868,
      "ꝛ": 1869,
      "ꝩ": 1870,
      "ꞃ": 1871,
      "Ꞇ": 1872,
      "꞉": 1873,
      "꞊": 1874,
      "Ꞌ": 1875,
      "ꞌ": 1876,
      "ꞏ": 1877,
      "Ʇ": 1878,
      "Ꞵ": 1879,
      "ꞵ": 1880,
      "Ꞷ": 1881,
      "ꞷ": 1882,
      "ꟷ": 1883,
      "ꭃ": 1884,
      "ꭓ": 1885,
      "ꭔ": 1886,
      "ꭕ": 1887,
      "ꭙ": 1888,
      "ꭤ": 1889,
      "": 1890,
      "": 1891,
      "": 1892,
      "": 1893,
      "": 1894,
      "": 1895,
      "": 1896,
      "": 1897,
      "": 1898,
      "": 1899,
      "": 1900,
      "": 1901,
      "": 1902,
      "": 1903,
      "": 1904,
      "": 1905,
      "": 1906,
      "": 1907,
      "": 1908,
      "": 1909,
      "": 1910,
      "": 1911,
      "": 1912,
      "": 1913,
      "": 1914,
      "": 1915,
      "": 1916,
      "": 1917,
      "": 1918,
      "": 1919,
      "": 1920,
      "": 1921,
      "": 1922,
      "": 1923,
      "": 1924,
      "": 1925,
      "": 1926,
      "": 1927,
      "": 1928,
      "": 1929,
      "": 1930,
      "": 1931,
      "": 1932,
      "": 1933,
      "": 1934,
      "": 1935,
      "": 1936,
      "": 1937,
      "": 1938,
      "": 1939,
      "": 1940,
      "": 1941,
      "": 1942,
      "": 1943,
      "": 1944,
      "": 1945,
      "": 1946,
      "": 1947,
      "": 1948,
      "": 1949,
      "": 1950,
      "": 1951,
      "": 1952,
      "": 1953,
      "": 1954,
      "": 1955,
      "": 1956,
      "": 1957,
      "": 1958,
      "": 1959,
      "": 1960,
      "": 1961,
      "": 1962,
      "": 1963,
      "": 1964,
      "": 1965,
      "": 1966,
      "": 1967,
      "": 1968,
      "": 1969,
      "": 1970,
      "": 1971,
      "": 1972,
      "": 1973,
      "": 1974,
      "": 1975,
      "": 1976,
      "": 1977,
      "": 1978,
      "": 1979,
      "": 1980,
      "": 1981,
      "": 1982,
      "": 1983,
      "": 1984,
      "": 1985,
      "": 1986,
      "": 1987,
      "": 1988,
      "": 1989,
      "": 1990,
      "": 1991,
      "": 1992,
      "": 1993,
      "": 1994,
      "": 1995,
      "": 1996,
      "": 1997,
      "": 1998,
      "": 1999,
      "": 2000,
      "": 2001,
      "": 2002,
      "": 2003,
      "": 2004,
      "": 2005,
      "": 2006,
      "": 2007,
      "": 2008,
      "": 2009,
      "": 2010,
      "": 2011,
      "": 2012,
      "": 2013,
      "": 2014,
      "": 2015,
      "": 2016,
      "": 2017,
      "": 2018,
      "": 2019,
      "": 2020,
      "": 2021,
      "": 2022,
      "": 2023,
      "": 2024,
      "": 2025,
      "": 2026,
      "": 2027,
      "": 2028,
      "": 2029,
      "": 2030,
      "": 2031,
      "": 2032,
      "": 2033,
      "": 2034,
      "": 2035,
      "": 2036,
      "": 2037,
      "": 2038,
      "": 2039,
      "": 2040,
      "": 2041,
      "": 2042,
      "": 2043,
      "": 2044,
      "": 2045,
      "": 2046,
      "": 2047,
      "": 2048,
      "": 2049,
      "": 2050,
      "": 2051,
      "": 2052,
      "": 2053,
      "ﬀ": 2054,
      "ﬁ": 2055,
      "ﬂ": 2056,
      "ﬃ": 2057,
      "ﬄ": 2058,
      "ﬅ": 2059,
      "ﭏ": 2060,
      "﴾": 2061,
      "﴿": 2062,
      "︒": 2063,
      "︰": 2064,
      "︵": 2065,
      "︸": 2066,
      "﹑": 2067,
      "﹒": 2068,
      "﹙": 2069,
      "﹚": 2070,
      "﹛": 2071,
      "﹡": 2072,
      "﹢": 2073,
      "﹣": 2074,
      "﹤": 2075,
      "﹥": 2076,
      "﹩": 2077,
      "﹪": 2078,
      "ﻻ": 2079,
      "﻿": 2080,
      "＂": 2081,
      "＃": 2082,
      "＄": 2083,
      "％": 2084,
      "＆": 2085,
      "＇": 2086,
      "（": 2087,
      "）": 2088,
      "＊": 2089,
      "＋": 2090,
      "，": 2091,
      "－": 2092,
      "．": 2093,
      "／": 2094,
      "１": 2095,
      "４": 2096,
      "６": 2097,
      "７": 2098,
      "：": 2099,
      "；": 2100,
      "＜": 2101,
      "＝": 2102,
      "＞": 2103,
      "？": 2104,
      "＠": 2105,
      "Ｇ": 2106,
      "Ｋ": 2107,
      "Ｍ": 2108,
      "Ｐ": 2109,
      "Ｒ": 2110,
      "Ｗ": 2111,
      "Ｚ": 2112,
      "［": 2113,
      "＼": 2114,
      "］": 2115,
      "＾": 2116,
      "＿": 2117,
      "ｃ": 2118,
      "ｉ": 2119,
      "ｌ": 2120,
      "ｍ": 2121,
      "ｎ": 2122,
      "ｏ": 2123,
      "ｓ": 2124,
      "ｖ": 2125,
      "ｘ": 2126,
      "｛": 2127,
      "｜": 2128,
      "｝": 2129,
      "～": 2130,
      "｢": 2131,
      "｣": 2132,
      "､": 2133,
      "･": 2134,
      "ｧ": 2135,
      "ｰ": 2136,
      "ｱ": 2137,
      "ｵ": 2138,
      "ｾ": 2139,
      "ﾀ": 2140,
      "ﾂ": 2141,
      "ﾓ": 2142,
      "ￗ": 2143,
      "ￚ": 2144,
      "￠": 2145,
      "￡": 2146,
      "￢": 2147,
      "￥": 2148,
      "￦": 2149,
      "￼": 2150,
      "�": 2151,
      "𝌁": 2152,
      "𝐑": 2153,
      "𝐟": 2154,
      "𝐤": 2155,
      "𝐫": 2156,
      "𝐴": 2157,
      "𝐵": 2158,
      "𝐶": 2159,
      "𝐷": 2160,
      "𝐸": 2161,
      "𝐹": 2162,
      "𝐺": 2163,
      "𝐻": 2164,
      "𝐿": 2165,
      "𝑀": 2166,
      "𝑁": 2167,
      "𝑂": 2168,
      "𝑃": 2169,
      "𝑄": 2170,
      "𝑅": 2171,
      "𝑆": 2172,
      "𝑇": 2173,
      "𝑉": 2174,
      "𝑊": 2175,
      "𝑋": 2176,
      "𝑎": 2177,
      "𝑏": 2178,
      "𝑐": 2179,
      "𝑑": 2180,
      "𝑒": 2181,
      "𝑓": 2182,
      "𝑔": 2183,
      "𝑖": 2184,
      "𝑘": 2185,
      "𝑙": 2186,
      "𝑚": 2187,
      "𝑛": 2188,
      "𝑜": 2189,
      "𝑝": 2190,
      "𝑟": 2191,
      "𝑠": 2192,
      "𝑡": 2193,
      "𝑥": 2194,
      "𝑦": 2195,
      "𝒆": 2196,
      "𝒙": 2197,
      "𝒞": 2198,
      "𝒟": 2199,
      "𝒢": 2200,
      "𝒦": 2201,
      "𝒩": 2202,
      "𝒪": 2203,
      "𝒫": 2204,
      "𝒮": 2205,
      "𝒯": 2206,
      "𝒱": 2207,
      "𝒴": 2208,
      "𝒾": 2209,
      "𝓁": 2210,
      "𝓇": 2211,
      "𝓗": 2212,
      "𝓘": 2213,
      "𝓞": 2214,
      "𝓡": 2215,
      "𝓣": 2216,
      "𝔃": 2217,
      "𝔇": 2218,
      "𝔉": 2219,
      "𝔐": 2220,
      "𝔹": 2221,
      "𝔻": 2222,
      "𝕀": 2223,
      "𝕊": 2224,
      "𝕏": 2225,
      "𝕜": 2226,
      "𝖢": 2227,
      "𝖱": 2228,
      "𝗑": 2229,
      "𝘗": 2230,
      "𝘢": 2231,
      "𝘤": 2232,
      "𝘥": 2233,
      "𝘪": 2234,
      "𝘭": 2235,
      "𝘮": 2236,
      "𝘰": 2237,
      "𝘱": 2238,
      "𝘳": 2239,
      "𝘴": 2240,
      "𝘶": 2241,
      "𝘹": 2242,
      "𝚫": 2243,
      "𝚿": 2244,
      "𝛂": 2245,
      "𝛃": 2246,
      "𝛄": 2247,
      "𝛅": 2248,
      "𝛆": 2249,
      "𝛇": 2250,
      "𝛋": 2251,
      "𝛍": 2252,
      "𝛘": 2253,
      "𝛤": 2254,
      "𝛥": 2255,
      "𝛸": 2256,
      "𝛹": 2257,
      "𝛼": 2258,
      "𝛽": 2259,
      "𝛾": 2260,
      "𝛿": 2261,
      "𝜀": 2262,
      "𝜁": 2263,
      "𝜂": 2264,
      "𝜃": 2265,
      "𝜅": 2266,
      "𝜆": 2267,
      "𝜇": 2268,
      "𝜋": 2269,
      "𝜌": 2270,
      "𝜎": 2271,
      "𝜏": 2272,
      "𝜒": 2273,
      "𝜔": 2274,
      "𝜖": 2275,
      "𝜗": 2276,
      "𝜟": 2277,
      "𝜶": 2278,
      "𝜷": 2279,
      "𝜸": 2280,
      "𝜹": 2281,
      "𝜼": 2282,
      "𝜿": 2283,
      "𝝀": 2284,
      "𝝁": 2285,
      "𝝅": 2286,
      "𝝌": 2287,
      "𝝰": 2288,
      "𝝹": 2289,
      "𝞭": 2290,
      "𝞽": 2291,
      "𝟀": 2292,
      "🄬": 2293,
      "😊": 2294,
      "😐": 2295,
      "😢": 2296,
      "😣": 2297,
      "🡪": 2298,
      "𠀓": 2299,
      "𠄼": 2300,
      "𠄽": 2301,
      "𠆀": 2302,
      "𰀎": 2303,
      "񥌈": 2304,
      "󿇀": 2305,
      "􀀀": 2306,
      "􀀃": 2307,
      "􀁅": 2308,
      "􀁆": 2309,
      "􀁊": 2310,
      "􀁐": 2311,
      "􀁕": 2312,
      "􀁠": 2313,
      "􀂡": 2314,
      "􀂢": 2315,
      "􀂣": 2316,
      "􀃼": 2317,
      "􀆌": 2318,
      "􀆗": 2319,
      "􀆘": 2320,
      "􀍗": 2321,
      "􀏐": 2322,
      "􀏔": 2323,
      "􀳏": 2324,
      "􏰁": 2325,
      "􏰃": 2326,
      "##s": 2327,
      "##C": 2328,
      "##O": 2329,
      "##N": 2330,
      "##1": 2331,
      "##4": 2332,
      "##H": 2333,
      "##2": 2334,
      "##0": 2335,
      "##F": 2336,
      "##e": 2337,
      "##o": 2338,
      "##r": 2339,
      "##l": 2340,
      "##i": 2341,
      "##a": 2342,
      "##u": 2343,
      "##c": 2344,
      "##G": 2345,
      "##n": 2346,
      "##≥": 2347,
      "##3": 2348,
      "##R": 2349,
      "##E": 2350,
      "##p": 2351,
      "##y": 2352,
      "##h": 2353,
      "##t": 2354,
      "##z": 2355,
      "##α": 2356,
      "##6": 2357,
      "##T": 2358,
      "##M": 2359,
      "##d": 2360,
      "##g": 2361,
      "##f": 2362,
      "##x": 2363,
      "##±": 2364,
      "##S": 2365,
      "##m": 2366,
      "##k": 2367,
      "##9": 2368,
      "##J": 2369,
      "##A": 2370,
      "##I": 2371,
      "##w": 2372,
      "##v": 2373,
      "##V": 2374,
      "##b": 2375,
      "##D": 2376,
      "##8": 2377,
      "##P": 2378,
      "##B": 2379,
      "##7": 2380,
      "##L": 2381,
      "##™": 2382,
      "##Q": 2383,
      "##Z": 2384,
      "##5": 2385,
      "##U": 2386,
      "##K": 2387,
      "##®": 2388,
      "##j": 2389,
      "##≪": 2390,
      "##＜": 2391,
      "##→": 2392,
      "##W": 2393,
      "##°": 2394,
      "##∆": 2395,
      "##X": 2396,
      "##Y": 2397,
      "##∼": 2398,
      "##©": 2399,
      "##²": 2400,
      "##₂": 2401,
      "##₄": 2402,
      "##q": 2403,
      "##−": 2404,
      "##μ": 2405,
      "##Δ": 2406,
      "##↓": 2407,
      "##═": 2408,
      "##∗": 2409,
      "##ø": 2410,
      "##×": 2411,
      "##∖": 2412,
      "##⩽": 2413,
      "##с": 2414,
      "##⋯": 2415,
      "##⩾": 2416,
      "##∓": 2417,
      "##γ": 2418,
      "##ρ": 2419,
      "##≡": 2420,
      "##і": 2421,
      "##∘": 2422,
      "##≤": 2423,
      "##˩": 2424,
      "##đ": 2425,
      "##β": 2426,
      "##∶": 2427,
      "##⋅": 2428,
      "##µ": 2429,
      "##～": 2430,
      "##‎": 2431,
      "##Ν": 2432,
      "##Α": 2433,
      "##∕": 2434,
      "##÷": 2435,
      "##​": 2436,
      "##∙": 2437,
      "##ν": 2438,
      "##˙": 2439,
      "##₁": 2440,
      "##τ": 2441,
      "##ε": 2442,
      "##℅": 2443,
      "##←": 2444,
      "##¹": 2445,
      "##⁶": 2446,
      "##⁵": 2447,
      "##π": 2448,
      "##ꞵ": 2449,
      "##Ø": 2450,
      "##∥": 2451,
      "##△": 2452,
      "##├": 2453,
      "##⁻": 2454,
      "##≧": 2455,
      "##₃": 2456,
      "##Ⅲ": 2457,
      "##λ": 2458,
      "##☓": 2459,
      "##": 2460,
      "##␣": 2461,
      "##´": 2462,
      "##─": 2463,
      "##⁷": 2464,
      "##≫": 2465,
      "##↔": 2466,
      "##₈": 2467,
      "##≈": 2468,
      "##₋": 2469,
      "##ζ": 2470,
      "##₀": 2471,
      "##ʔ": 2472,
      "##θ": 2473,
      "##ə": 2474,
      "##δ": 2475,
      "##ϒ": 2476,
      "##Θ": 2477,
      "##ﬁ": 2478,
      "##¯": 2479,
      "##⋝": 2480,
      "##ψ": 2481,
      "##€": 2482,
      "##↑": 2483,
      "##ل": 2484,
      "##ن": 2485,
      "##ب": 2486,
      "##ا": 2487,
      "##ت": 2488,
      "##ي": 2489,
      "##ة": 2490,
      "##₆": 2491,
      "##⊥": 2492,
      "##℃": 2493,
      "##�": 2494,
      "##Π": 2495,
      "##χ": 2496,
      "##∞": 2497,
      "##ω": 2498,
      "##₇": 2499,
      "##Ⅱ": 2500,
      "##＋": 2501,
      "##І": 2502,
      "##⁺": 2503,
      "##Φ": 2504,
      "##∑": 2505,
      "##ł": 2506,
      "##º": 2507,
      "##ο": 2508,
      "##﻿": 2509,
      "##＞": 2510,
      "##ß": 2511,
      "##х": 2512,
      "##≳": 2513,
      "##▪": 2514,
      "##✕": 2515,
      "##Ⅰ": 2516,
      "##‏": 2517,
      "##Σ": 2518,
      "##♀": 2519,
      "##³": 2520,
      "##о": 2521,
      "##р": 2522,
      "##а": 2523,
      "##н": 2524,
      "##е": 2525,
      "##и": 2526,
      "##": 2527,
      "##Ω": 2528,
      "##ɑ": 2529,
      "##√": 2530,
      "##ˮ": 2531,
      "##⊃": 2532,
      "##": 2533,
      "##ð": 2534,
      "##ɛ": 2535,
      "##ı": 2536,
      "##⁢": 2537,
      "##": 2538,
      "##φ": 2539,
      "##æ": 2540,
      "##˃": 2541,
      "##ᅭ": 2542,
      "##ᄋ": 2543,
      "##ᅵ": 2544,
      "##ᆫ": 2545,
      "##ᄃ": 2546,
      "##ᅳ": 2547,
      "##ᆯ": 2548,
      "##ᅩ": 2549,
      "##ξ": 2550,
      "##κ": 2551,
      "##ʰ": 2552,
      "##": 2553,
      "##з": 2554,
      "##м": 2555,
      "##ы": 2556,
      "##♂": 2557,
      "##С": 2558,
      "##Ⅷ": 2559,
      "##᾽": 2560,
      "##ˆ": 2561,
      "##➔": 2562,
      "##Ⓡ": 2563,
      "##⁰": 2564,
      "##∝": 2565,
      "##": 2566,
      "##υ": 2567,
      "##σ": 2568,
      "##≃": 2569,
      "##○": 2570,
      "##⊆": 2571,
      "##∩": 2572,
      "##˚": 2573,
      "##˜": 2574,
      "##ϕ": 2575,
      "##к": 2576,
      "##⁹": 2577,
      "##Ι": 2578,
      "##⁴": 2579,
      "##¬": 2580,
      "##": 2581,
      "##ɸ": 2582,
      "##⁸": 2583,
      "##": 2584,
      "##⊟": 2585,
      "##М": 2586,
      "##ﬂ": 2587,
      "##വ": 2588,
      "##ര": 2589,
      "##₅": 2590,
      "##": 2591,
      "##⁄": 2592,
      "##त": 2593,
      "##प": 2594,
      "##द": 2595,
      "##न": 2596,
      "##क": 2597,
      "##Ш": 2598,
      "##¨": 2599,
      "##ᵒ": 2600,
      "##ι": 2601,
      "##": 2602,
      "##п": 2603,
      "##л": 2604,
      "##ь": 2605,
      "##│": 2606,
      "##∂": 2607,
      "##Т": 2608,
      "##ς": 2609,
      "##˂": 2610,
      "##Η": 2611,
      "##ж": 2612,
      "##┬": 2613,
      "##⊂": 2614,
      "##Ⅴ": 2615,
      "##": 2616,
      "##": 2617,
      "##¢": 2618,
      "##Б": 2619,
      "##Р": 2620,
      "##⇌": 2621,
      "##ɡ": 2622,
      "##▸": 2623,
      "##□": 2624,
      "##⅔": 2625,
      "##と": 2626,
      "##を": 2627,
      "##て": 2628,
      "##う": 2629,
      "##こ": 2630,
      "##か": 2631,
      "##き": 2632,
      "##↿": 2633,
      "##­": 2634,
      "##⇔": 2635,
      "##＝": 2636,
      "##◦": 2637,
      "##∣": 2638,
      "##η": 2639,
      "##": 2640,
      "##₉": 2641,
      "##£": 2642,
      "##Β": 2643,
      "##Ф": 2644,
      "##": 2645,
      "##д": 2646,
      "##⁡": 2647,
      "##‍": 2648,
      "##ⅹ": 2649,
      "##œ": 2650,
      "##⊕": 2651,
      "##Е": 2652,
      "##⧹": 2653,
      "##¾": 2654,
      "##¥": 2655,
      "##≦": 2656,
      "##": 2657,
      "##Γ": 2658,
      "##А": 2659,
      "##പ": 2660,
      "##യ": 2661,
      "##ഗ": 2662,
      "##ത": 2663,
      "##ല": 2664,
      "##ട": 2665,
      "##ħ": 2666,
      "##⁠": 2667,
      "##ℏ": 2668,
      "##ц": 2669,
      "##я": 2670,
      "##ﬀ": 2671,
      "##у": 2672,
      "##в": 2673,
      "##य": 2674,
      "##च": 2675,
      "##व": 2676,
      "##ळ": 2677,
      "##≲": 2678,
      "##▵": 2679,
      "##≅": 2680,
      "##¸": 2681,
      "##ʃ": 2682,
      "##ᅟ": 2683,
      "##Ɛ": 2684,
      "##˝": 2685,
      "##΄": 2686,
      "##و": 2687,
      "##ء": 2688,
      "##ℓ": 2689,
      "##ˇ": 2690,
      "##": 2691,
      "##₊": 2692,
      "##ϑ": 2693,
      "##½": 2694,
      "##●": 2695,
      "##∈": 2696,
      "##ꞌ": 2697,
      "##Λ": 2698,
      "##‌": 2699,
      "##∠": 2700,
      "##þ": 2701,
      "##Ε": 2702,
      "##ɣ": 2703,
      "##ѱ": 2704,
      "##Ψ": 2705,
      "##т": 2706,
      "##": 2707,
      "##􏰁": 2708,
      "##΀": 2709,
      "##ɩ": 2710,
      "##⧧": 2711,
      "##∫": 2712,
      "##ч": 2713,
      "##Ӏ": 2714,
      "##": 2715,
      "##Χ": 2716,
      "##Г": 2717,
      "##Κ": 2718,
      "##Ζ": 2719,
      "##ӿ": 2720,
      "##░": 2721,
      "##≐": 2722,
      "##": 2723,
      "##": 2724,
      "##⟶": 2725,
      "##ɔ": 2726,
      "##ʀ": 2727,
      "##𝐶": 2728,
      "##𝑟": 2729,
      "##𝑒": 2730,
      "##⦁": 2731,
      "##ك": 2732,
      "##س": 2733,
      "##ق": 2734,
      "##▫": 2735,
      "##∧": 2736,
      "##☺": 2737,
      "##ʲ": 2738,
      "##ɪ": 2739,
      "##ϵ": 2740,
      "##◊": 2741,
      "##ф": 2742,
      "##ꞏ": 2743,
      "##Μ": 2744,
      "##¼": 2745,
      "##ĸ": 2746,
      "##": 2747,
      "##ᵐ": 2748,
      "##": 2749,
      "##℠": 2750,
      "##≖": 2751,
      "##ː": 2752,
      "##𝛼": 2753,
      "##₦": 2754,
      "##Ɓ": 2755,
      "##ϱ": 2756,
      "##": 2757,
      "##↦": 2758,
      "##Τ": 2759,
      "##骨": 2760,
      "##消": 2761,
      "##痛": 2762,
      "##胶": 2763,
      "##囊": 2764,
      "##Ð": 2765,
      "##の": 2766,
      "##さ": 2767,
      "##れ": 2768,
      "##た": 2769,
      "##⊊": 2770,
      "##‬": 2771,
      "##∴": 2772,
      "##ԁ": 2773,
      "##⍵": 2774,
      "##ɤ": 2775,
      "##ꓕ": 2776,
      "##": 2777,
      "##ण": 2778,
      "##م": 2779,
      "##ث": 2780,
      "##ƞ": 2781,
      "##⎼": 2782,
      "##ㅜ": 2783,
      "##▼": 2784,
      "##᾿": 2785,
      "##Ƴ": 2786,
      "##г": 2787,
      "##ɚ": 2788,
      "##ع": 2789,
      "##د": 2790,
      "##": 2791,
      "##ͻ": 2792,
      "##⇆": 2793,
      "##ʂ": 2794,
      "##①": 2795,
      "##⇒": 2796,
      "##": 2797,
      "##ज": 2798,
      "##": 2799,
      "##ᅥ": 2800,
      "##ᆼ": 2801,
      "##ᄉ": 2802,
      "##ᄇ": 2803,
      "##ᅮ": 2804,
      "##ᆨ": 2805,
      "##ᄌ": 2806,
      "##↪": 2807,
      "##": 2808,
      "##⊖": 2809,
      "##غ": 2810,
      "##ر": 2811,
      "##ɹ": 2812,
      "##Ο": 2813,
      "##": 2814,
      "##": 2815,
      "##˭": 2816,
      "##र": 2817,
      "##ө": 2818,
      "##ǁ": 2819,
      "##ү": 2820,
      "##⊗": 2821,
      "##ན": 2822,
      "##В": 2823,
      "##": 2824,
      "##⍺": 2825,
      "##＾": 2826,
      "##Æ": 2827,
      "##⨯": 2828,
      "##ه": 2829,
      "##ƒ": 2830,
      "##⎯": 2831,
      "##ᅢ": 2832,
      "##ᄀ": 2833,
      "##ᅧ": 2834,
      "##ᄎ": 2835,
      "##█": 2836,
      "##": 2837,
      "##ᆸ": 2838,
      "##ᄒ": 2839,
      "##ᅡ": 2840,
      "##ᅱ": 2841,
      "##ᆷ": 2842,
      "##ӕ": 2843,
      "##⌢": 2844,
      "##": 2845,
      "##¦": 2846,
      "##Ɣ": 2847,
      "##ʌ": 2848,
      "##ⲫ": 2849,
      "##Ұ": 2850,
      "##ɒ": 2851,
      "##∇": 2852,
      "##ʒ": 2853,
      "##↷": 2854,
      "##ª": 2855,
      "##Ⅻ": 2856,
      "##ح": 2857,
      "##ص": 2858,
      "##˞": 2859,
      "##": 2860,
      "##ᄅ": 2861,
      "##ᅪ": 2862,
      "##б": 2863,
      "##": 2864,
      "##¤": 2865,
      "##": 2866,
      "##۰": 2867,
      "##◻": 2868,
      "##": 2869,
      "##∪": 2870,
      "##𝛅": 2871,
      "##ℱ": 2872,
      "##𝒯": 2873,
      "##􀀀": 2874,
      "##Х": 2875,
      "##Ｐ": 2876,
      "##₤": 2877,
      "##Ⅳ": 2878,
      "##ᆺ": 2879,
      "##ᄂ": 2880,
      "##芎": 2881,
      "##汤": 2882,
      "##⇄": 2883,
      "##ɮ": 2884,
      "##ᵀ": 2885,
      "##ᴹ": 2886,
      "##∷": 2887,
      "##▒": 2888,
      "##ह": 2889,
      "##ج": 2890,
      "##③": 2891,
      "##∃": 2892,
      "##ﬃ": 2893,
      "##⋆": 2894,
      "##ف": 2895,
      "##К": 2896,
      "##≒": 2897,
      "##˖": 2898,
      "##є": 2899,
      "##■": 2900,
      "##∏": 2901,
      "##Œ": 2902,
      "##∽": 2903,
      "##ढ": 2904,
      "##⁣": 2905,
      "##Ѱ": 2906,
      "##﹥": 2907,
      "##②": 2908,
      "##": 2909,
      "##ℂ": 2910,
      "##": 2911,
      "##⌣": 2912,
      "##ल": 2913,
      "##Н": 2914,
      "##О": 2915,
      "##ट": 2916,
      "##ى": 2917,
      "##◯": 2918,
      "##Ⱶ": 2919,
      "##ɀ": 2920,
      "##": 2921,
      "##": 2922,
      "##⪆": 2923,
      "##⬜": 2924,
      "##④": 2925,
      "##": 2926,
      "##ぅ": 2927,
      "##み": 2928,
      "##⎓": 2929,
      "##ʁ": 2930,
      "##􀆘": 2931,
      "##􀆌": 2932,
      "##↨": 2933,
      "##ʱ": 2934,
      "##∅": 2935,
      "##ƴ": 2936,
      "##ᇁ": 2937,
      "##ﬄ": 2938,
      "##Ξ": 2939,
      "##⧅": 2940,
      "##Ł": 2941,
      "##カ": 2942,
      "##ホ": 2943,
      "##ｘ": 2944,
      "##ദ": 2945,
      "##ന": 2946,
      "##മ": 2947,
      "##ള": 2948,
      "##": 2949,
      "##ᴵ": 2950,
      "##ᴺ": 2951,
      "##ᴷ": 2952,
      "##ᵃ": 2953,
      "##ℝ": 2954,
      "##⇝": 2955,
      "##": 2956,
      "##ߚ": 2957,
      "##ض": 2958,
      "##ط": 2959,
      "##ш": 2960,
      "##ƺ": 2961,
      "##ड": 2962,
      "##𝜀": 2963,
      "##ℤ": 2964,
      "##⊣": 2965,
      "##Ⅵ": 2966,
      "##⿿": 2967,
      "##⇋": 2968,
      "##ᴏ": 2969,
      "##ᅯ": 2970,
      "##ᅲ": 2971,
      "##ഭ": 2972,
      "##Ꞷ": 2973,
      "##ക": 2974,
      "##ᅴ": 2975,
      "##": 2976,
      "##↱": 2977,
      "##ش": 2978,
      "##خ": 2979,
      "##㎍": 2980,
      "##": 2981,
      "##": 2982,
      "##०": 2983,
      "##↘": 2984,
      "##ȥ": 2985,
      "##║": 2986,
      "##ϖ": 2987,
      "##ǀ": 2988,
      "##ƙ": 2989,
      "##℞": 2990,
      "##イ": 2991,
      "##ト": 2992,
      "##ラ": 2993,
      "##ン": 2994,
      "##に": 2995,
      "##つ": 2996,
      "##く": 2997,
      "##レ": 2998,
      "##ヒ": 2999,
      "##ュ": 3000,
      "##ー": 3001,
      "##し": 3002,
      "##★": 3003,
      "##И": 3004,
      "##ᶓ": 3005,
      "##ю": 3006,
      "##ᆻ": 3007,
      "##ᅦ": 3008,
      "##ᄁ": 3009,
      "##Ч": 3010,
      "##Ⅶ": 3011,
      "##ₐ": 3012,
      "##⊘": 3013,
      "##も": 3014,
      "##あ": 3015,
      "##っ": 3016,
      "##": 3017,
      "##З": 3018,
      "##Ю": 3019,
      "##Đ": 3020,
      "##꞉": 3021,
      "##⟂": 3022,
      "##ˑ": 3023,
      "##𝑝": 3024,
      "##𝑎": 3025,
      "##𝑡": 3026,
      "##𝑖": 3027,
      "##𝑙": 3028,
      "##ध": 3029,
      "##よ": 3030,
      "##ひ": 3031,
      "##": 3032,
      "##☹": 3033,
      "##∎": 3034,
      "##↗": 3035,
      "##ク": 3036,
      "##ス": 3037,
      "##⋃": 3038,
      "##⊝": 3039,
      "##Υ": 3040,
      "##ᄆ": 3041,
      "##": 3042,
      "##Ц": 3043,
      "##": 3044,
      "##ₑ": 3045,
      "##６": 3046,
      "##": 3047,
      "##₵": 3048,
      "##ᴂ": 3049,
      "##∊": 3050,
      "##": 3051,
      "##￢": 3052,
      "##ﾀ": 3053,
      "##ﾓ": 3054,
      "##ᅰ": 3055,
      "##ᆴ": 3056,
      "##": 3057,
      "##ब": 3058,
      "##स": 3059,
      "##ठ": 3060,
      "##⋎": 3061,
      "##ष": 3062,
      "##า": 3063,
      "##ผ": 3064,
      "##ส": 3065,
      "##ม": 3066,
      "##โ": 3067,
      "##ค": 3068,
      "##ล": 3069,
      "##น": 3070,
      "##􀂡": 3071,
      "##ར": 3072,
      "##": 3073,
      "##↼": 3074,
      "##": 3075,
      "##ང": 3076,
      "##⍛": 3077,
      "##ƛ": 3078,
      "##щ": 3079,
      "##𝛾": 3080,
      "##⍰": 3081,
      "##⋜": 3082,
      "##⠕": 3083,
      "##꞊": 3084,
      "##һ": 3085,
      "##": 3086,
      "##⩦": 3087,
      "##˄": 3088,
      "##⊙": 3089,
      "##い": 3090,
      "##ẞ": 3091,
      "##➝": 3092,
      "##𝛽": 3093,
      "##อ": 3094,
      "##ง": 3095,
      "##℉": 3096,
      "##ᴼ": 3097,
      "##ꜛ": 3098,
      "##⇐": 3099,
      "##⌖": 3100,
      "##श": 3101,
      "##פ": 3102,
      "##ר": 3103,
      "##ɕ": 3104,
      "##􀀃": 3105,
      "##": 3106,
      "##ɷ": 3107,
      "##П": 3108,
      "##☆": 3109,
      "##": 3110,
      "##⊡": 3111,
      "##ŋ": 3112,
      "##₹": 3113,
      "##ㅕ": 3114,
      "##ᴓ": 3115,
      "##ታ": 3116,
      "##⬰": 3117,
      "##ミ": 3118,
      "##⚫": 3119,
      "##Ƙ": 3120,
      "##ഠ": 3121,
      "##": 3122,
      "##ᴐ": 3123,
      "##ϴ": 3124,
      "##↕": 3125,
      "##𝑠": 3126,
      "##𝑐": 3127,
      "##𝑚": 3128,
      "##𝑛": 3129,
      "##􀂣": 3130,
      "##⅓": 3131,
      "##˛": 3132,
      "##⋮": 3133,
      "##モ": 3134,
      "##テ": 3135,
      "##ル": 3136,
      "##す": 3137,
      "##る": 3138,
      "##め": 3139,
      "##": 3140,
      "##": 3141,
      "##₣": 3142,
      "##": 3143,
      "##ㅠ": 3144,
      "##Л": 3145,
      "##゜": 3146,
      "##म": 3147,
      "##ཆ": 3148,
      "##མ": 3149,
      "##ƹ": 3150,
      "##𝒪": 3151,
      "##ۥ": 3152,
      "##ഷ": 3153,
      "##ണ": 3154,
      "##׹": 3155,
      "##Ϲ": 3156,
      "##ҫ": 3157,
      "##⁤": 3158,
      "##": 3159,
      "##ⁱ": 3160,
      "##": 3161,
      "##⍴": 3162,
      "##𝑜": 3163,
      "##♁": 3164,
      "##қ": 3165,
      "##𝑁": 3166,
      "##𝑀": 3167,
      "##ཕ": 3168,
      "##ལ": 3169,
      "##⇿": 3170,
      "##▁": 3171,
      "##": 3172,
      "##ꝩ": 3173,
      "##": 3174,
      "##": 3175,
      "##Ɵ": 3176,
      "##": 3177,
      "##♭": 3178,
      "##ว": 3179,
      "##⑥": 3180,
      "##Ⅺ": 3181,
      "##ʊ": 3182,
      "##✶": 3183,
      "##┤": 3184,
      "##♯": 3185,
      "##١": 3186,
      "##▬": 3187,
      "##ⓒ": 3188,
      "##भ": 3189,
      "##Ⅸ": 3190,
      "##ങ": 3191,
      "##ｵ": 3192,
      "##ℳ": 3193,
      "##⌃": 3194,
      "##㎡": 3195,
      "##": 3196,
      "##ञ": 3197,
      "##ʼ": 3198,
      "##𝜅": 3199,
      "##𝐑": 3200,
      "##≻": 3201,
      "##ǃ": 3202,
      "##☉": 3203,
      "##ℇ": 3204,
      "##ʹ": 3205,
      "##Ρ": 3206,
      "##฿": 3207,
      "##⇀": 3208,
      "##٣": 3209,
      "##ㆍ": 3210,
      "##ᄏ": 3211,
      "##Ｍ": 3212,
      "##ߝ": 3213,
      "##ᆩ": 3214,
      "##⊳": 3215,
      "##": 3216,
      "##􀏔": 3217,
      "##": 3218,
      "##⑤": 3219,
      "##⑦": 3220,
      "##⑧": 3221,
      "##⑨": 3222,
      "##∟": 3223,
      "##ɾ": 3224,
      "##￥": 3225,
      "##〓": 3226,
      "##⊿": 3227,
      "##": 3228,
      "##ｎ": 3229,
      "##": 3230,
      "##": 3231,
      "##˘": 3232,
      "##थ": 3233,
      "##ケ": 3234,
      "##Ւ": 3235,
      "##ཞ": 3236,
      "##≊": 3237,
      "##": 3238,
      "##𝑆": 3239,
      "##ᄑ": 3240,
      "##": 3241,
      "##わ": 3242,
      "##≼": 3243,
      "##ᆲ": 3244,
      "##ད": 3245,
      "##⇑": 3246,
      "##⇓": 3247,
      "##Я": 3248,
      "##ʎ": 3249,
      "##ᆽ": 3250,
      "##ᴪ": 3251,
      "##ʐ": 3252,
      "##⬽": 3253,
      "##ℴ": 3254,
      "##": 3255,
      "##ʘ": 3256,
      "##タ": 3257,
      "##ヘ": 3258,
      "##⟷": 3259,
      "##ശ": 3260,
      "##ԑ": 3261,
      "##﹤": 3262,
      "##コ": 3263,
      "##リ": 3264,
      "##ˉ": 3265,
      "##₩": 3266,
      "##ℽ": 3267,
      "##ℎ": 3268,
      "##𝑓": 3269,
      "##􀏐": 3270,
      "##": 3271,
      "##Ƀ": 3272,
      "##Ѕ": 3273,
      "##お": 3274,
      "##け": 3275,
      "##≙": 3276,
      "##ز": 3277,
      "##˨": 3278,
      "##⩒": 3279,
      "##ഘ": 3280,
      "##𝑔": 3281,
      "##𝑏": 3282,
      "##": 3283,
      "##": 3284,
      "##": 3285,
      "##Ө": 3286,
      "##₺": 3287,
      "##𝑦": 3288,
      "##ࢧ": 3289,
      "##У": 3290,
      "##ꘌ": 3291,
      "##ʕ": 3292,
      "##": 3293,
      "##▾": 3294,
      "##ག": 3295,
      "##≣": 3296,
      "##ｰ": 3297,
      "##ച": 3298,
      "##ɖ": 3299,
      "##⨰": 3300,
      "##⧸": 3301,
      "##‪": 3302,
      "##フ": 3303,
      "##や": 3304,
      "##⋘": 3305,
      "##ₚ": 3306,
      "##ʾ": 3307,
      "##热": 3308,
      "##祛": 3309,
      "##瘀": 3310,
      "##颗": 3311,
      "##粒": 3312,
      "##Ʈ": 3313,
      "##ɬ": 3314,
      "##ʏ": 3315,
      "##Ʌ": 3316,
      "##ᅨ": 3317,
      "##ロ": 3318,
      "##ナ": 3319,
      "##┛": 3320,
      "##ˍ": 3321,
      "##ꭓ": 3322,
      "##ᅣ": 3323,
      "##虎": 3324,
      "##Ʇ": 3325,
      "##ധ": 3326,
      "##⬢": 3327,
      "##Ǝ": 3328,
      "##ग": 3329,
      "##ബ": 3330,
      "##は": 3331,
      "##": 3332,
      "##湿": 3333,
      "##化": 3334,
      "##方": 3335,
      "##ጠ": 3336,
      "##ም": 3337,
      "##": 3338,
      "##ϭ": 3339,
      "##⍦": 3340,
      "##⪅": 3341,
      "##✗": 3342,
      "##ߣ": 3343,
      "##⫽": 3344,
      "##ᵥ": 3345,
      "##⨪": 3346,
      "##Ə": 3347,
      "##": 3348,
      "##┴": 3349,
      "##": 3350,
      "##メ": 3351,
      "##ɓ": 3352,
      "##ｱ": 3353,
      "##ｌ": 3354,
      "##⇇": 3355,
      "##⊠": 3356,
      "##℗": 3357,
      "##⚥": 3358,
      "##ニ": 3359,
      "##΂": 3360,
      "##⋙": 3361,
      "##━": 3362,
      "##≔": 3363,
      "##ꭃ": 3364,
      "##ɐ": 3365,
      "##ཚ": 3366,
      "##ᇞ": 3367,
      "##ノ": 3368,
      "##": 3369,
      "##ᆭ": 3370,
      "##ℒ": 3371,
      "##ℑ": 3372,
      "##‫": 3373,
      "##ی": 3374,
      "##ᆿ": 3375,
      "##７": 3376,
      "##♦": 3377,
      "##ҝ": 3378,
      "##ɳ": 3379,
      "##ـ": 3380,
      "##な": 3381,
      "##シ": 3382,
      "##ム": 3383,
      "##ȡ": 3384,
      "##˧": 3385,
      "##ƈ": 3386,
      "##٠": 3387,
      "##": 3388,
      "##Ɂ": 3389,
      "##⨀": 3390,
      "##": 3391,
      "##ذ": 3392,
      "##Ͳ": 3393,
      "##り": 3394,
      "##ख": 3395,
      "##": 3396,
      "##╳": 3397,
      "##ₓ": 3398,
      "##ᅬ": 3399,
      "##Ⅹ": 3400,
      "##२": 3401,
      "##ᄐ": 3402,
      "##关": 3403,
      "##节": 3404,
      "##丸": 3405,
      "##⟵": 3406,
      "##♡": 3407,
      "##⁒": 3408,
      "##𝑥": 3409,
      "##٦": 3410,
      "##ₘ": 3411,
      "##ᵢ": 3412,
      "##ₙ": 3413,
      "##": 3414,
      "##⨂": 3415,
      "##": 3416,
      "##Ɩ": 3417,
      "##𝑉": 3418,
      "##𝐟": 3419,
      "##ﬅ": 3420,
      "##": 3421,
      "##𠄽": 3422,
      "##ｾ": 3423,
      "##⫫": 3424,
      "##ｍ": 3425,
      "##រ": 3426,
      "##ត": 3427,
      "##▯": 3428,
      "##▱": 3429,
      "##ɵ": 3430,
      "##府": 3431,
      "##逐": 3432,
      "##𝑑": 3433,
      "##": 3434,
      "##⊤": 3435,
      "##⠉": 3436,
      "##⠻": 3437,
      "##⠞": 3438,
      "##エ": 3439,
      "##റ": 3440,
      "##΍": 3441,
      "##ᴋ": 3442,
      "##ฏ": 3443,
      "##ई": 3444,
      "##⊛": 3445,
      "##至": 3446,
      "##ห": 3447,
      "##ร": 3448,
      "##ต": 3449,
      "##ظ": 3450,
      "##ᶟ": 3451,
      "##ҡ": 3452,
      "##鹤": 3453,
      "##延": 3454,
      "##龄": 3455,
      "##ɥ": 3456,
      "##𝒢": 3457,
      "##ɲ": 3458,
      "##ϰ": 3459,
      "##⋄": 3460,
      "##๥": 3461,
      "##ᵦ": 3462,
      "##｜": 3463,
      "##痞": 3464,
      "##₌": 3465,
      "##ȣ": 3466,
      "##": 3467,
      "##ʉ": 3468,
      "##ᄄ": 3469,
      "##ᇂ": 3470,
      "##ℵ": 3471,
      "##胆": 3472,
      "##↝": 3473,
      "##≺": 3474,
      "##ǥ": 3475,
      "##Ꜫ": 3476,
      "##ᶲ": 3477,
      "##┻": 3478,
      "##": 3479,
      "##": 3480,
      "##⍬": 3481,
      "##え": 3482,
      "##ら": 3483,
      "##٤": 3484,
      "##𝒞": 3485,
      "##": 3486,
      "##⎛": 3487,
      "##ո": 3488,
      "##": 3489,
      "##ℕ": 3490,
      "##☱": 3491,
      "##≑": 3492,
      "##➙": 3493,
      "##♥": 3494,
      "##ꓼ": 3495,
      "##ᆾ": 3496,
      "##𝐷": 3497,
      "##󿇀": 3498,
      "##承": 3499,
      "##气": 3500,
      "##Ȼ": 3501,
      "##≷": 3502,
      "##ก": 3503,
      "##ใ": 3504,
      "##บ": 3505,
      "##✠": 3506,
      "##ʟ": 3507,
      "##﹢": 3508,
      "##ഖ": 3509,
      "##Ј": 3510,
      "##✱": 3511,
      "##マ": 3512,
      "##ィ": 3513,
      "##ッ": 3514,
      "##Ϭ": 3515,
      "##٢": 3516,
      "##∀": 3517,
      "##": 3518,
      "##ˣ": 3519,
      "##Ѵ": 3520,
      "##⪡": 3521,
      "##ᆮ": 3522,
      "##Ʃ": 3523,
      "##㯌": 3524,
      "##麦": 3525,
      "##注": 3526,
      "##射": 3527,
      "##液": 3528,
      "##ふ": 3529,
      "##": 3530,
      "##红": 3531,
      "##ㄾ": 3532,
      "##Ⓟ": 3533,
      "##⪢": 3534,
      "##΁": 3535,
      "##≍": 3536,
      "##ㅓ": 3537,
      "##ϐ": 3538,
      "##ฟ": 3539,
      "##参": 3540,
      "##养": 3541,
      "##荣": 3542,
      "##ꟷ": 3543,
      "##ഴ": 3544,
      "##സ": 3545,
      "##𝘭": 3546,
      "##𝘢": 3547,
      "##𝘴": 3548,
      "##𝘮": 3549,
      "##𝘰": 3550,
      "##𝘥": 3551,
      "##𝘪": 3552,
      "##𝘶": 3553,
      "##օ": 3554,
      "##𝐸": 3555,
      "##𝜃": 3556,
      "##": 3557,
      "##♪": 3558,
      "##ˤ": 3559,
      "##≽": 3560,
      "##ɨ": 3561,
      "##ˁ": 3562,
      "##ɴ": 3563,
      "##ɢ": 3564,
      "##ย": 3565,
      "##ไ": 3566,
      "##ข": 3567,
      "##▿": 3568,
      "##ɯ": 3569,
      "##": 3570,
      "##✓": 3571,
      "##ɫ": 3572,
      "##⨉": 3573,
      "##↻": 3574,
      "##≿": 3575,
      "##ҟ": 3576,
      "##ᆬ": 3577,
      "##ᆰ": 3578,
      "##Ʊ": 3579,
      "##ẟ": 3580,
      "##Д": 3581,
      "##ㅣ": 3582,
      "##ק": 3583,
      "##ו": 3584,
      "##▲": 3585,
      "##№": 3586,
      "##迪": 3587,
      "##┄": 3588,
      "##": 3589,
      "##ⱷ": 3590,
      "##ᑎ": 3591,
      "##ᖅ": 3592,
      "##Ꞌ": 3593,
      "##🄬": 3594,
      "##": 3595,
      "##": 3596,
      "##": 3597,
      "##": 3598,
      "##𝘤": 3599,
      "##𝘱": 3600,
      "##𝘳": 3601,
      "##􀳏": 3602,
      "##⨁": 3603,
      "##￠": 3604,
      "##ষ": 3605,
      "##▴": 3606,
      "##⌝": 3607,
      "##￼": 3608,
      "##⩿": 3609,
      "##ち": 3610,
      "##🡪": 3611,
      "##𝛆": 3612,
      "##ᴍ": 3613,
      "##新": 3614,
      "##房": 3615,
      "##⋂": 3616,
      "##∋": 3617,
      "##": 3618,
      "##ⱪ": 3619,
      "##": 3620,
      "##▓": 3621,
      "##⿲": 3622,
      "##𝐿": 3623,
      "##╫": 3624,
      "##Ƭ": 3625,
      "##补": 3626,
      "##肾": 3627,
      "##􀆗": 3628,
      "##": 3629,
      "##活": 3630,
      "##血": 3631,
      "##Є": 3632,
      "##ᐃ": 3633,
      "##➞": 3634,
      "##𝒆": 3635,
      "##⊢": 3636,
      "##ͱ": 3637,
      "##ᵗ": 3638,
      "##э": 3639,
      "##Ŧ": 3640,
      "##໿": 3641,
      "##ᵧ": 3642,
      "##Ｇ": 3643,
      "##": 3644,
      "##ₛ": 3645,
      "##⑩": 3646,
      "##ญ": 3647,
      "##𝑘": 3648,
      "##˴": 3649,
      "##⭘": 3650,
      "##": 3651,
      "##チ": 3652,
      "##Ү": 3653,
      "##𝌁": 3654,
      "##ℜ": 3655,
      "##΃": 3656,
      "##Ϗ": 3657,
      "##☐": 3658,
      "##复": 3659,
      "##春": 3660,
      "##ǂ": 3661,
      "##ᆪ": 3662,
      "##ɗ": 3663,
      "##ᵝ": 3664,
      "##∡": 3665,
      "##ᴽ": 3666,
      "##ʷ": 3667,
      "##ɱ": 3668,
      "##𝜋": 3669,
      "##ᴧ": 3670,
      "##▽": 3671,
      "##陽": 3672,
      "##虛": 3673,
      "##􀃼": 3674,
      "##𰀎": 3675,
      "##Ⓒ": 3676,
      "##⬡": 3677,
      "##◎": 3678,
      "##一": 3679,
      "##味": 3680,
      "##芪": 3681,
      "##片": 3682,
      "##ǝ": 3683,
      "##ȼ": 3684,
      "##": 3685,
      "##": 3686,
      "##ˢ": 3687,
      "##ር": 3688,
      "##ሻ": 3689,
      "##": 3690,
      "##泉": 3691,
      "##𝒮": 3692,
      "##ん": 3693,
      "##ɦ": 3694,
      "##≏": 3695,
      "##𝜇": 3696,
      "##𝚿": 3697,
      "##": 3698,
      "##ᅫ": 3699,
      "##㎛": 3700,
      "##⧁": 3701,
      "##ഹ": 3702,
      "##˟": 3703,
      "##𝐺": 3704,
      "##ｉ": 3705,
      "##ｖ": 3706,
      "##ｏ": 3707,
      "##ࢤ": 3708,
      "##℧": 3709,
      "##≌": 3710,
      "##٥": 3711,
      "##ｓ": 3712,
      "##♣": 3713,
      "##স": 3714,
      "##ম": 3715,
      "##ন": 3716,
      "##∨": 3717,
      "##ј": 3718,
      "##แ": 3719,
      "##ะ": 3720,
      "##ภ": 3721,
      "##พ": 3722,
      "##ป": 3723,
      "##เ": 3724,
      "##ท": 3725,
      "##ศ": 3726,
      "##": 3727,
      "##⌐": 3728,
      "##ア": 3729,
      "##Ʒ": 3730,
      "##ʺ": 3731,
      "##↙": 3732,
      "##ェ": 3733,
      "##ハ": 3734,
      "##˥": 3735,
      "##サ": 3736,
      "##ツ": 3737,
      "##ʋ": 3738,
      "##": 3739,
      "##": 3740,
      "##ɶ": 3741,
      "##Ѳ": 3742,
      "##ऊ": 3743,
      "##Ж": 3744,
      "##Ь": 3745,
      "##Ы": 3746,
      "##⊇": 3747,
      "##ᒪ": 3748,
      "##ᐅ": 3749,
      "##ᓕ": 3750,
      "##ᒡ": 3751,
      "##ᔪ": 3752,
      "##ᐊ": 3753,
      "##Ⓑ": 3754,
      "##Þ": 3755,
      "##𝛂": 3756,
      "##": 3757,
      "##འ": 3758,
      "##せ": 3759,
      "##１": 3760,
      "##肝": 3761,
      "##潜": 3762,
      "##阳": 3763,
      "##𝜖": 3764,
      "##₸": 3765,
      "##脉": 3766,
      "##₮": 3767,
      "##ک": 3768,
      "##⌀": 3769,
      "##ѕ": 3770,
      "##⇾": 3771,
      "##𝛃": 3772,
      "##ᵹ": 3773,
      "##ᇀ": 3774,
      "##ᆹ": 3775,
      "##ә": 3776,
      "##􀂢": 3777,
      "##𝑂": 3778,
      "##𝞭": 3779,
      "##⎔": 3780,
      "##ϲ": 3781,
      "##𠀓": 3782,
      "##㎖": 3783,
      "##": 3784,
      "##𝛇": 3785,
      "##ᴾ": 3786,
      "##ᴿ": 3787,
      "##ᄊ": 3788,
      "##א": 3789,
      "##ש": 3790,
      "##י": 3791,
      "##ת": 3792,
      "##瘟": 3793,
      "##败": 3794,
      "##毒": 3795,
      "##饮": 3796,
      "##⠗": 3797,
      "##⠇": 3798,
      "##ɭ": 3799,
      "##བ": 3800,
      "##ћ": 3801,
      "##黃": 3802,
      "##附": 3803,
      "##子": 3804,
      "##湯": 3805,
      "##ⁿ": 3806,
      "##ᵈ": 3807,
      "##": 3808,
      "##ti": 3809,
      "##er": 3810,
      "##on": 3811,
      "##en": 3812,
      "th": 3813,
      "##es": 3814,
      "##ed": 3815,
      "##in": 3816,
      "##al": 3817,
      "##nd": 3818,
      "the": 3819,
      "##or": 3820,
      "in": 3821,
      "##at": 3822,
      "of": 3823,
      "##tion": 3824,
      "and": 3825,
      "##ro": 3826,
      "##it": 3827,
      "##an": 3828,
      "##ic": 3829,
      "##ar": 3830,
      "##as": 3831,
      "##is": 3832,
      "##ent": 3833,
      "##ec": 3834,
      "##el": 3835,
      "##re": 3836,
      "##ing": 3837,
      "to": 3838,
      "##ation": 3839,
      "##om": 3840,
      "##ol": 3841,
      "##et": 3842,
      "##ul": 3843,
      "##ur": 3844,
      "##ac": 3845,
      "##os": 3846,
      "##ith": 3847,
      "##ati": 3848,
      "##ve": 3849,
      "##id": 3850,
      "with": 3851,
      "##ly": 3852,
      "##le": 3853,
      "##us": 3854,
      "Th": 3855,
      "##th": 3856,
      "st": 3857,
      "##ere": 3858,
      "##ig": 3859,
      "##ter": 3860,
      "pro": 3861,
      "con": 3862,
      "for": 3863,
      "re": 3864,
      "an": 3865,
      "##ce": 3866,
      "##il": 3867,
      "##ess": 3868,
      "##ts": 3869,
      "##em": 3870,
      "##if": 3871,
      "##uc": 3872,
      "##ated": 3873,
      "as": 3874,
      "was": 3875,
      "##ow": 3876,
      "##od": 3877,
      "##ut": 3878,
      "##im": 3879,
      "##am": 3880,
      "##tic": 3881,
      "were": 3882,
      "The": 3883,
      "ex": 3884,
      "##ity": 3885,
      "##oc": 3886,
      "is": 3887,
      "##tr": 3888,
      "##um": 3889,
      "##op": 3890,
      "##ir": 3891,
      "##ents": 3892,
      "res": 3893,
      "##ate": 3894,
      "##ud": 3895,
      "com": 3896,
      "on": 3897,
      "##ys": 3898,
      "##ab": 3899,
      "##og": 3900,
      "##ion": 3901,
      "##ev": 3902,
      "##ot": 3903,
      "ac": 3904,
      "that": 3905,
      "##ag": 3906,
      "be": 3907,
      "##ain": 3908,
      "##ical": 3909,
      "##ell": 3910,
      "##ad": 3911,
      "##ng": 3912,
      "ch": 3913,
      "##ers": 3914,
      "##ap": 3915,
      "##ant": 3916,
      "by": 3917,
      "##ect": 3918,
      "##rom": 3919,
      "##ment": 3920,
      "wh": 3921,
      "al": 3922,
      "pr": 3923,
      "##pl": 3924,
      "##ib": 3925,
      "##igh": 3926,
      "##un": 3927,
      "or": 3928,
      "##ff": 3929,
      "pati": 3930,
      "im": 3931,
      "##iv": 3932,
      "su": 3933,
      "##ine": 3934,
      "##ase": 3935,
      "dis": 3936,
      "##ep": 3937,
      "tr": 3938,
      "inc": 3939,
      "us": 3940,
      "##tiv": 3941,
      "##ence": 3942,
      "stud": 3943,
      "ad": 3944,
      "comp": 3945,
      "patients": 3946,
      "##iz": 3947,
      "at": 3948,
      "##qu": 3949,
      "##ure": 3950,
      "are": 3951,
      "##ign": 3952,
      "from": 3953,
      "##ial": 3954,
      "##tive": 3955,
      "##ay": 3956,
      "##ies": 3957,
      "##ific": 3958,
      "sp": 3959,
      "cell": 3960,
      "##ort": 3961,
      "##ations": 3962,
      "##ch": 3963,
      "##ip": 3964,
      "##ress": 3965,
      "##rou": 3966,
      "##ear": 3967,
      "sh": 3968,
      "ass": 3969,
      "##fer": 3970,
      "##enti": 3971,
      "ind": 3972,
      "##orm": 3973,
      "##per": 3974,
      "##ou": 3975,
      "##te": 3976,
      "per": 3977,
      "##ph": 3978,
      "##ore": 3979,
      "ne": 3980,
      "eff": 3981,
      "##ous": 3982,
      "##ens": 3983,
      "In": 3984,
      "##ans": 3985,
      "##evel": 3986,
      "rec": 3987,
      "##ely": 3988,
      "##ons": 3989,
      "##ge": 3990,
      "##act": 3991,
      "sign": 3992,
      "gen": 3993,
      "##ia": 3994,
      "##ting": 3995,
      "##est": 3996,
      "en": 3997,
      "inf": 3998,
      "##ition": 3999,
      "high": 4000,
      "##ary": 4001,
      "##olog": 4002,
      "cl": 4003,
      "we": 4004,
      "##ased": 4005,
      "##pp": 4006,
      "this": 4007,
      "ph": 4008,
      "met": 4009,
      "##ular": 4010,
      "##and": 4011,
      "##ver": 4012,
      "imp": 4013,
      "dif": 4014,
      "bet": 4015,
      "##reat": 4016,
      "study": 4017,
      "can": 4018,
      "rel": 4019,
      "##erm": 4020,
      "##bs": 4021,
      "inter": 4022,
      "##oth": 4023,
      "##yp": 4024,
      "##ors": 4025,
      "##ance": 4026,
      "par": 4027,
      "##ost": 4028,
      "##ese": 4029,
      "##roup": 4030,
      "co": 4031,
      "pre": 4032,
      "cont": 4033,
      "##enc": 4034,
      "##ative": 4035,
      "ev": 4036,
      "##ich": 4037,
      "anal": 4038,
      "resp": 4039,
      "##ist": 4040,
      "str": 4041,
      "mod": 4042,
      "ha": 4043,
      "exp": 4044,
      "de": 4045,
      "##ath": 4046,
      "car": 4047,
      "differ": 4048,
      "signific": 4049,
      "##een": 4050,
      "not": 4051,
      "##ym": 4052,
      "group": 4053,
      "##st": 4054,
      "##ual": 4055,
      "##ied": 4056,
      "##ong": 4057,
      "pl": 4058,
      "##ection": 4059,
      "trans": 4060,
      "incre": 4061,
      "significant": 4062,
      "##yl": 4063,
      "reg": 4064,
      "##iti": 4065,
      "sur": 4066,
      "##end": 4067,
      "##oci": 4068,
      "##able": 4069,
      "##ween": 4070,
      "##ose": 4071,
      "di": 4072,
      "##ast": 4073,
      "##duc": 4074,
      "between": 4075,
      "me": 4076,
      "rep": 4077,
      "##age": 4078,
      "resul": 4079,
      "##all": 4080,
      "##vi": 4081,
      "##ression": 4082,
      "det": 4083,
      "which": 4084,
      "cons": 4085,
      "show": 4086,
      "inv": 4087,
      "spec": 4088,
      "cells": 4089,
      "have": 4090,
      "##oll": 4091,
      "##rol": 4092,
      "##ory": 4093,
      "##ding": 4094,
      "We": 4095,
      "pres": 4096,
      "##ari": 4097,
      "##ros": 4098,
      "sc": 4099,
      "20": 4100,
      "activ": 4101,
      "##ide": 4102,
      "un": 4103,
      "treat": 4104,
      "##alu": 4105,
      "##ach": 4106,
      "##ally": 4107,
      "##ound": 4108,
      "##fter": 4109,
      "int": 4110,
      "##eal": 4111,
      "##ved": 4112,
      "associ": 4113,
      "##yst": 4114,
      "##form": 4115,
      "##ever": 4116,
      "10": 4117,
      "##unc": 4118,
      "##ected": 4119,
      "##ther": 4120,
      "mic": 4121,
      "##ech": 4122,
      "und": 4123,
      "##ates": 4124,
      "##ight": 4125,
      "compar": 4126,
      "##ects": 4127,
      "am": 4128,
      "##ility": 4129,
      "level": 4130,
      "##tein": 4131,
      "##tin": 4132,
      "This": 4133,
      "##ive": 4134,
      "ab": 4135,
      "##ases": 4136,
      "all": 4137,
      "than": 4138,
      "analys": 4139,
      "##lud": 4140,
      "treatment": 4141,
      "##tim": 4142,
      "cor": 4143,
      "##ted": 4144,
      "##ome": 4145,
      "##unction": 4146,
      "app": 4147,
      "##our": 4148,
      "se": 4149,
      "##one": 4150,
      "##ak": 4151,
      "after": 4152,
      "med": 4153,
      "##ating": 4154,
      "##gh": 4155,
      "using": 4156,
      "pos": 4157,
      "ar": 4158,
      "has": 4159,
      "##evelop": 4160,
      "anti": 4161,
      "##NA": 4162,
      "##cer": 4163,
      "##ized": 4164,
      "##ulation": 4165,
      "##ard": 4166,
      "ag": 4167,
      "these": 4168,
      "meth": 4169,
      "develop": 4170,
      "##mun": 4171,
      "year": 4172,
      "bi": 4173,
      "##ood": 4174,
      "##osis": 4175,
      "##ew": 4176,
      "##ue": 4177,
      "##dition": 4178,
      "low": 4179,
      "##wo": 4180,
      "no": 4181,
      "protein": 4182,
      "been": 4183,
      "##ox": 4184,
      "dise": 4185,
      "control": 4186,
      "##cess": 4187,
      "##ective": 4188,
      "dat": 4189,
      "but": 4190,
      "##uring": 4191,
      "their": 4192,
      "le": 4193,
      "clin": 4194,
      "##acter": 4195,
      "##erap": 4196,
      "##ree": 4197,
      "used": 4198,
      "##yn": 4199,
      "results": 4200,
      "##ang": 4201,
      "##ater": 4202,
      "dec": 4203,
      "red": 4204,
      "##so": 4205,
      "##ass": 4206,
      "##entr": 4207,
      "##action": 4208,
      "##hib": 4209,
      "##ill": 4210,
      "includ": 4211,
      "##ystem": 4212,
      "##anc": 4213,
      "mon": 4214,
      "##ob": 4215,
      "##ealth": 4216,
      "id": 4217,
      "tim": 4218,
      "may": 4219,
      "bl": 4220,
      "##ological": 4221,
      "##agn": 4222,
      "##pt": 4223,
      "el": 4224,
      "##ures": 4225,
      "##ism": 4226,
      "associated": 4227,
      "##uld": 4228,
      "out": 4229,
      "##ectiv": 4230,
      "fact": 4231,
      "function": 4232,
      "##ri": 4233,
      "also": 4234,
      "model": 4235,
      "two": 4236,
      "##lu": 4237,
      "##iss": 4238,
      "hy": 4239,
      "des": 4240,
      "had": 4241,
      "##cr": 4242,
      "vari": 4243,
      "analysis": 4244,
      "sub": 4245,
      "##plic": 4246,
      "##uced": 4247,
      "ris": 4248,
      "system": 4249,
      "conc": 4250,
      "##atic": 4251,
      "##ogen": 4252,
      "dep": 4253,
      "more": 4254,
      "clinical": 4255,
      "##ond": 4256,
      "##entif": 4257,
      "##ined": 4258,
      "##yt": 4259,
      "under": 4260,
      "##ub": 4261,
      "##urr": 4262,
      "both": 4263,
      "##aus": 4264,
      "##out": 4265,
      "ser": 4266,
      "data": 4267,
      "##ution": 4268,
      "man": 4269,
      "respons": 4270,
      "dr": 4271,
      "suc": 4272,
      "##ential": 4273,
      "health": 4274,
      "risk": 4275,
      "obs": 4276,
      "perform": 4277,
      "during": 4278,
      "##etic": 4279,
      "##gg": 4280,
      "meas": 4281,
      "##ven": 4282,
      "em": 4283,
      "##ays": 4284,
      "##uct": 4285,
      "identif": 4286,
      "disease": 4287,
      "method": 4288,
      "significantly": 4289,
      "##ants": 4290,
      "acc": 4291,
      "use": 4292,
      "##aph": 4293,
      "##gen": 4294,
      "sam": 4295,
      "over": 4296,
      "##der": 4297,
      "up": 4298,
      "##ici": 4299,
      "##inding": 4300,
      "present": 4301,
      "##ollow": 4302,
      "pot": 4303,
      "compared": 4304,
      "##ization": 4305,
      "00": 4306,
      "##br": 4307,
      "##tain": 4308,
      "increased": 4309,
      "non": 4310,
      "evalu": 4311,
      "form": 4312,
      "expression": 4313,
      "##eth": 4314,
      "##ole": 4315,
      "##gr": 4316,
      "##ult": 4317,
      "##ild": 4318,
      "time": 4319,
      "##ile": 4320,
      "sugg": 4321,
      "typ": 4322,
      "##ace": 4323,
      "ap": 4324,
      "prov": 4325,
      "path": 4326,
      "##itive": 4327,
      "##ite": 4328,
      "based": 4329,
      "##ail": 4330,
      "dem": 4331,
      "##tig": 4332,
      "levels": 4333,
      "##hibit": 4334,
      "studies": 4335,
      "##owever": 4336,
      "follow": 4337,
      "sim": 4338,
      "therap": 4339,
      "activity": 4340,
      "found": 4341,
      "ob": 4342,
      "es": 4343,
      "##ium": 4344,
      "obser": 4345,
      "gl": 4346,
      "##ogr": 4347,
      "showed": 4348,
      "##ork": 4349,
      "##ug": 4350,
      "pol": 4351,
      "##atory": 4352,
      "##ments": 4353,
      "qu": 4354,
      "assess": 4355,
      "ins": 4356,
      "corr": 4357,
      "##tal": 4358,
      "##av": 4359,
      "##ectively": 4360,
      "end": 4361,
      "##ities": 4362,
      "other": 4363,
      "it": 4364,
      "different": 4365,
      "its": 4366,
      "appro": 4367,
      "char": 4368,
      "exper": 4369,
      "effects": 4370,
      "##estig": 4371,
      "##ability": 4372,
      "##ish": 4373,
      "years": 4374,
      "partic": 4375,
      "immun": 4376,
      "##ery": 4377,
      "##yc": 4378,
      "investig": 4379,
      "19": 4380,
      "effect": 4381,
      "cancer": 4382,
      "##ane": 4383,
      "diagn": 4384,
      "##ple": 4385,
      "##tern": 4386,
      "##mon": 4387,
      "report": 4388,
      "##idence": 4389,
      "produc": 4390,
      "tum": 4391,
      "indic": 4392,
      "##ions": 4393,
      "determ": 4394,
      "one": 4395,
      "##onstr": 4396,
      "##ences": 4397,
      "impro": 4398,
      "rem": 4399,
      "##oid": 4400,
      "12": 4401,
      "##row": 4402,
      "##ron": 4403,
      "sel": 4404,
      "##ency": 4405,
      "##arg": 4406,
      "higher": 4407,
      "pred": 4408,
      "##echan": 4409,
      "##cc": 4410,
      "##als": 4411,
      "##amm": 4412,
      "supp": 4413,
      "##ination": 4414,
      "##tical": 4415,
      "mul": 4416,
      "##erg": 4417,
      "hum": 4418,
      "into": 4419,
      "##ology": 4420,
      "specific": 4421,
      "age": 4422,
      "exam": 4423,
      "most": 4424,
      "##ex": 4425,
      "##les": 4426,
      "##adi": 4427,
      "op": 4428,
      "##ric": 4429,
      "##ange": 4430,
      "well": 4431,
      "##ale": 4432,
      "Al": 4433,
      "gr": 4434,
      "##ently": 4435,
      "def": 4436,
      "contr": 4437,
      "mechan": 4438,
      "micro": 4439,
      "##ber": 4440,
      "##ren": 4441,
      "##esis": 4442,
      "min": 4443,
      "character": 4444,
      "##ograph": 4445,
      "##iqu": 4446,
      "##til": 4447,
      "fr": 4448,
      "##ature": 4449,
      "related": 4450,
      "subs": 4451,
      "##view": 4452,
      "decre": 4453,
      "##oph": 4454,
      "##inal": 4455,
      "concentr": 4456,
      "##ark": 4457,
      "groups": 4458,
      "gener": 4459,
      "95": 4460,
      "These": 4461,
      "test": 4462,
      "ma": 4463,
      "##rough": 4464,
      "struct": 4465,
      "such": 4466,
      "##ord": 4467,
      "import": 4468,
      "##ible": 4469,
      "##ik": 4470,
      "##ne": 4471,
      "##ack": 4472,
      "acid": 4473,
      "occ": 4474,
      "##earch": 4475,
      "##vention": 4476,
      "patient": 4477,
      "##ov": 4478,
      "demonstr": 4479,
      "##olec": 4480,
      "##ural": 4481,
      "caus": 4482,
      "surg": 4483,
      "##ement": 4484,
      "process": 4485,
      "##ormal": 4486,
      "##ix": 4487,
      "However": 4488,
      "##af": 4489,
      "##now": 4490,
      "post": 4491,
      "##ital": 4492,
      "observed": 4493,
      "sens": 4494,
      "induced": 4495,
      "rate": 4496,
      "cr": 4497,
      "valu": 4498,
      "potential": 4499,
      "num": 4500,
      "##rop": 4501,
      "intr": 4502,
      "sm": 4503,
      "who": 4504,
      "##irst": 4505,
      "##lex": 4506,
      "only": 4507,
      "care": 4508,
      "inhibit": 4509,
      "new": 4510,
      "##ute": 4511,
      "factors": 4512,
      "##ept": 4513,
      "##usion": 4514,
      "##echn": 4515,
      "##tit": 4516,
      "human": 4517,
      "term": 4518,
      "three": 4519,
      "CI": 4520,
      "##osed": 4521,
      "syn": 4522,
      "there": 4523,
      "aff": 4524,
      "respectively": 4525,
      "development": 4526,
      "##cop": 4527,
      "cases": 4528,
      "loc": 4529,
      "##uction": 4530,
      "To": 4531,
      "predic": 4532,
      "child": 4533,
      "month": 4534,
      "conf": 4535,
      "through": 4536,
      "##och": 4537,
      "outc": 4538,
      "##istic": 4539,
      "chang": 4540,
      "##ior": 4541,
      "##oma": 4542,
      "sec": 4543,
      "##ough": 4544,
      "ep": 4545,
      "##ivid": 4546,
      "po": 4547,
      "##ines": 4548,
      "##ental": 4549,
      "##ational": 4550,
      "##eng": 4551,
      "##omes": 4552,
      "##ok": 4553,
      "total": 4554,
      "response": 4555,
      "fl": 4556,
      "ox": 4557,
      "techn": 4558,
      "first": 4559,
      "##ured": 4560,
      "disc": 4561,
      "##led": 4562,
      "##ulated": 4563,
      "##asm": 4564,
      "tiss": 4565,
      "##ize": 4566,
      "##ten": 4567,
      "gene": 4568,
      "##over": 4569,
      "br": 4570,
      "15": 4571,
      "role": 4572,
      "##tid": 4573,
      "##aining": 4574,
      "prop": 4575,
      "grow": 4576,
      "##ful": 4577,
      "when": 4578,
      "##fore": 4579,
      "condition": 4580,
      "##ould": 4581,
      "col": 4582,
      "inj": 4583,
      "fe": 4584,
      "pop": 4585,
      "mechanism": 4586,
      "those": 4587,
      "##ains": 4588,
      "molec": 4589,
      "including": 4590,
      "drug": 4591,
      "##osp": 4592,
      "##ived": 4593,
      "##dro": 4594,
      "suggest": 4595,
      "mem": 4596,
      "##air": 4597,
      "review": 4598,
      "type": 4599,
      "##omen": 4600,
      "tre": 4601,
      "##osph": 4602,
      "##cular": 4603,
      "blood": 4604,
      "performed": 4605,
      "correl": 4606,
      "medi": 4607,
      "prog": 4608,
      "##ene": 4609,
      "##vers": 4610,
      "invol": 4611,
      "prim": 4612,
      "could": 4613,
      "among": 4614,
      "sol": 4615,
      "lower": 4616,
      "11": 4617,
      "long": 4618,
      "cal": 4619,
      "del": 4620,
      "addition": 4621,
      "mean": 4622,
      "phys": 4623,
      "prom": 4624,
      "##endent": 4625,
      "increase": 4626,
      "There": 4627,
      "##its": 4628,
      "##00": 4629,
      "infection": 4630,
      "##res": 4631,
      "ol": 4632,
      "finding": 4633,
      "changes": 4634,
      "##arly": 4635,
      "##are": 4636,
      "##eter": 4637,
      "##ucle": 4638,
      "main": 4639,
      "##gan": 4640,
      "sym": 4641,
      "##val": 4642,
      "##ider": 4643,
      "important": 4644,
      "comb": 4645,
      "##urs": 4646,
      "know": 4647,
      "peri": 4648,
      "##ption": 4649,
      "bas": 4650,
      "##ek": 4651,
      "201": 4652,
      "##crib": 4653,
      "reported": 4654,
      "identified": 4655,
      "recept": 4656,
      "prob": 4657,
      "##sy": 4658,
      "therapy": 4659,
      "reve": 4660,
      "multi": 4661,
      "lik": 4662,
      "##etr": 4663,
      "##requ": 4664,
      "##ptom": 4665,
      "##tained": 4666,
      "##par": 4667,
      "##ores": 4668,
      "coll": 4669,
      "requ": 4670,
      "neu": 4671,
      "tumor": 4672,
      "lim": 4673,
      "##di": 4674,
      "hyp": 4675,
      "mut": 4676,
      "work": 4677,
      "approach": 4678,
      "##ross": 4679,
      "##arge": 4680,
      "##ages": 4681,
      "cyt": 4682,
      "our": 4683,
      "aim": 4684,
      "within": 4685,
      "14": 4686,
      "##iver": 4687,
      "##roph": 4688,
      "##ividual": 4689,
      "##ival": 4690,
      "need": 4691,
      "extr": 4692,
      "##xim": 4693,
      "number": 4694,
      "adm": 4695,
      "##abol": 4696,
      "##ade": 4697,
      "rat": 4698,
      "##ody": 4699,
      "##oper": 4700,
      "vir": 4701,
      "##ock": 4702,
      "##ise": 4703,
      "##ality": 4704,
      "##ether": 4705,
      "##otic": 4706,
      "##ha": 4707,
      "frequ": 4708,
      "experim": 4709,
      "13": 4710,
      "sequ": 4711,
      "Ch": 4712,
      "mus": 4713,
      "##ness": 4714,
      "##urther": 4715,
      "##ues": 4716,
      "research": 4717,
      "reveal": 4718,
      "##eld": 4719,
      "analy": 4720,
      "18": 4721,
      "complex": 4722,
      "provid": 4723,
      "##ited": 4724,
      "##ilar": 4725,
      "where": 4726,
      "##old": 4727,
      "30": 4728,
      "cap": 4729,
      "individual": 4730,
      "##iter": 4731,
      "months": 4732,
      "##ateg": 4733,
      "positive": 4734,
      "##ning": 4735,
      "ext": 4736,
      "##ples": 4737,
      "ret": 4738,
      "common": 4739,
      "##tivity": 4740,
      "expl": 4741,
      "normal": 4742,
      "findings": 4743,
      "children": 4744,
      "growth": 4745,
      "without": 4746,
      "hist": 4747,
      "##ily": 4748,
      "##ety": 4749,
      "treated": 4750,
      "##vious": 4751,
      "##plications": 4752,
      "period": 4753,
      "##RNA": 4754,
      "An": 4755,
      "##equ": 4756,
      "##acy": 4757,
      "consider": 4758,
      "prot": 4759,
      "antib": 4760,
      "##crip": 4761,
      "chem": 4762,
      "CD": 4763,
      "II": 4764,
      "##arget": 4765,
      "while": 4766,
      "qual": 4767,
      "##atis": 4768,
      "women": 4769,
      "stim": 4770,
      "##ativ": 4771,
      "week": 4772,
      "surv": 4773,
      "factor": 4774,
      "##omy": 4775,
      "sever": 4776,
      "subj": 4777,
      "hyper": 4778,
      "##ield": 4779,
      "metabol": 4780,
      "mg": 4781,
      "hydro": 4782,
      "##otyp": 4783,
      "##urrent": 4784,
      "improve": 4785,
      "##havi": 4786,
      "##atal": 4787,
      "##lamm": 4788,
      "It": 4789,
      "##ically": 4790,
      "each": 4791,
      "##orph": 4792,
      "##istr": 4793,
      "cardi": 4794,
      "##ascular": 4795,
      "less": 4796,
      "symptom": 4797,
      "fib": 4798,
      "great": 4799,
      "poss": 4800,
      "target": 4801,
      "flu": 4802,
      "included": 4803,
      "DNA": 4804,
      "days": 4805,
      "St": 4806,
      "##lish": 4807,
      "describ": 4808,
      "radi": 4809,
      "16": 4810,
      "pat": 4811,
      "##ties": 4812,
      "##jor": 4813,
      "25": 4814,
      "##ake": 4815,
      "##plet": 4816,
      "05": 4817,
      "vis": 4818,
      "mal": 4819,
      "##ice": 4820,
      "##hip": 4821,
      "##vir": 4822,
      "particip": 4823,
      "enh": 4824,
      "tem": 4825,
      "dir": 4826,
      "did": 4827,
      "similar": 4828,
      "##ogn": 4829,
      "mice": 4830,
      "##int": 4831,
      "##ung": 4832,
      "sing": 4833,
      "behavi": 4834,
      "##of": 4835,
      "24": 4836,
      "genes": 4837,
      "CO": 4838,
      "resist": 4839,
      "calc": 4840,
      "major": 4841,
      "##ospital": 4842,
      "##ication": 4843,
      "##ified": 4844,
      "##ty": 4845,
      "influ": 4846,
      "PC": 4847,
      "analyz": 4848,
      "surf": 4849,
      "inform": 4850,
      "he": 4851,
      "reduced": 4852,
      "case": 4853,
      "tissue": 4854,
      "##esting": 4855,
      "##oun": 4856,
      "##eu": 4857,
      "due": 4858,
      "class": 4859,
      "differences": 4860,
      "vit": 4861,
      "organ": 4862,
      "rece": 4863,
      "rati": 4864,
      "species": 4865,
      "##ind": 4866,
      "techniqu": 4867,
      "##med": 4868,
      "synth": 4869,
      "As": 4870,
      "should": 4871,
      "##zym": 4872,
      "##aging": 4873,
      "##lement": 4874,
      "neg": 4875,
      "diagnosis": 4876,
      "lead": 4877,
      "conduc": 4878,
      "av": 4879,
      "##ectr": 4880,
      "primary": 4881,
      "exc": 4882,
      "evidence": 4883,
      "pers": 4884,
      "single": 4885,
      "conditions": 4886,
      "Our": 4887,
      "##erst": 4888,
      "sev": 4889,
      "inflamm": 4890,
      "phosph": 4891,
      "vol": 4892,
      "population": 4893,
      "lif": 4894,
      "revealed": 4895,
      "##ink": 4896,
      "##uce": 4897,
      "isol": 4898,
      "mark": 4899,
      "##ites": 4900,
      "50": 4901,
      "##oles": 4902,
      "second": 4903,
      "001": 4904,
      "mat": 4905,
      "##ength": 4906,
      "measure": 4907,
      "hem": 4908,
      "some": 4909,
      "decreased": 4910,
      "small": 4911,
      "##cin": 4912,
      "##erv": 4913,
      "interaction": 4914,
      "bec": 4915,
      "pathw": 4916,
      "##ics": 4917,
      "##itis": 4918,
      "initi": 4919,
      "##ension": 4920,
      "range": 4921,
      "abs": 4922,
      "early": 4923,
      "mo": 4924,
      "##ivers": 4925,
      "intervention": 4926,
      "##trib": 4927,
      "##arm": 4928,
      "fem": 4929,
      "binding": 4930,
      "presence": 4931,
      "stress": 4932,
      "about": 4933,
      "nucle": 4934,
      "surgery": 4935,
      "vs": 4936,
      "##ography": 4937,
      "obtained": 4938,
      "developed": 4939,
      "##ening": 4940,
      "##ests": 4941,
      "dose": 4942,
      "proteins": 4943,
      "##oh": 4944,
      "200": 4945,
      "17": 4946,
      "##ately": 4947,
      "##viron": 4948,
      "my": 4949,
      "samples": 4950,
      "previous": 4951,
      "day": 4952,
      "survival": 4953,
      "##her": 4954,
      "##roscop": 4955,
      "##ials": 4956,
      "##ained": 4957,
      "cyc": 4958,
      "##though": 4959,
      "##ins": 4960,
      "outcomes": 4961,
      "proper": 4962,
      "further": 4963,
      "##ced": 4964,
      "demonstrated": 4965,
      "plasm": 4966,
      "coun": 4967,
      "quality": 4968,
      "underst": 4969,
      "##erc": 4970,
      "sk": 4971,
      "prof": 4972,
      "##ressed": 4973,
      "stand": 4974,
      "design": 4975,
      "investigated": 4976,
      "four": 4977,
      "evaluated": 4978,
      "effective": 4979,
      "phen": 4980,
      "##ymph": 4981,
      "##uss": 4982,
      "bre": 4983,
      "measured": 4984,
      "##ocyt": 4985,
      "adv": 4986,
      "pe": 4987,
      "relations": 4988,
      "line": 4989,
      "##asing": 4990,
      "##oss": 4991,
      "##GF": 4992,
      "##Cs": 4993,
      "brain": 4994,
      "receptor": 4995,
      "##por": 4996,
      "val": 4997,
      "they": 4998,
      "01": 4999,
      "aut": 5000,
      "lip": 5001,
      "##ian": 5002,
      "##ax": 5003,
      "cult": 5004,
      "prac": 5005,
      "##sych": 5006,
      "provide": 5007,
      "set": 5008,
      "##ire": 5009,
      "characteristic": 5010,
      "pattern": 5011,
      "requir": 5012,
      "##cle": 5013,
      "##ults": 5014,
      "##operative": 5015,
      "molecular": 5016,
      "##osure": 5017,
      "##tions": 5018,
      "##pha": 5019,
      "admin": 5020,
      "nov": 5021,
      "enzym": 5022,
      "##onal": 5023,
      "##plant": 5024,
      "##ving": 5025,
      "der": 5026,
      "oper": 5027,
      "functional": 5028,
      "will": 5029,
      "##anced": 5030,
      "methods": 5031,
      "concentration": 5032,
      "signal": 5033,
      "relationship": 5034,
      "Wh": 5035,
      "mater": 5036,
      "manag": 5037,
      "est": 5038,
      "lymph": 5039,
      "strateg": 5040,
      "##plication": 5041,
      "pain": 5042,
      "IL": 5043,
      "lab": 5044,
      "rates": 5045,
      "param": 5046,
      "##ensity": 5047,
      "estim": 5048,
      "##ither": 5049,
      "again": 5050,
      "##ick": 5051,
      "hospital": 5052,
      "prol": 5053,
      "support": 5054,
      "life": 5055,
      "##reg": 5056,
      "nan": 5057,
      "models": 5058,
      "##ms": 5059,
      "complet": 5060,
      "surface": 5061,
      "contrib": 5062,
      "information": 5063,
      "fam": 5064,
      "arter": 5065,
      "##ostic": 5066,
      "##tered": 5067,
      "##icient": 5068,
      "concentrations": 5069,
      "##andom": 5070,
      "environ": 5071,
      "studied": 5072,
      "reaction": 5073,
      "large": 5074,
      "##ronic": 5075,
      "##cent": 5076,
      "performance": 5077,
      "serum": 5078,
      "dependent": 5079,
      "##esp": 5080,
      "press": 5081,
      "##ynam": 5082,
      "100": 5083,
      "membr": 5084,
      "mort": 5085,
      "##anti": 5086,
      "standard": 5087,
      "sus": 5088,
      "ratio": 5089,
      "##ification": 5090,
      "##fic": 5091,
      "weight": 5092,
      "symptoms": 5093,
      "values": 5094,
      "identify": 5095,
      "rats": 5096,
      "determine": 5097,
      "injur": 5098,
      "##aneous": 5099,
      "elect": 5100,
      "##omic": 5101,
      "following": 5102,
      "water": 5103,
      "##ission": 5104,
      "dom": 5105,
      "gu": 5106,
      "proced": 5107,
      "various": 5108,
      "##und": 5109,
      "##ator": 5110,
      "mortality": 5111,
      "21": 5112,
      "electr": 5113,
      "fac": 5114,
      "against": 5115,
      "##ensive": 5116,
      "##ulations": 5117,
      "##otherap": 5118,
      "##orb": 5119,
      "local": 5120,
      "structure": 5121,
      "##emic": 5122,
      "##az": 5123,
      "##pective": 5124,
      "##hy": 5125,
      "nec": 5126,
      "kg": 5127,
      "Here": 5128,
      "bacter": 5129,
      "##lic": 5130,
      "liver": 5131,
      "##tis": 5132,
      "##eutic": 5133,
      "body": 5134,
      "occurr": 5135,
      "experi": 5136,
      "random": 5137,
      "assessed": 5138,
      "les": 5139,
      "free": 5140,
      "discuss": 5141,
      "##atively": 5142,
      "current": 5143,
      "novel": 5144,
      "reduction": 5145,
      "adj": 5146,
      "whether": 5147,
      "polym": 5148,
      "examined": 5149,
      "##eters": 5150,
      "##onic": 5151,
      "mass": 5152,
      "ref": 5153,
      "diab": 5154,
      "mechanisms": 5155,
      "commun": 5156,
      "##ulin": 5157,
      "pur": 5158,
      "##eptid": 5159,
      "negative": 5160,
      "##hi": 5161,
      "regul": 5162,
      "multiple": 5163,
      "anim": 5164,
      "before": 5165,
      "activation": 5166,
      "ul": 5167,
      "region": 5168,
      "gluc": 5169,
      "phase": 5170,
      "##opl": 5171,
      "##emia": 5172,
      "known": 5173,
      "bone": 5174,
      "transcrip": 5175,
      "subjects": 5176,
      "acute": 5177,
      "cir": 5178,
      "pub": 5179,
      "##SA": 5180,
      "determined": 5181,
      "properties": 5182,
      "##CT": 5183,
      "##ision": 5184,
      "##ause": 5185,
      "Am": 5186,
      "genetic": 5187,
      "Com": 5188,
      "##went": 5189,
      "##eration": 5190,
      "##iven": 5191,
      "analyzed": 5192,
      "chronic": 5193,
      "confir": 5194,
      "##atin": 5195,
      "hep": 5196,
      "equ": 5197,
      "mm": 5198,
      "##itivity": 5199,
      "##icity": 5200,
      "understand": 5201,
      "##atus": 5202,
      "hear": 5203,
      "cle": 5204,
      "##up": 5205,
      "management": 5206,
      "##MP": 5207,
      "40": 5208,
      "##atures": 5209,
      "association": 5210,
      "prec": 5211,
      "vitro": 5212,
      "##pec": 5213,
      "Ad": 5214,
      "ele": 5215,
      "##ler": 5216,
      "loss": 5217,
      "neur": 5218,
      "dim": 5219,
      "difference": 5220,
      "##acc": 5221,
      "plasma": 5222,
      "evaluate": 5223,
      "ang": 5224,
      "avail": 5225,
      "exposure": 5226,
      "##se": 5227,
      "do": 5228,
      "greater": 5229,
      "production": 5230,
      "##ablish": 5231,
      "##uted": 5232,
      "##ann": 5233,
      "repres": 5234,
      "conducted": 5235,
      "impact": 5236,
      "appear": 5237,
      "scre": 5238,
      "##cept": 5239,
      "distrib": 5240,
      "several": 5241,
      "so": 5242,
      "##ules": 5243,
      "ur": 5244,
      "##ists": 5245,
      "alpha": 5246,
      "fail": 5247,
      "environment": 5248,
      "psych": 5249,
      "pressure": 5250,
      "chrom": 5251,
      "22": 5252,
      "strong": 5253,
      "carb": 5254,
      "establish": 5255,
      "achi": 5256,
      "same": 5257,
      "pul": 5258,
      "CT": 5259,
      "recom": 5260,
      "success": 5261,
      "either": 5262,
      "foc": 5263,
      "formation": 5264,
      "indep": 5265,
      "direct": 5266,
      "##olution": 5267,
      "compound": 5268,
      "change": 5269,
      "##ellular": 5270,
      "sex": 5271,
      "##roduc": 5272,
      "##amin": 5273,
      "shown": 5274,
      "os": 5275,
      "medical": 5276,
      "##otherapy": 5277,
      "sy": 5278,
      "##round": 5279,
      "##nal": 5280,
      "beta": 5281,
      "involved": 5282,
      "##rome": 5283,
      "preval": 5284,
      "##ust": 5285,
      "compon": 5286,
      "##gram": 5287,
      "##uration": 5288,
      "##AR": 5289,
      "therapeutic": 5290,
      "##ID": 5291,
      "er": 5292,
      "##ised": 5293,
      "size": 5294,
      "detected": 5295,
      "##AP": 5296,
      "##ward": 5297,
      "##CC": 5298,
      "##ct": 5299,
      "resistance": 5300,
      "HI": 5301,
      "value": 5302,
      "add": 5303,
      "weeks": 5304,
      "death": 5305,
      "##ateral": 5306,
      "##iciency": 5307,
      "characteristics": 5308,
      "deg": 5309,
      "##ocial": 5310,
      "##iving": 5311,
      "virus": 5312,
      "##tric": 5313,
      "temper": 5314,
      "##ording": 5315,
      "particular": 5316,
      "accur": 5317,
      "##AS": 5318,
      "being": 5319,
      "hel": 5320,
      "##ey": 5321,
      "60": 5322,
      "lung": 5323,
      "increasing": 5324,
      "sl": 5325,
      "severe": 5326,
      "statis": 5327,
      "resid": 5328,
      "self": 5329,
      "oxid": 5330,
      "field": 5331,
      "##ored": 5332,
      "imaging": 5333,
      "any": 5334,
      "optim": 5335,
      "diseases": 5336,
      "part": 5337,
      "responses": 5338,
      "tra": 5339,
      "##ergy": 5340,
      "##lusion": 5341,
      "many": 5342,
      "##orts": 5343,
      "OR": 5344,
      "##yr": 5345,
      "##line": 5346,
      "flow": 5347,
      "like": 5348,
      "participants": 5349,
      "differenti": 5350,
      "##tegr": 5351,
      "dys": 5352,
      "bene": 5353,
      "parameters": 5354,
      "lo": 5355,
      "##etes": 5356,
      "##opath": 5357,
      "All": 5358,
      "sep": 5359,
      "saf": 5360,
      "For": 5361,
      "23": 5362,
      "rele": 5363,
      "##ocytes": 5364,
      "behavior": 5365,
      "phot": 5366,
      "order": 5367,
      "##verage": 5368,
      "general": 5369,
      "surgical": 5370,
      "investigate": 5371,
      "link": 5372,
      "possible": 5373,
      "controls": 5374,
      "sch": 5375,
      "tox": 5376,
      "whereas": 5377,
      "area": 5378,
      "inhib": 5379,
      "pap": 5380,
      "##RI": 5381,
      "##enal": 5382,
      "##ochem": 5383,
      "##aw": 5384,
      "old": 5385,
      "000": 5386,
      "super": 5387,
      "neuro": 5388,
      "vers": 5389,
      "viv": 5390,
      "##ae": 5391,
      "gly": 5392,
      "membrane": 5393,
      "synd": 5394,
      "chall": 5395,
      "##own": 5396,
      "##gn": 5397,
      "MS": 5398,
      "via": 5399,
      "detection": 5400,
      "muscle": 5401,
      "contin": 5402,
      "enc": 5403,
      "Res": 5404,
      "Ex": 5405,
      "##asis": 5406,
      "##ances": 5407,
      "dev": 5408,
      "##active": 5409,
      "##ef": 5410,
      "consist": 5411,
      "effic": 5412,
      "how": 5413,
      "valid": 5414,
      "AD": 5415,
      "##elial": 5416,
      "cent": 5417,
      "##osition": 5418,
      "diet": 5419,
      "state": 5420,
      "injury": 5421,
      "##etry": 5422,
      "vivo": 5423,
      "improved": 5424,
      "outcome": 5425,
      "##inant": 5426,
      "stage": 5427,
      "##iat": 5428,
      "better": 5429,
      "exhibit": 5430,
      "##ling": 5431,
      "Cl": 5432,
      "vi": 5433,
      "presented": 5434,
      "net": 5435,
      "volum": 5436,
      "ques": 5437,
      "active": 5438,
      "##pr": 5439,
      "##ysis": 5440,
      "proble": 5441,
      "allow": 5442,
      "systems": 5443,
      "##work": 5444,
      "##amine": 5445,
      "##oring": 5446,
      "##eline": 5447,
      "##eric": 5448,
      "Con": 5449,
      "##therm": 5450,
      "##verse": 5451,
      "artic": 5452,
      "immune": 5453,
      "inflammatory": 5454,
      "Ca": 5455,
      "##tinal": 5456,
      "considered": 5457,
      "status": 5458,
      "##ended": 5459,
      "##ancy": 5460,
      "individuals": 5461,
      "score": 5462,
      "cross": 5463,
      "focus": 5464,
      "Although": 5465,
      "##istration": 5466,
      "##ble": 5467,
      "PD": 5468,
      "##ylation": 5469,
      "men": 5470,
      "analyses": 5471,
      "##oy": 5472,
      "##ocy": 5473,
      "available": 5474,
      "##uk": 5475,
      "28": 5476,
      "index": 5477,
      "##ogenesis": 5478,
      "highly": 5479,
      "carcin": 5480,
      "hypoth": 5481,
      "mit": 5482,
      "##tically": 5483,
      "frequency": 5484,
      "sensitivity": 5485,
      "At": 5486,
      "##ographic": 5487,
      "magn": 5488,
      "##app": 5489,
      "RNA": 5490,
      "them": 5491,
      "incidence": 5492,
      "##ising": 5493,
      "##ially": 5494,
      "poor": 5495,
      "##Ps": 5496,
      "overall": 5497,
      "efficacy": 5498,
      "Tr": 5499,
      "##eding": 5500,
      "distribution": 5501,
      "mediated": 5502,
      "##ogenic": 5503,
      "integr": 5504,
      "circ": 5505,
      "##elet": 5506,
      "IC": 5507,
      "sal": 5508,
      "cause": 5509,
      "rap": 5510,
      "Un": 5511,
      "##oses": 5512,
      "healthy": 5513,
      "followed": 5514,
      "short": 5515,
      "##iological": 5516,
      "Pati": 5517,
      "correlation": 5518,
      "muc": 5519,
      "pregn": 5520,
      "##ient": 5521,
      "energy": 5522,
      "five": 5523,
      "##itation": 5524,
      "however": 5525,
      "regression": 5526,
      "##ft": 5527,
      "breast": 5528,
      "prevalence": 5529,
      "att": 5530,
      "##astic": 5531,
      "result": 5532,
      "##red": 5533,
      "mac": 5534,
      "##ably": 5535,
      "##ologic": 5536,
      "util": 5537,
      "##ices": 5538,
      "##lor": 5539,
      "contrast": 5540,
      "received": 5541,
      "coh": 5542,
      "More": 5543,
      "decrease": 5544,
      "complications": 5545,
      "On": 5546,
      "types": 5547,
      "##ters": 5548,
      "male": 5549,
      "##etric": 5550,
      "site": 5551,
      "##ule": 5552,
      "features": 5553,
      "technique": 5554,
      "heart": 5555,
      "##opt": 5556,
      "liter": 5557,
      "##uture": 5558,
      "intra": 5559,
      "##AD": 5560,
      "required": 5561,
      "biom": 5562,
      "##ner": 5563,
      "35": 5564,
      "morph": 5565,
      "##PS": 5566,
      "##omp": 5567,
      "sample": 5568,
      "tested": 5569,
      "##thermore": 5570,
      "##eg": 5571,
      "##ouse": 5572,
      "##urthermore": 5573,
      "##plied": 5574,
      "##ols": 5575,
      "26": 5576,
      "ov": 5577,
      "family": 5578,
      "syndrome": 5579,
      "derived": 5580,
      "##inary": 5581,
      "physical": 5582,
      "record": 5583,
      "very": 5584,
      "##entral": 5585,
      "##AT": 5586,
      "predict": 5587,
      "eth": 5588,
      "amin": 5589,
      "pathway": 5590,
      "##ledge": 5591,
      "##tice": 5592,
      "indicate": 5593,
      "you": 5594,
      "##ibility": 5595,
      "##els": 5596,
      "##izing": 5597,
      "assay": 5598,
      "dynam": 5599,
      "##ands": 5600,
      "##ference": 5601,
      "##ull": 5602,
      "prev": 5603,
      "##ators": 5604,
      "metast": 5605,
      "Furthermore": 5606,
      "ability": 5607,
      "caused": 5608,
      "progn": 5609,
      "block": 5610,
      "surve": 5611,
      "prolif": 5612,
      "rapid": 5613,
      "##AC": 5614,
      "##abil": 5615,
      "peptid": 5616,
      "##art": 5617,
      "##otype": 5618,
      "prepar": 5619,
      "fat": 5620,
      "emerg": 5621,
      "atten": 5622,
      "CR": 5623,
      "No": 5624,
      "##ves": 5625,
      "##inc": 5626,
      "##ressive": 5627,
      "combination": 5628,
      "network": 5629,
      "mRNA": 5630,
      "##odies": 5631,
      "social": 5632,
      "##roscopy": 5633,
      "temperature": 5634,
      "heter": 5635,
      "inhibition": 5636,
      "pharm": 5637,
      "monit": 5638,
      "il": 5639,
      "fil": 5640,
      "across": 5641,
      "collected": 5642,
      "##ygen": 5643,
      "experimental": 5644,
      "27": 5645,
      "indicated": 5646,
      "##eness": 5647,
      "cri": 5648,
      "##he": 5649,
      "previously": 5650,
      "After": 5651,
      "underwent": 5652,
      "##ortion": 5653,
      "influence": 5654,
      "content": 5655,
      "##TP": 5656,
      "electro": 5657,
      "left": 5658,
      "HIV": 5659,
      "assessment": 5660,
      "dam": 5661,
      "##ually": 5662,
      "dist": 5663,
      "because": 5664,
      "isolated": 5665,
      "##icular": 5666,
      "ec": 5667,
      "larg": 5668,
      "PE": 5669,
      "nit": 5670,
      "likely": 5671,
      "enzyme": 5672,
      "##rob": 5673,
      "sour": 5674,
      "31": 5675,
      "play": 5676,
      "length": 5677,
      "six": 5678,
      "lesions": 5679,
      "average": 5680,
      "##ectomy": 5681,
      "described": 5682,
      "##ables": 5683,
      "hom": 5684,
      "poly": 5685,
      "independent": 5686,
      "glucose": 5687,
      "applied": 5688,
      "gas": 5689,
      "containing": 5690,
      "##terior": 5691,
      "##20": 5692,
      "##ral": 5693,
      "diagnostic": 5694,
      "##ecting": 5695,
      "key": 5696,
      "kin": 5697,
      "knowledge": 5698,
      "often": 5699,
      "##olic": 5700,
      "pros": 5701,
      "##enced": 5702,
      "subst": 5703,
      "vacc": 5704,
      "light": 5705,
      "##ides": 5706,
      "##ulf": 5707,
      "if": 5708,
      "understanding": 5709,
      "diabetes": 5710,
      "##antit": 5711,
      "program": 5712,
      "stimul": 5713,
      "##orders": 5714,
      "transcription": 5715,
      "renal": 5716,
      "obj": 5717,
      "maxim": 5718,
      "correlated": 5719,
      "sites": 5720,
      "##ces": 5721,
      "90": 5722,
      "impair": 5723,
      "##cence": 5724,
      "demonstrate": 5725,
      "##ru": 5726,
      "##iotic": 5727,
      "volume": 5728,
      "##fusion": 5729,
      "then": 5730,
      "drugs": 5731,
      "literature": 5732,
      "45": 5733,
      "expressed": 5734,
      "characterized": 5735,
      "36": 5736,
      "##OS": 5737,
      "##ours": 5738,
      "solution": 5739,
      "limited": 5740,
      "Sc": 5741,
      "scores": 5742,
      "##vement": 5743,
      "##acellular": 5744,
      "##ount": 5745,
      "relative": 5746,
      "##arr": 5747,
      "tumors": 5748,
      "Pro": 5749,
      "29": 5750,
      "##order": 5751,
      "events": 5752,
      "##ales": 5753,
      "##eved": 5754,
      "proposed": 5755,
      "percent": 5756,
      "##go": 5757,
      "good": 5758,
      "signaling": 5759,
      "cardiac": 5760,
      "##ocard": 5761,
      "##lus": 5762,
      "moder": 5763,
      "ir": 5764,
      "##olar": 5765,
      "median": 5766,
      "apopt": 5767,
      "Patients": 5768,
      "##lying": 5769,
      "##enting": 5770,
      "compounds": 5771,
      "cere": 5772,
      "guid": 5773,
      "recover": 5774,
      "evaluation": 5775,
      "ultr": 5776,
      "bel": 5777,
      "80": 5778,
      "density": 5779,
      "ver": 5780,
      "biological": 5781,
      "##ower": 5782,
      "##ode": 5783,
      "##ison": 5784,
      "##arc": 5785,
      "##monary": 5786,
      "##iatric": 5787,
      "food": 5788,
      "##cep": 5789,
      "##ask": 5790,
      "32": 5791,
      "##de": 5792,
      "tub": 5793,
      "##itu": 5794,
      "depend": 5795,
      "enhanced": 5796,
      "processes": 5797,
      "help": 5798,
      "administration": 5799,
      "cogn": 5800,
      "represent": 5801,
      "mi": 5802,
      "##ince": 5803,
      "cur": 5804,
      "##urn": 5805,
      "constr": 5806,
      "visual": 5807,
      "activities": 5808,
      "hypert": 5809,
      "baseline": 5810,
      "disorders": 5811,
      "33": 5812,
      "skin": 5813,
      "female": 5814,
      "##aps": 5815,
      "release": 5816,
      "benef": 5817,
      "educ": 5818,
      "confirmed": 5819,
      "adults": 5820,
      "might": 5821,
      "##itud": 5822,
      "cellular": 5823,
      "##amp": 5824,
      "##romb": 5825,
      "elev": 5826,
      "combined": 5827,
      "provides": 5828,
      "##orption": 5829,
      "regulation": 5830,
      "lig": 5831,
      "failure": 5832,
      "##CA": 5833,
      "199": 5834,
      "training": 5835,
      "lear": 5836,
      "recogn": 5837,
      "spect": 5838,
      "##aking": 5839,
      "recent": 5840,
      "##ier": 5841,
      "ro": 5842,
      "continu": 5843,
      "48": 5844,
      "tissues": 5845,
      "##igr": 5846,
      "##ploy": 5847,
      "useful": 5848,
      "least": 5849,
      "##till": 5850,
      "paper": 5851,
      "au": 5852,
      "sequence": 5853,
      "question": 5854,
      "orig": 5855,
      "oste": 5856,
      "carr": 5857,
      "animals": 5858,
      "ess": 5859,
      "HR": 5860,
      "mix": 5861,
      "strategies": 5862,
      "##yro": 5863,
      "lack": 5864,
      "off": 5865,
      "successful": 5866,
      "##normal": 5867,
      "interactions": 5868,
      "amino": 5869,
      "minim": 5870,
      "Im": 5871,
      "lipid": 5872,
      "synthesis": 5873,
      "reli": 5874,
      "techniques": 5875,
      "recomm": 5876,
      "##encing": 5877,
      "measures": 5878,
      "section": 5879,
      "invas": 5880,
      "areas": 5881,
      "##ones": 5882,
      "##10": 5883,
      "##mit": 5884,
      "regions": 5885,
      "secre": 5886,
      "aimed": 5887,
      "##medi": 5888,
      "criter": 5889,
      "PA": 5890,
      "tests": 5891,
      "##artic": 5892,
      "transfer": 5893,
      "cohort": 5894,
      "adult": 5895,
      "initial": 5896,
      "young": 5897,
      "times": 5898,
      "oral": 5899,
      "produced": 5900,
      "##pecially": 5901,
      "quantit": 5902,
      "##ke": 5903,
      "affected": 5904,
      "##enz": 5905,
      "##otox": 5906,
      "separ": 5907,
      "nat": 5908,
      "##MI": 5909,
      "application": 5910,
      "Ph": 5911,
      "trials": 5912,
      "Med": 5913,
      "spectr": 5914,
      "future": 5915,
      "patterns": 5916,
      "##acts": 5917,
      "##NF": 5918,
      "##tle": 5919,
      "prior": 5920,
      "70": 5921,
      "##ata": 5922,
      "catal": 5923,
      "down": 5924,
      "observ": 5925,
      "ST": 5926,
      "37": 5927,
      "sw": 5928,
      "##ovascular": 5929,
      "Rec": 5930,
      "##orbid": 5931,
      "pH": 5932,
      "##port": 5933,
      "02": 5934,
      "##ytic": 5935,
      "##aff": 5936,
      "insulin": 5937,
      "##tine": 5938,
      "##grad": 5939,
      "te": 5940,
      "##iversity": 5941,
      "practice": 5942,
      "versus": 5943,
      "cre": 5944,
      "critical": 5945,
      "CS": 5946,
      "wid": 5947,
      "especially": 5948,
      "abnormal": 5949,
      "would": 5950,
      "even": 5951,
      "screening": 5952,
      "relev": 5953,
      "oxygen": 5954,
      "made": 5955,
      "75": 5956,
      "##ople": 5957,
      "procedure": 5958,
      "Moreover": 5959,
      "diss": 5960,
      "transplant": 5961,
      "step": 5962,
      "##dr": 5963,
      "34": 5964,
      "established": 5965,
      "Ig": 5966,
      "##ogene": 5967,
      "Ind": 5968,
      "##bers": 5969,
      "her": 5970,
      "ml": 5971,
      "##ochemical": 5972,
      "vascular": 5973,
      "position": 5974,
      "remains": 5975,
      "facil": 5976,
      "retros": 5977,
      "serv": 5978,
      "##omal": 5979,
      "capac": 5980,
      "arr": 5981,
      "##ious": 5982,
      "injection": 5983,
      "##ds": 5984,
      "scale": 5985,
      "##ining": 5986,
      "Co": 5987,
      "##MS": 5988,
      "coron": 5989,
      "##CL": 5990,
      "consum": 5991,
      "##rogen": 5992,
      "microb": 5993,
      "medic": 5994,
      "fraction": 5995,
      "##ave": 5996,
      "still": 5997,
      "few": 5998,
      "##iratory": 5999,
      "promo": 6000,
      "ey": 6001,
      "##isting": 6002,
      "##ets": 6003,
      "progression": 6004,
      "selected": 6005,
      "##xt": 6006,
      "cat": 6007,
      "according": 6008,
      "controlled": 6009,
      "##ying": 6010,
      "pathways": 6011,
      "##otor": 6012,
      "history": 6013,
      "approxim": 6014,
      "##thm": 6015,
      "Me": 6016,
      "##VID": 6017,
      "purp": 6018,
      "reduce": 6019,
      "strains": 6020,
      "pharmac": 6021,
      "acet": 6022,
      "duration": 6023,
      "central": 6024,
      "experiments": 6025,
      "##oint": 6026,
      "##ochond": 6027,
      "toward": 6028,
      "lay": 6029,
      "resulted": 6030,
      "real": 6031,
      "essential": 6032,
      "chemical": 6033,
      "defined": 6034,
      "structures": 6035,
      "adap": 6036,
      "parti": 6037,
      "Us": 6038,
      "##oscop": 6039,
      "cost": 6040,
      "proliferation": 6041,
      "##orr": 6042,
      "##iting": 6043,
      "occurred": 6044,
      "##CR": 6045,
      "nurs": 6046,
      "##arding": 6047,
      "access": 6048,
      "angi": 6049,
      "epid": 6050,
      "aden": 6051,
      "postoperative": 6052,
      "disorder": 6053,
      "##utes": 6054,
      "##istered": 6055,
      "##roc": 6056,
      "air": 6057,
      "##rosis": 6058,
      "challeng": 6059,
      "##aken": 6060,
      "COVID": 6061,
      "suggesting": 6062,
      "agg": 6063,
      "aged": 6064,
      "SD": 6065,
      "displ": 6066,
      "PCR": 6067,
      "malign": 6068,
      "##ocyte": 6069,
      "alter": 6070,
      "suggested": 6071,
      "##idne": 6072,
      "perce": 6073,
      "criteria": 6074,
      "altern": 6075,
      "metabolic": 6076,
      "right": 6077,
      "repe": 6078,
      "mid": 6079,
      "##ld": 6080,
      "PT": 6081,
      "damage": 6082,
      "da": 6083,
      "suggests": 6084,
      "##oxid": 6085,
      "glyc": 6086,
      "receptors": 6087,
      "##erve": 6088,
      "##PA": 6089,
      "exerc": 6090,
      "functions": 6091,
      "yield": 6092,
      "subsequ": 6093,
      "##fficient": 6094,
      "glob": 6095,
      "improvement": 6096,
      "smok": 6097,
      "testing": 6098,
      "secondary": 6099,
      "plat": 6100,
      "complete": 6101,
      "thromb": 6102,
      "38": 6103,
      "accum": 6104,
      "asp": 6105,
      "artery": 6106,
      "cognitive": 6107,
      "##ochondr": 6108,
      "ax": 6109,
      "employ": 6110,
      "##estinal": 6111,
      "culture": 6112,
      "##ints": 6113,
      "given": 6114,
      "sum": 6115,
      "##ture": 6116,
      "reduc": 6117,
      "measurements": 6118,
      "##ights": 6119,
      "place": 6120,
      "pulmonary": 6121,
      "Thus": 6122,
      "carcinoma": 6123,
      "provided": 6124,
      "Ar": 6125,
      "sensitive": 6126,
      "fer": 6127,
      "people": 6128,
      "plant": 6129,
      "increases": 6130,
      "safety": 6131,
      "structural": 6132,
      "ER": 6133,
      "##set": 6134,
      "stimulation": 6135,
      "epith": 6136,
      "##inally": 6137,
      "cm": 6138,
      "kidne": 6139,
      "bir": 6140,
      "MD": 6141,
      "##opro": 6142,
      "42": 6143,
      "##na": 6144,
      "##ibr": 6145,
      "Therefore": 6146,
      "##coh": 6147,
      "seg": 6148,
      "Using": 6149,
      "##omas": 6150,
      "interval": 6151,
      "strain": 6152,
      "diagnosed": 6153,
      "##entially": 6154,
      "thus": 6155,
      "apoptosis": 6156,
      "inhibitor": 6157,
      "kinase": 6158,
      "adverse": 6159,
      "discussed": 6160,
      "community": 6161,
      "public": 6162,
      "components": 6163,
      "describe": 6164,
      "bio": 6165,
      "##orld": 6166,
      "promot": 6167,
      "fluores": 6168,
      "##itional": 6169,
      "older": 6170,
      "load": 6171,
      "phosphor": 6172,
      "##function": 6173,
      "trial": 6174,
      "##onding": 6175,
      "03": 6176,
      "affect": 6177,
      "mouse": 6178,
      "neurons": 6179,
      "highest": 6180,
      "##lation": 6181,
      "mutations": 6182,
      "inhibited": 6183,
      "necess": 6184,
      "neut": 6185,
      "labor": 6186,
      "detect": 6187,
      "substr": 6188,
      "distin": 6189,
      "##50": 6190,
      "perip": 6191,
      "article": 6192,
      "extract": 6193,
      "additional": 6194,
      "importance": 6195,
      "##ivery": 6196,
      "Chin": 6197,
      "hand": 6198,
      "Ac": 6199,
      "##ermal": 6200,
      "##read": 6201,
      "learning": 6202,
      "metabolism": 6203,
      "##O2": 6204,
      "diffic": 6205,
      "concer": 6206,
      "##ered": 6207,
      "##emb": 6208,
      "##ont": 6209,
      "chain": 6210,
      "resulting": 6211,
      "migr": 6212,
      "Two": 6213,
      "highl": 6214,
      "populations": 6215,
      "electron": 6216,
      "prevent": 6217,
      "antibody": 6218,
      "horm": 6219,
      "agents": 6220,
      "polymer": 6221,
      "log": 6222,
      "sil": 6223,
      "##inetic": 6224,
      "achieved": 6225,
      "mitochondr": 6226,
      "implement": 6227,
      "AS": 6228,
      "##BP": 6229,
      "plac": 6230,
      "delivery": 6231,
      "seen": 6232,
      "point": 6233,
      "CH": 6234,
      "infections": 6235,
      "fract": 6236,
      "mL": 6237,
      "capacity": 6238,
      "colon": 6239,
      "needed": 6240,
      "##ession": 6241,
      "isch": 6242,
      "strength": 6243,
      "rang": 6244,
      "rare": 6245,
      "Results": 6246,
      "III": 6247,
      "enhance": 6248,
      "One": 6249,
      "##odes": 6250,
      "strategy": 6251,
      "setting": 6252,
      "action": 6253,
      "IV": 6254,
      "##leep": 6255,
      "countr": 6256,
      "auth": 6257,
      "particularly": 6258,
      "search": 6259,
      "cer": 6260,
      "antibodies": 6261,
      "side": 6262,
      "molecules": 6263,
      "##ER": 6264,
      "comparison": 6265,
      "undergo": 6266,
      "##bral": 6267,
      "top": 6268,
      "accuracy": 6269,
      "##oplasm": 6270,
      "##oids": 6271,
      "##roke": 6272,
      "##ethyl": 6273,
      "CA": 6274,
      "Of": 6275,
      "##MD": 6276,
      "##ulate": 6277,
      "variables": 6278,
      "inflammation": 6279,
      "eng": 6280,
      "##ventional": 6281,
      "task": 6282,
      "65": 6283,
      "methyl": 6284,
      "head": 6285,
      "##occ": 6286,
      "##yroid": 6287,
      "fold": 6288,
      "back": 6289,
      "depression": 6290,
      "##12": 6291,
      "experience": 6292,
      "Pre": 6293,
      "daily": 6294,
      "##put": 6295,
      "interventions": 6296,
      "nut": 6297,
      "HC": 6298,
      "exhibited": 6299,
      "carbon": 6300,
      "PR": 6301,
      "corresp": 6302,
      "cours": 6303,
      "With": 6304,
      "##rees": 6305,
      "natural": 6306,
      "hydrox": 6307,
      "##hold": 6308,
      "43": 6309,
      "ventr": 6310,
      "bar": 6311,
      "domain": 6312,
      "39": 6313,
      "antigen": 6314,
      "regarding": 6315,
      "##ficial": 6316,
      "basis": 6317,
      "proportion": 6318,
      "onset": 6319,
      "alg": 6320,
      "Health": 6321,
      "products": 6322,
      "power": 6323,
      "endoth": 6324,
      "##mission": 6325,
      "##II": 6326,
      "##icians": 6327,
      "hal": 6328,
      "AC": 6329,
      "prost": 6330,
      "chann": 6331,
      "clear": 6332,
      "alone": 6333,
      "lat": 6334,
      "##MA": 6335,
      "fluid": 6336,
      "exercise": 6337,
      "pregnancy": 6338,
      "environmental": 6339,
      "##ove": 6340,
      "series": 6341,
      "quanti": 6342,
      "examine": 6343,
      "clus": 6344,
      "differentiation": 6345,
      "implant": 6346,
      "##aft": 6347,
      "##eph": 6348,
      "statistically": 6349,
      "approximately": 6350,
      "##lob": 6351,
      "cou": 6352,
      "PP": 6353,
      "require": 6354,
      "examination": 6355,
      "ultras": 6356,
      "markers": 6357,
      "alcoh": 6358,
      "confidence": 6359,
      "survey": 6360,
      "##terol": 6361,
      "bacterial": 6362,
      "##ustr": 6363,
      "open": 6364,
      "cop": 6365,
      "approaches": 6366,
      "doc": 6367,
      "protoc": 6368,
      "activated": 6369,
      "04": 6370,
      "##ument": 6371,
      "mel": 6372,
      "situ": 6373,
      "efficiency": 6374,
      "EC": 6375,
      "##esth": 6376,
      "##agen": 6377,
      "refl": 6378,
      "linear": 6379,
      "When": 6380,
      "##ayed": 6381,
      "calculated": 6382,
      "44": 6383,
      "stem": 6384,
      "underlying": 6385,
      "host": 6386,
      "coronary": 6387,
      "##LA": 6388,
      "lines": 6389,
      "degrees": 6390,
      "##titution": 6391,
      "inhibitors": 6392,
      "infected": 6393,
      "##formation": 6394,
      "respond": 6395,
      "biop": 6396,
      "HP": 6397,
      "toler": 6398,
      "##heral": 6399,
      "hip": 6400,
      "resistant": 6401,
      "induc": 6402,
      "##umin": 6403,
      "relevant": 6404,
      "##arb": 6405,
      "##rolog": 6406,
      "##DL": 6407,
      "od": 6408,
      "terms": 6409,
      "AP": 6410,
      "##riate": 6411,
      "##ES": 6412,
      "##ched": 6413,
      "don": 6414,
      "cardiovascular": 6415,
      "severity": 6416,
      "datab": 6417,
      "AR": 6418,
      "##ariate": 6419,
      "bil": 6420,
      "applications": 6421,
      "adjus": 6422,
      "Over": 6423,
      "kidney": 6424,
      "55": 6425,
      "##brid": 6426,
      "elevated": 6427,
      "respiratory": 6428,
      "treatments": 6429,
      "cycle": 6430,
      "summ": 6431,
      "near": 6432,
      "##ancre": 6433,
      "stability": 6434,
      "##bry": 6435,
      "rad": 6436,
      "bro": 6437,
      "peak": 6438,
      "purpose": 6439,
      "dig": 6440,
      "recovery": 6441,
      "home": 6442,
      "transport": 6443,
      "##istry": 6444,
      "##dom": 6445,
      "facilit": 6446,
      "ca": 6447,
      "##ank": 6448,
      "fram": 6449,
      "##onomic": 6450,
      "sleep": 6451,
      "##etal": 6452,
      "procedures": 6453,
      "##OR": 6454,
      "acids": 6455,
      "students": 6456,
      "although": 6457,
      "degrad": 6458,
      "leading": 6459,
      "approp": 6460,
      "rest": 6461,
      "ion": 6462,
      "cytok": 6463,
      "Among": 6464,
      "dou": 6465,
      "##orn": 6466,
      "stable": 6467,
      "best": 6468,
      "cryst": 6469,
      "41": 6470,
      "linked": 6471,
      "##inical": 6472,
      "conclud": 6473,
      "stroke": 6474,
      "estimated": 6475,
      "mes": 6476,
      "conventional": 6477,
      "include": 6478,
      "##irus": 6479,
      "tool": 6480,
      "go": 6481,
      "along": 6482,
      "SC": 6483,
      "moderate": 6484,
      "nerve": 6485,
      "##isms": 6486,
      "##hes": 6487,
      "##anning": 6488,
      "##ges": 6489,
      "46": 6490,
      "prote": 6491,
      "hours": 6492,
      "##pling": 6493,
      "MR": 6494,
      "dysfunction": 6495,
      "mental": 6496,
      "Both": 6497,
      "##ptake": 6498,
      "lit": 6499,
      "does": 6500,
      "monitoring": 6501,
      "##atisf": 6502,
      "##ortic": 6503,
      "CP": 6504,
      "##oster": 6505,
      "leuk": 6506,
      "ampl": 6507,
      "systematic": 6508,
      "randomized": 6509,
      "##ulating": 6510,
      "recurr": 6511,
      "##ectiveness": 6512,
      "AL": 6513,
      "##trans": 6514,
      "degree": 6515,
      "compare": 6516,
      "conte": 6517,
      "composition": 6518,
      "iss": 6519,
      "##iety": 6520,
      "##agon": 6521,
      "peripheral": 6522,
      "99": 6523,
      "##omer": 6524,
      "antibiotic": 6525,
      "peptide": 6526,
      "72": 6527,
      "world": 6528,
      "mar": 6529,
      "wide": 6530,
      "thir": 6531,
      "problems": 6532,
      "repair": 6533,
      "curr": 6534,
      "distinct": 6535,
      "absence": 6536,
      "chemotherapy": 6537,
      "##ressing": 6538,
      "MI": 6539,
      "##ique": 6540,
      "Br": 6541,
      "consistent": 6542,
      "##bo": 6543,
      "specificity": 6544,
      "##oral": 6545,
      "chlor": 6546,
      "education": 6547,
      "exposed": 6548,
      "evolution": 6549,
      "##rem": 6550,
      "##MR": 6551,
      "##oz": 6552,
      "##imens": 6553,
      "recorded": 6554,
      "nor": 6555,
      "effectiveness": 6556,
      "52": 6557,
      "embry": 6558,
      "47": 6559,
      "##eling": 6560,
      "mainly": 6561,
      "spati": 6562,
      "##ering": 6563,
      "designed": 6564,
      "##ophil": 6565,
      "##utaneous": 6566,
      "conn": 6567,
      "##anol": 6568,
      "simple": 6569,
      "carried": 6570,
      "quantitative": 6571,
      "component": 6572,
      "##otid": 6573,
      "##hood": 6574,
      "##naire": 6575,
      "Fe": 6576,
      "##otypes": 6577,
      "##ret": 6578,
      "##oding": 6579,
      "modified": 6580,
      "reproduc": 6581,
      "administered": 6582,
      "##reatment": 6583,
      "limit": 6584,
      "attention": 6585,
      "##tib": 6586,
      "##ergic": 6587,
      "Sur": 6588,
      "course": 6589,
      "pancre": 6590,
      "##esized": 6591,
      "contribute": 6592,
      "birth": 6593,
      "bacteria": 6594,
      "##duce": 6595,
      "magnetic": 6596,
      "calcium": 6597,
      "dimension": 6598,
      "ill": 6599,
      "genome": 6600,
      "Sp": 6601,
      "sulf": 6602,
      "internal": 6603,
      "67": 6604,
      "##uter": 6605,
      "nm": 6606,
      "miR": 6607,
      "##ense": 6608,
      "ant": 6609,
      "uptake": 6610,
      "developing": 6611,
      "glut": 6612,
      "##tively": 6613,
      "quantif": 6614,
      "##inated": 6615,
      "objective": 6616,
      "MRI": 6617,
      "frag": 6618,
      "causes": 6619,
      "##ool": 6620,
      "chromos": 6621,
      "cycl": 6622,
      "medium": 6623,
      "Stud": 6624,
      "tempor": 6625,
      "adoles": 6626,
      "myocard": 6627,
      "##orting": 6628,
      "##rix": 6629,
      "materials": 6630,
      "NO": 6631,
      "images": 6632,
      "maximum": 6633,
      "##NS": 6634,
      "identification": 6635,
      "whole": 6636,
      "56": 6637,
      "PS": 6638,
      "HS": 6639,
      "Addition": 6640,
      "SP": 6641,
      "indicating": 6642,
      "pig": 6643,
      "variation": 6644,
      "Pr": 6645,
      "viral": 6646,
      "##ogenous": 6647,
      "54": 6648,
      "introduc": 6649,
      "predicted": 6650,
      "promising": 6651,
      "pair": 6652,
      "##roscopic": 6653,
      "ped": 6654,
      "source": 6655,
      "doses": 6656,
      "traum": 6657,
      "nuclear": 6658,
      "bu": 6659,
      "thick": 6660,
      "acqu": 6661,
      "las": 6662,
      "soil": 6663,
      "##know": 6664,
      "PI": 6665,
      "##eti": 6666,
      "irr": 6667,
      "therefore": 6668,
      "having": 6669,
      "49": 6670,
      "##eral": 6671,
      "##atives": 6672,
      "opp": 6673,
      "categ": 6674,
      "var": 6675,
      "##atitis": 6676,
      "##den": 6677,
      "alternative": 6678,
      "64": 6679,
      "material": 6680,
      "reach": 6681,
      "trig": 6682,
      "53": 6683,
      "Data": 6684,
      "##other": 6685,
      "##olesterol": 6686,
      "##ather": 6687,
      "wild": 6688,
      "##ape": 6689,
      "problem": 6690,
      "systemic": 6691,
      "##11": 6692,
      "mutation": 6693,
      "##izes": 6694,
      "special": 6695,
      "##encies": 6696,
      "hypertension": 6697,
      "alcohol": 6698,
      "remov": 6699,
      "spe": 6700,
      "##oft": 6701,
      "transition": 6702,
      "marked": 6703,
      "eight": 6704,
      "motor": 6705,
      "grade": 6706,
      "##ems": 6707,
      "##odium": 6708,
      "Na": 6709,
      "suscep": 6710,
      "fix": 6711,
      "ve": 6712,
      "##inity": 6713,
      "##andid": 6714,
      "reviewed": 6715,
      "animal": 6716,
      "ear": 6717,
      "##osa": 6718,
      "macroph": 6719,
      "##reh": 6720,
      "appropriate": 6721,
      "generation": 6722,
      "sequences": 6723,
      "##tif": 6724,
      "induction": 6725,
      "shows": 6726,
      "ME": 6727,
      "physiological": 6728,
      "##utive": 6729,
      "females": 6730,
      "##orpor": 6731,
      "##orbidity": 6732,
      "##sis": 6733,
      "prevention": 6734,
      "##21": 6735,
      "advanced": 6736,
      "hybrid": 6737,
      "difficult": 6738,
      "Compar": 6739,
      "necessary": 6740,
      "explore": 6741,
      "##orith": 6742,
      "##rine": 6743,
      "##neum": 6744,
      "males": 6745,
      "interp": 6746,
      "perm": 6747,
      "Inter": 6748,
      "substanti": 6749,
      "##amma": 6750,
      "tom": 6751,
      "upon": 6752,
      "Group": 6753,
      "intensity": 6754,
      "##eve": 6755,
      "toxicity": 6756,
      "bur": 6757,
      "selection": 6758,
      "relatively": 6759,
      "frequently": 6760,
      "85": 6761,
      "##inf": 6762,
      "##ococc": 6763,
      "unique": 6764,
      "restric": 6765,
      "##mediate": 6766,
      "seven": 6767,
      "##ories": 6768,
      "metal": 6769,
      "able": 6770,
      "read": 6771,
      "color": 6772,
      "##ened": 6773,
      "algorith": 6774,
      "##urb": 6775,
      "retrospective": 6776,
      "fas": 6777,
      "profil": 6778,
      "##uary": 6779,
      "radiation": 6780,
      "tog": 6781,
      "biomark": 6782,
      "57": 6783,
      "together": 6784,
      "satisf": 6785,
      "Further": 6786,
      "58": 6787,
      "directly": 6788,
      "regulated": 6789,
      "51": 6790,
      "context": 6791,
      "reson": 6792,
      "By": 6793,
      "liqu": 6794,
      "##que": 6795,
      "##lished": 6796,
      "act": 6797,
      "ter": 6798,
      "countries": 6799,
      "prognosis": 6800,
      "global": 6801,
      "MC": 6802,
      "##ometry": 6803,
      "TB": 6804,
      "star": 6805,
      "consequ": 6806,
      "subsequent": 6807,
      "##xiety": 6808,
      "ES": 6809,
      "sci": 6810,
      "##obl": 6811,
      "##ometric": 6812,
      "detail": 6813,
      "recently": 6814,
      "generated": 6815,
      "soft": 6816,
      "mamm": 6817,
      "matrix": 6818,
      "##esity": 6819,
      "shif": 6820,
      "efficient": 6821,
      "wall": 6822,
      "err": 6823,
      "processing": 6824,
      "##asts": 6825,
      "refer": 6826,
      "63": 6827,
      "laboratory": 6828,
      "##osts": 6829,
      "continuous": 6830,
      "polymorph": 6831,
      "IF": 6832,
      "resour": 6833,
      "RA": 6834,
      "mechanical": 6835,
      "persist": 6836,
      "microscopy": 6837,
      "##yg": 6838,
      "memory": 6839,
      "##MT": 6840,
      "late": 6841,
      "led": 6842,
      "recurrence": 6843,
      "oxidative": 6844,
      "plants": 6845,
      "measurement": 6846,
      "66": 6847,
      "optimal": 6848,
      "resolution": 6849,
      "##known": 6850,
      "##ots": 6851,
      "68": 6852,
      "Pl": 6853,
      "much": 6854,
      "susp": 6855,
      "bound": 6856,
      "intake": 6857,
      "ge": 6858,
      "unknown": 6859,
      "ventricular": 6860,
      "ster": 6861,
      "amount": 6862,
      "trend": 6863,
      "endothelial": 6864,
      "##iology": 6865,
      "little": 6866,
      "TNF": 6867,
      "incorpor": 6868,
      "experiment": 6869,
      "famil": 6870,
      "RT": 6871,
      "96": 6872,
      "liquid": 6873,
      "reconstr": 6874,
      "##isc": 6875,
      "##ching": 6876,
      "During": 6877,
      "selective": 6878,
      "barri": 6879,
      "62": 6880,
      "sem": 6881,
      "mitochondrial": 6882,
      "full": 6883,
      "59": 6884,
      "larger": 6885,
      "NS": 6886,
      "##hydro": 6887,
      "dynamics": 6888,
      "##activity": 6889,
      "compreh": 6890,
      "##EM": 6891,
      "##rin": 6892,
      "##ta": 6893,
      "double": 6894,
      "isolates": 6895,
      "soci": 6896,
      "repl": 6897,
      "accumulation": 6898,
      "##NP": 6899,
      "antagon": 6900,
      "potentially": 6901,
      "unc": 6902,
      "##idine": 6903,
      "corresponding": 6904,
      "##ively": 6905,
      "instr": 6906,
      "arth": 6907,
      "##activ": 6908,
      "##obacter": 6909,
      "regard": 6910,
      "anterior": 6911,
      "While": 6912,
      "##care": 6913,
      "##plicated": 6914,
      "odds": 6915,
      "occur": 6916,
      "published": 6917,
      "SS": 6918,
      "recru": 6919,
      "nanop": 6920,
      "73": 6921,
      "reference": 6922,
      "rob": 6923,
      "resection": 6924,
      "prospective": 6925,
      "ann": 6926,
      "##ired": 6927,
      "commonly": 6928,
      "ATP": 6929,
      "invasive": 6930,
      "services": 6931,
      "reports": 6932,
      "AT": 6933,
      "interest": 6934,
      "profile": 6935,
      "last": 6936,
      "CC": 6937,
      "##itude": 6938,
      "##land": 6939,
      "subc": 6940,
      "Americ": 6941,
      "##LI": 6942,
      "involvement": 6943,
      "##ifically": 6944,
      "trad": 6945,
      "##OC": 6946,
      "epithelial": 6947,
      "reducing": 6948,
      "divid": 6949,
      "completed": 6950,
      "##estern": 6951,
      "Finally": 6952,
      "##LC": 6953,
      "diff": 6954,
      "##PD": 6955,
      "##oration": 6956,
      "multiv": 6957,
      "profession": 6958,
      "diam": 6959,
      "authors": 6960,
      "##ope": 6961,
      "prepared": 6962,
      "forms": 6963,
      "##ella": 6964,
      "terminal": 6965,
      "hepat": 6966,
      "##ternal": 6967,
      "later": 6968,
      "##ason": 6969,
      "cholesterol": 6970,
      "Mul": 6971,
      "##ologies": 6972,
      "lact": 6973,
      "##elines": 6974,
      "third": 6975,
      "recommend": 6976,
      "##ultaneous": 6977,
      "view": 6978,
      "disp": 6979,
      "##rolled": 6980,
      "##illary": 6981,
      "predictive": 6982,
      "half": 6983,
      "assays": 6984,
      "extent": 6985,
      "ED": 6986,
      "consumption": 6987,
      "Gen": 6988,
      "const": 6989,
      "prognostic": 6990,
      "infants": 6991,
      "##ectal": 6992,
      "##onia": 6993,
      "198": 6994,
      "since": 6995,
      "adjusted": 6996,
      "pneum": 6997,
      "stages": 6998,
      "diabetic": 6999,
      "##ams": 7000,
      "transl": 7001,
      "##truct": 7002,
      "lesion": 7003,
      "mutant": 7004,
      "intracellular": 7005,
      "##ify": 7006,
      "##arily": 7007,
      "IR": 7008,
      "##ycin": 7009,
      "degradation": 7010,
      "##oglob": 7011,
      "associations": 7012,
      "regulatory": 7013,
      "neural": 7014,
      "78": 7015,
      "ever": 7016,
      "revers": 7017,
      "remained": 7018,
      "obesity": 7019,
      "##tile": 7020,
      "placebo": 7021,
      "above": 7022,
      "CD4": 7023,
      "##erative": 7024,
      "MT": 7025,
      "##AL": 7026,
      "##opathy": 7027,
      "here": 7028,
      "transmission": 7029,
      "image": 7030,
      "ven": 7031,
      "imm": 7032,
      "means": 7033,
      "way": 7034,
      "extrem": 7035,
      "longer": 7036,
      "percentage": 7037,
      "variety": 7038,
      "gastric": 7039,
      "##ocal": 7040,
      "fav": 7041,
      "##ecutive": 7042,
      "GS": 7043,
      "##icle": 7044,
      "61": 7045,
      "clinically": 7046,
      "grad": 7047,
      "concern": 7048,
      "##BC": 7049,
      "yet": 7050,
      "mil": 7051,
      "investigation": 7052,
      "widely": 7053,
      "remain": 7054,
      "broad": 7055,
      "enzymes": 7056,
      "##ings": 7057,
      "points": 7058,
      "##ished": 7059,
      "layer": 7060,
      "##oprotein": 7061,
      "removal": 7062,
      "recomb": 7063,
      "cruc": 7064,
      "strongly": 7065,
      "##yth": 7066,
      "gender": 7067,
      "antic": 7068,
      "interview": 7069,
      "76": 7070,
      "anxiety": 7071,
      "alk": 7072,
      "mild": 7073,
      "though": 7074,
      "neurop": 7075,
      "heterogene": 7076,
      "##ared": 7077,
      "squ": 7078,
      "reactions": 7079,
      "98": 7080,
      "spatial": 7081,
      "myocardial": 7082,
      "solid": 7083,
      "74": 7084,
      "coli": 7085,
      "assist": 7086,
      "69": 7087,
      "origin": 7088,
      "hypothesis": 7089,
      "undergoing": 7090,
      "##amide": 7091,
      "US": 7092,
      "cerebral": 7093,
      "supplement": 7094,
      "##ember": 7095,
      "##cers": 7096,
      "gamma": 7097,
      "sequencing": 7098,
      "##ework": 7099,
      "##IS": 7100,
      "##ula": 7101,
      "##ending": 7102,
      "##erved": 7103,
      "##anes": 7104,
      "vaccine": 7105,
      "transplantation": 7106,
      "##BA": 7107,
      "83": 7108,
      "##au": 7109,
      "inhibitory": 7110,
      "dimensional": 7111,
      "##aces": 7112,
      "majority": 7113,
      "must": 7114,
      "##use": 7115,
      "cho": 7116,
      "##elling": 7117,
      "chromat": 7118,
      "deriv": 7119,
      "arterial": 7120,
      "##io": 7121,
      "prefer": 7122,
      "##osing": 7123,
      "resonance": 7124,
      "##otion": 7125,
      "appar": 7126,
      "secretion": 7127,
      "exist": 7128,
      "adhes": 7129,
      "##itable": 7130,
      "platelet": 7131,
      "et": 7132,
      "HT": 7133,
      "advant": 7134,
      "call": 7135,
      "mob": 7136,
      "roles": 7137,
      "conclusion": 7138,
      "benefit": 7139,
      "receiving": 7140,
      "divided": 7141,
      "disch": 7142,
      "##mentation": 7143,
      "comm": 7144,
      "Eu": 7145,
      "cas": 7146,
      "##osite": 7147,
      "71": 7148,
      "organic": 7149,
      "deep": 7150,
      "86": 7151,
      "targets": 7152,
      "aw": 7153,
      "Desp": 7154,
      "gast": 7155,
      "Despite": 7156,
      "vas": 7157,
      "questionnaire": 7158,
      "77": 7159,
      "agent": 7160,
      "##53": 7161,
      "making": 7162,
      "contact": 7163,
      "88": 7164,
      "##pression": 7165,
      "##erex": 7166,
      "sectional": 7167,
      "84": 7168,
      "##iton": 7169,
      "##aine": 7170,
      "hormone": 7171,
      "##ortex": 7172,
      "Inc": 7173,
      "nanopartic": 7174,
      "coe": 7175,
      "substrate": 7176,
      "discover": 7177,
      "complexes": 7178,
      "##ervical": 7179,
      "successfully": 7180,
      "##ophag": 7181,
      "attrib": 7182,
      "gran": 7183,
      "tend": 7184,
      "##ident": 7185,
      "##tering": 7186,
      "##NT": 7187,
      "lateral": 7188,
      "cann": 7189,
      "dop": 7190,
      "abund": 7191,
      "unit": 7192,
      "OS": 7193,
      "ble": 7194,
      "smoking": 7195,
      "myel": 7196,
      "induce": 7197,
      "appears": 7198,
      "CF": 7199,
      "certain": 7200,
      "malignant": 7201,
      "maternal": 7202,
      "allel": 7203,
      "candid": 7204,
      "##enic": 7205,
      "divers": 7206,
      "##outh": 7207,
      "Most": 7208,
      "##enge": 7209,
      "simultaneous": 7210,
      "sodium": 7211,
      "##tration": 7212,
      "tw": 7213,
      "93": 7214,
      "##pectively": 7215,
      "92": 7216,
      "spinal": 7217,
      "hepatic": 7218,
      "eas": 7219,
      "ed": 7220,
      "targeted": 7221,
      "97": 7222,
      "PF": 7223,
      "ng": 7224,
      "##ream": 7225,
      "conj": 7226,
      "##BS": 7227,
      "event": 7228,
      "become": 7229,
      "##jection": 7230,
      "fluorescence": 7231,
      "healthcare": 7232,
      "predom": 7233,
      "fatty": 7234,
      "involving": 7235,
      "82": 7236,
      "protocol": 7237,
      "confirm": 7238,
      "Overall": 7239,
      "87": 7240,
      "##pled": 7241,
      "antioxid": 7242,
      "migration": 7243,
      "framework": 7244,
      "dynamic": 7245,
      "##acr": 7246,
      "significance": 7247,
      "responsible": 7248,
      "##DNA": 7249,
      "TR": 7250,
      "Cons": 7251,
      "##aged": 7252,
      "poll": 7253,
      "offer": 7254,
      "##16": 7255,
      "lum": 7256,
      "maintain": 7257,
      "##iph": 7258,
      "##ame": 7259,
      "vess": 7260,
      "decision": 7261,
      "stimulated": 7262,
      "Ser": 7263,
      "##LR": 7264,
      "94": 7265,
      "79": 7266,
      "##dominal": 7267,
      "bond": 7268,
      "living": 7269,
      "mixed": 7270,
      "En": 7271,
      "##orrh": 7272,
      "bo": 7273,
      "challenges": 7274,
      "##ynth": 7275,
      "##IR": 7276,
      "PM": 7277,
      "Ag": 7278,
      "intestinal": 7279,
      "ful": 7280,
      "##reshold": 7281,
      "##ancer": 7282,
      "Three": 7283,
      "NF": 7284,
      "neurolog": 7285,
      "alb": 7286,
      "nerv": 7287,
      "Gr": 7288,
      "89": 7289,
      "wound": 7290,
      "cath": 7291,
      "##ector": 7292,
      "morbidity": 7293,
      "iron": 7294,
      "guidelines": 7295,
      "##itr": 7296,
      "Jan": 7297,
      "product": 7298,
      "0001": 7299,
      "##inations": 7300,
      "##acch": 7301,
      "princ": 7302,
      "hemat": 7303,
      "superior": 7304,
      "produce": 7305,
      "challenge": 7306,
      "relationships": 7307,
      "paras": 7308,
      "technology": 7309,
      "polic": 7310,
      "Based": 7311,
      "analog": 7312,
      "temporal": 7313,
      "AF": 7314,
      "feed": 7315,
      "##venous": 7316,
      "##actory": 7317,
      "nature": 7318,
      "##acement": 7319,
      "needs": 7320,
      "core": 7321,
      "accept": 7322,
      "tomography": 7323,
      "interf": 7324,
      "##ritis": 7325,
      "flex": 7326,
      "Clinical": 7327,
      "Reg": 7328,
      "plays": 7329,
      "agre": 7330,
      "reactive": 7331,
      "classification": 7332,
      "##alk": 7333,
      "aggreg": 7334,
      "assemb": 7335,
      "##less": 7336,
      "neon": 7337,
      "subun": 7338,
      "They": 7339,
      "##oxide": 7340,
      "solub": 7341,
      "gel": 7342,
      "##lo": 7343,
      "Additionally": 7344,
      "ads": 7345,
      "##tility": 7346,
      "attenu": 7347,
      "address": 7348,
      "BMI": 7349,
      "inn": 7350,
      "past": 7351,
      "rou": 7352,
      "person": 7353,
      "cys": 7354,
      "fit": 7355,
      "rather": 7356,
      "melan": 7357,
      "partial": 7358,
      "##odynam": 7359,
      "employed": 7360,
      "statistical": 7361,
      "3D": 7362,
      "MP": 7363,
      "##eta": 7364,
      "avoid": 7365,
      "##otide": 7366,
      "laser": 7367,
      "pass": 7368,
      "##uv": 7369,
      "expected": 7370,
      "crucial": 7371,
      "phenotype": 7372,
      "operation": 7373,
      "infer": 7374,
      "##phal": 7375,
      "##wenty": 7376,
      "HB": 7377,
      "prostate": 7378,
      "CV": 7379,
      "##ocl": 7380,
      "##RNAs": 7381,
      "constit": 7382,
      "external": 7383,
      "extracellular": 7384,
      "sexual": 7385,
      "specimens": 7386,
      "##EC": 7387,
      "pathogenesis": 7388,
      "##asia": 7389,
      "cytotox": 7390,
      "##eli": 7391,
      "GA": 7392,
      "feas": 7393,
      "Four": 7394,
      "rot": 7395,
      "tetr": 7396,
      "ray": 7397,
      "Di": 7398,
      "fung": 7399,
      "##ectivity": 7400,
      "weak": 7401,
      "auto": 7402,
      "rh": 7403,
      "anat": 7404,
      "Ca2": 7405,
      "##ellent": 7406,
      "suff": 7407,
      "##by": 7408,
      "##inus": 7409,
      "frequent": 7410,
      "manif": 7411,
      "##argeting": 7412,
      "upper": 7413,
      "##13": 7414,
      "Ass": 7415,
      "asym": 7416,
      "nutr": 7417,
      "phosphorylation": 7418,
      "##itiz": 7419,
      "sperm": 7420,
      "##arian": 7421,
      "aer": 7422,
      "Bl": 7423,
      "traditional": 7424,
      "members": 7425,
      "Su": 7426,
      "matched": 7427,
      "experienced": 7428,
      "tel": 7429,
      "joint": 7430,
      "variants": 7431,
      "##ortun": 7432,
      "##ontaneous": 7433,
      "##seud": 7434,
      "kinetic": 7435,
      "##22": 7436,
      "CM": 7437,
      "cortex": 7438,
      "urinary": 7439,
      "numer": 7440,
      "staining": 7441,
      "##otrop": 7442,
      "##pati": 7443,
      "medicine": 7444,
      "##group": 7445,
      "thyroid": 7446,
      "states": 7447,
      "manner": 7448,
      "taken": 7449,
      "vary": 7450,
      "marker": 7451,
      "cervical": 7452,
      "threshold": 7453,
      "##obic": 7454,
      "##eck": 7455,
      "differential": 7456,
      "leads": 7457,
      "toxic": 7458,
      "HF": 7459,
      "center": 7460,
      "humans": 7461,
      "biopsy": 7462,
      "around": 7463,
      "##ention": 7464,
      "construc": 7465,
      "Dec": 7466,
      "Ins": 7467,
      "High": 7468,
      "##gramm": 7469,
      "##ground": 7470,
      "adren": 7471,
      "thickness": 7472,
      "subt": 7473,
      "##ohist": 7474,
      "formed": 7475,
      "PG": 7476,
      "device": 7477,
      "eryth": 7478,
      "##uls": 7479,
      "uncle": 7480,
      "##ars": 7481,
      "asthm": 7482,
      "##crim": 7483,
      "81": 7484,
      "providing": 7485,
      "ste": 7486,
      "contribution": 7487,
      "posterior": 7488,
      "##ET": 7489,
      "profiles": 7490,
      "occurrence": 7491,
      "##aves": 7492,
      "metastasis": 7493,
      "##arch": 7494,
      "existing": 7495,
      "label": 7496,
      "##dle": 7497,
      "##rich": 7498,
      "##ucid": 7499,
      "bal": 7500,
      "currently": 7501,
      "dietary": 7502,
      "dog": 7503,
      "##olip": 7504,
      "molecule": 7505,
      "##iation": 7506,
      "##eletal": 7507,
      "SA": 7508,
      "CB": 7509,
      "unclear": 7510,
      "##gin": 7511,
      "##most": 7512,
      "benefits": 7513,
      "safe": 7514,
      "affinity": 7515,
      "highlight": 7516,
      "prediction": 7517,
      "adip": 7518,
      "January": 7519,
      "##rog": 7520,
      "fluor": 7521,
      "accurate": 7522,
      "pyr": 7523,
      "occurs": 7524,
      "##ench": 7525,
      "Cr": 7526,
      "impairment": 7527,
      "gastro": 7528,
      "requires": 7529,
      "Cu": 7530,
      "tract": 7531,
      "musc": 7532,
      "find": 7533,
      "excellent": 7534,
      "##osc": 7535,
      "Sim": 7536,
      "##OD": 7537,
      "NP": 7538,
      "##itively": 7539,
      "Anal": 7540,
      "variable": 7541,
      "aspects": 7542,
      "comparable": 7543,
      "prolong": 7544,
      "atr": 7545,
      "haz": 7546,
      "fund": 7547,
      "##ean": 7548,
      "##ject": 7549,
      "therapies": 7550,
      "##itary": 7551,
      "transform": 7552,
      "oil": 7553,
      "space": 7554,
      "alterations": 7555,
      "##any": 7556,
      "curve": 7557,
      "Sh": 7558,
      "comprehensive": 7559,
      "sources": 7560,
      "collagen": 7561,
      "pediatric": 7562,
      "emph": 7563,
      "##rot": 7564,
      "bios": 7565,
      "optical": 7566,
      "##ico": 7567,
      "targeting": 7568,
      "emb": 7569,
      "slow": 7570,
      "she": 7571,
      "direction": 7572,
      "##olved": 7573,
      "##ii": 7574,
      "OH": 7575,
      "##IP": 7576,
      "Af": 7577,
      "##herence": 7578,
      "T2": 7579,
      "##ats": 7580,
      "BP": 7581,
      "obtain": 7582,
      "document": 7583,
      "NH": 7584,
      "practic": 7585,
      "concept": 7586,
      "altered": 7587,
      "orth": 7588,
      "aortic": 7589,
      "thor": 7590,
      "##ema": 7591,
      "compr": 7592,
      "clos": 7593,
      "located": 7594,
      "BC": 7595,
      "theory": 7596,
      "enrolled": 7597,
      "abdominal": 7598,
      "##apl": 7599,
      "ratios": 7600,
      "perception": 7601,
      "now": 7602,
      "defin": 7603,
      "programs": 7604,
      "##robl": 7605,
      "nine": 7606,
      "irradi": 7607,
      "neuronal": 7608,
      "pathological": 7609,
      "root": 7610,
      "recommended": 7611,
      "91": 7612,
      "anesth": 7613,
      "spontaneous": 7614,
      "##ogenetic": 7615,
      "##uch": 7616,
      "##igen": 7617,
      "base": 7618,
      "##cents": 7619,
      "costs": 7620,
      "##ori": 7621,
      "elements": 7622,
      "olig": 7623,
      "##tibility": 7624,
      "spectrum": 7625,
      "relation": 7626,
      "LC": 7627,
      "##ealing": 7628,
      "##akes": 7629,
      "white": 7630,
      "diameter": 7631,
      "discrim": 7632,
      "eye": 7633,
      "generally": 7634,
      "##fl": 7635,
      "logistic": 7636,
      "##itin": 7637,
      "implementation": 7638,
      "##isation": 7639,
      "force": 7640,
      "radical": 7641,
      "final": 7642,
      "overex": 7643,
      "wave": 7644,
      "##arin": 7645,
      "ultrasound": 7646,
      "vitamin": 7647,
      "fully": 7648,
      "diversity": 7649,
      "##onucle": 7650,
      "Europ": 7651,
      "hazard": 7652,
      "micros": 7653,
      "ves": 7654,
      "recognition": 7655,
      "##esia": 7656,
      "enrich": 7657,
      "estimate": 7658,
      "##aring": 7659,
      "adapt": 7660,
      "cancers": 7661,
      "Acc": 7662,
      "##orter": 7663,
      "particles": 7664,
      "polar": 7665,
      "cultures": 7666,
      "extraction": 7667,
      "##ytes": 7668,
      "Es": 7669,
      "synthesized": 7670,
      "IFN": 7671,
      "DS": 7672,
      "impaired": 7673,
      "towards": 7674,
      "fo": 7675,
      "##apping": 7676,
      "LV": 7677,
      "fetal": 7678,
      "allows": 7679,
      "##adder": 7680,
      "deficiency": 7681,
      "##uts": 7682,
      "domains": 7683,
      "##derly": 7684,
      "residues": 7685,
      "protective": 7686,
      "H2": 7687,
      "rev": 7688,
      "analyze": 7689,
      "ligand": 7690,
      "channel": 7691,
      "achieve": 7692,
      "elucid": 7693,
      "Per": 7694,
      "consecutive": 7695,
      "tools": 7696,
      "##icrob": 7697,
      "##ophys": 7698,
      "spectroscopy": 7699,
      "##EG": 7700,
      "##oxy": 7701,
      "nanoparticles": 7702,
      "HA": 7703,
      "improving": 7704,
      "emotion": 7705,
      "gre": 7706,
      "sed": 7707,
      "implications": 7708,
      "ens": 7709,
      "##ectin": 7710,
      "promote": 7711,
      "every": 7712,
      "rib": 7713,
      "specifically": 7714,
      "behavioral": 7715,
      "norm": 7716,
      "throughout": 7717,
      "inser": 7718,
      "##elf": 7719,
      "haem": 7720,
      "oxide": 7721,
      "complement": 7722,
      "fed": 7723,
      "absorption": 7724,
      "mode": 7725,
      "assign": 7726,
      "ow": 7727,
      "antim": 7728,
      "IgG": 7729,
      "leg": 7730,
      "manifest": 7731,
      "kn": 7732,
      "abnormalities": 7733,
      "gest": 7734,
      "Trans": 7735,
      "graft": 7736,
      "signals": 7737,
      "industr": 7738,
      "hydrogen": 7739,
      "chromatography": 7740,
      "independ": 7741,
      "meta": 7742,
      "##to": 7743,
      "pancreatic": 7744,
      "inst": 7745,
      "SR": 7746,
      "morphology": 7747,
      "lys": 7748,
      "trauma": 7749,
      "attem": 7750,
      "variability": 7751,
      "##osin": 7752,
      "agon": 7753,
      "media": 7754,
      "promoter": 7755,
      "##ubation": 7756,
      "##bal": 7757,
      "constant": 7758,
      "turn": 7759,
      "database": 7760,
      "##ili": 7761,
      "##asal": 7762,
      "dil": 7763,
      "desp": 7764,
      "propose": 7765,
      "onc": 7766,
      "ure": 7767,
      "##HD": 7768,
      "TC": 7769,
      "account": 7770,
      "Mean": 7771,
      "hypox": 7772,
      "analysed": 7773,
      "algorithm": 7774,
      "AU": 7775,
      "microg": 7776,
      "##ps": 7777,
      "macrophages": 7778,
      "therm": 7779,
      "deliver": 7780,
      "effectively": 7781,
      "Re": 7782,
      "##ict": 7783,
      "aims": 7784,
      "behaviour": 7785,
      "##alian": 7786,
      "reconstruction": 7787,
      "Partic": 7788,
      "school": 7789,
      "##titud": 7790,
      "make": 7791,
      "AA": 7792,
      "##immun": 7793,
      "##isp": 7794,
      "despite": 7795,
      "##18": 7796,
      "##iral": 7797,
      "DM": 7798,
      "basal": 7799,
      "recip": 7800,
      "slight": 7801,
      "kne": 7802,
      "##ronch": 7803,
      "eyes": 7804,
      "explored": 7805,
      "##14": 7806,
      "predominant": 7807,
      "##itals": 7808,
      "rapidly": 7809,
      "Afric": 7810,
      "adequ": 7811,
      "elderly": 7812,
      "diverse": 7813,
      "adolescents": 7814,
      "proxim": 7815,
      "GC": 7816,
      "##inate": 7817,
      "China": 7818,
      "##olytic": 7819,
      "operative": 7820,
      "descrip": 7821,
      "##way": 7822,
      "Chinese": 7823,
      "##ids": 7824,
      "RR": 7825,
      "heat": 7826,
      "##ients": 7827,
      "compl": 7828,
      "##osomal": 7829,
      "psychological": 7830,
      "usually": 7831,
      "elim": 7832,
      "Zn": 7833,
      "##HC": 7834,
      "beli": 7835,
      "institution": 7836,
      "##version": 7837,
      "preoperative": 7838,
      "PL": 7839,
      "randomly": 7840,
      "##ancies": 7841,
      "From": 7842,
      "rich": 7843,
      "##wide": 7844,
      "##DM": 7845,
      "UV": 7846,
      "##GFR": 7847,
      "fracture": 7848,
      "illness": 7849,
      "medication": 7850,
      "units": 7851,
      "peptides": 7852,
      "##apa": 7853,
      "iso": 7854,
      "TS": 7855,
      "arch": 7856,
      "chol": 7857,
      "trigg": 7858,
      "Compared": 7859,
      "##ervation": 7860,
      "##imer": 7861,
      "antioxidant": 7862,
      "issues": 7863,
      "validated": 7864,
      "computed": 7865,
      "summar": 7866,
      "Ab": 7867,
      "stabil": 7868,
      "cultured": 7869,
      "Bi": 7870,
      "##poc": 7871,
      "fibrosis": 7872,
      "focused": 7873,
      "plus": 7874,
      "##mental": 7875,
      "##OP": 7876,
      "NA": 7877,
      "devices": 7878,
      "##oscopic": 7879,
      "bleeding": 7880,
      "exch": 7881,
      "asthma": 7882,
      "pand": 7883,
      "biomarkers": 7884,
      "coord": 7885,
      "fish": 7886,
      "location": 7887,
      "distance": 7888,
      "##ounts": 7889,
      "retin": 7890,
      "tumour": 7891,
      "biochemical": 7892,
      "defects": 7893,
      "fusion": 7894,
      "##ocar": 7895,
      "##ylated": 7896,
      "##HR": 7897,
      "##MC": 7898,
      "##irect": 7899,
      "respect": 7900,
      "accel": 7901,
      "burden": 7902,
      "positively": 7903,
      "obstr": 7904,
      "spectrom": 7905,
      "hosp": 7906,
      "serious": 7907,
      "injuries": 7908,
      "##eds": 7909,
      "recurrent": 7910,
      "behaviors": 7911,
      "##acchar": 7912,
      "##ulatory": 7913,
      "robust": 7914,
      "communication": 7915,
      "conver": 7916,
      "phenomen": 7917,
      "##US": 7918,
      "intravenous": 7919,
      "##Ds": 7920,
      "progress": 7921,
      "##ives": 7922,
      "subtyp": 7923,
      "##lerosis": 7924,
      "agreement": 7925,
      "##pocamp": 7926,
      "DR": 7927,
      "Ne": 7928,
      "por": 7929,
      "##teen": 7930,
      "enter": 7931,
      "exce": 7932,
      "conclude": 7933,
      "##stream": 7934,
      "potent": 7935,
      "benz": 7936,
      "carri": 7937,
      "bind": 7938,
      "##hythm": 7939,
      "emergency": 7940,
      "clinic": 7941,
      "indicates": 7942,
      "fast": 7943,
      "oxidation": 7944,
      "ech": 7945,
      "suitable": 7946,
      "subgroup": 7947,
      "PK": 7948,
      "middle": 7949,
      "wors": 7950,
      "##icles": 7951,
      "extracted": 7952,
      "##EP": 7953,
      "Six": 7954,
      "##ie": 7955,
      "signs": 7956,
      "##angu": 7957,
      "families": 7958,
      "SN": 7959,
      "perceived": 7960,
      "until": 7961,
      "##ills": 7962,
      "##apse": 7963,
      "AN": 7964,
      "blot": 7965,
      "tolerance": 7966,
      "##Cl": 7967,
      "HD": 7968,
      "enti": 7969,
      "MA": 7970,
      "Hospital": 7971,
      "susceptibility": 7972,
      "##abb": 7973,
      "##amic": 7974,
      "vel": 7975,
      "epis": 7976,
      "transf": 7977,
      "##rophy": 7978,
      "##15": 7979,
      "cut": 7980,
      "opportun": 7981,
      "Sever": 7982,
      "almost": 7983,
      "##organ": 7984,
      "AM": 7985,
      "another": 7986,
      "##ades": 7987,
      "##FA": 7988,
      "perf": 7989,
      "##OL": 7990,
      "GP": 7991,
      "##rophil": 7992,
      "##itative": 7993,
      "cortical": 7994,
      "2019": 7995,
      "excess": 7996,
      "programm": 7997,
      "##elium": 7998,
      "El": 7999,
      "histological": 8000,
      "SL": 8001,
      "motion": 8002,
      "cereb": 8003,
      "##VA": 8004,
      "Twenty": 8005,
      "polymerase": 8006,
      "Scale": 8007,
      "##IN": 8008,
      "Conc": 8009,
      "##asty": 8010,
      "regen": 8011,
      "epidem": 8012,
      "protection": 8013,
      "band": 8014,
      "numbers": 8015,
      "depth": 8016,
      "cord": 8017,
      "growing": 8018,
      "risks": 8019,
      "basic": 8020,
      "##aptic": 8021,
      "infarc": 8022,
      "presentation": 8023,
      "##onin": 8024,
      "Nor": 8025,
      "classified": 8026,
      "06": 8027,
      "pandemic": 8028,
      "determination": 8029,
      "urine": 8030,
      "hydroxy": 8031,
      "IP": 8032,
      "TA": 8033,
      "noted": 8034,
      "National": 8035,
      "theore": 8036,
      "practices": 8037,
      "Since": 8038,
      "metabolites": 8039,
      "nursing": 8040,
      "He": 8041,
      "fin": 8042,
      "Em": 8043,
      "thermal": 8044,
      "New": 8045,
      "neck": 8046,
      "showing": 8047,
      "metastatic": 8048,
      "##Es": 8049,
      "##osine": 8050,
      "##tre": 8051,
      "ovarian": 8052,
      "phosphate": 8053,
      "DC": 8054,
      "##omatic": 8055,
      "far": 8056,
      "networks": 8057,
      "American": 8058,
      "VE": 8059,
      "##23": 8060,
      "orient": 8061,
      "defic": 8062,
      "membranes": 8063,
      "minutes": 8064,
      "accomp": 8065,
      "upreg": 8066,
      "minor": 8067,
      "reliable": 8068,
      "nam": 8069,
      "physicians": 8070,
      "##17": 8071,
      "uns": 8072,
      "##arv": 8073,
      "dental": 8074,
      "##thers": 8075,
      "##HA": 8076,
      "invasion": 8077,
      "Or": 8078,
      "electronic": 8079,
      "spl": 8080,
      "neutral": 8081,
      "##thal": 8082,
      "##let": 8083,
      "CL": 8084,
      "donor": 8085,
      "occup": 8086,
      "##azole": 8087,
      "infil": 8088,
      "repeated": 8089,
      "##ialysis": 8090,
      "##try": 8091,
      "2020": 8092,
      "discharge": 8093,
      "##aryng": 8094,
      "##oscopy": 8095,
      "hippocamp": 8096,
      "gain": 8097,
      "acetyl": 8098,
      "##ician": 8099,
      "##ilep": 8100,
      "multivariate": 8101,
      "immunohist": 8102,
      "complication": 8103,
      "working": 8104,
      "##ocation": 8105,
      "HCC": 8106,
      "##ologous": 8107,
      "chromosome": 8108,
      "FA": 8109,
      "genomic": 8110,
      "primarily": 8111,
      "movement": 8112,
      "##orage": 8113,
      "##used": 8114,
      "independently": 8115,
      "##tics": 8116,
      "##iform": 8117,
      "##olysis": 8118,
      "Meth": 8119,
      "milk": 8120,
      "##we": 8121,
      "SAR": 8122,
      "##ogens": 8123,
      "hospitals": 8124,
      "understood": 8125,
      "predictors": 8126,
      "##ococcus": 8127,
      "varied": 8128,
      "mill": 8129,
      "##undred": 8130,
      "Thir": 8131,
      "fibrobl": 8132,
      "##19": 8133,
      "tri": 8134,
      "preparation": 8135,
      "veloc": 8136,
      "IS": 8137,
      "##osomes": 8138,
      "angle": 8139,
      "##vent": 8140,
      "##urg": 8141,
      "completely": 8142,
      "synthetic": 8143,
      "cav": 8144,
      "##imen": 8145,
      "commerc": 8146,
      "##allel": 8147,
      "##itus": 8148,
      "appeared": 8149,
      "##itudinal": 8150,
      "ischemic": 8151,
      "CSF": 8152,
      "adhesion": 8153,
      "##ises": 8154,
      "##ancing": 8155,
      "distal": 8156,
      "knee": 8157,
      "interfer": 8158,
      "hundred": 8159,
      "beneficial": 8160,
      "United": 8161,
      "immunos": 8162,
      "records": 8163,
      "##anial": 8164,
      "##ercul": 8165,
      "ra": 8166,
      "close": 8167,
      "infusion": 8168,
      "ty": 8169,
      "intermediate": 8170,
      "neph": 8171,
      "##BD": 8172,
      "developmental": 8173,
      "aud": 8174,
      "insights": 8175,
      "his": 8176,
      "venti": 8177,
      "choice": 8178,
      "Gl": 8179,
      "extensive": 8180,
      "##back": 8181,
      "##icrobial": 8182,
      "##osal": 8183,
      "##TA": 8184,
      "cytokines": 8185,
      "bronch": 8186,
      "##iffer": 8187,
      "##ged": 8188,
      "##cem": 8189,
      "datas": 8190,
      "microbial": 8191,
      "engine": 8192,
      "##eless": 8193,
      "morphological": 8194,
      "##tenance": 8195,
      "##uit": 8196,
      "accompan": 8197,
      "Particip": 8198,
      "admission": 8199,
      "Cd": 8200,
      "##apan": 8201,
      "observations": 8202,
      "healing": 8203,
      "div": 8204,
      "##enter": 8205,
      "ana": 8206,
      "resources": 8207,
      "comparing": 8208,
      "purified": 8209,
      "service": 8210,
      "nucleus": 8211,
      "recombinant": 8212,
      "element": 8213,
      "marrow": 8214,
      "transcript": 8215,
      "##ban": 8216,
      "face": 8217,
      "routine": 8218,
      "microbi": 8219,
      "Dep": 8220,
      "whose": 8221,
      "knock": 8222,
      "ranged": 8223,
      "prolonged": 8224,
      "sampling": 8225,
      "substantial": 8226,
      "##cal": 8227,
      "delayed": 8228,
      "nurses": 8229,
      "Western": 8230,
      "largely": 8231,
      "electroph": 8232,
      "rs": 8233,
      "put": 8234,
      "economic": 8235,
      "amb": 8236,
      "below": 8237,
      "##gans": 8238,
      "coupled": 8239,
      "##ica": 8240,
      "##anth": 8241,
      "##hing": 8242,
      "##IC": 8243,
      "##yle": 8244,
      "##artment": 8245,
      "vaccination": 8246,
      "##odynamic": 8247,
      "##ike": 8248,
      "##GA": 8249,
      "dogs": 8250,
      "prem": 8251,
      "date": 8252,
      "##tious": 8253,
      "others": 8254,
      "##ester": 8255,
      "##ochemistry": 8256,
      "fractures": 8257,
      "endogenous": 8258,
      "affecting": 8259,
      "##certain": 8260,
      "##fact": 8261,
      "du": 8262,
      "lapa": 8263,
      "CY": 8264,
      "##patient": 8265,
      "necrosis": 8266,
      "smaller": 8267,
      "feeding": 8268,
      "assum": 8269,
      "##inking": 8270,
      "##uting": 8271,
      "mM": 8272,
      "CE": 8273,
      "##umab": 8274,
      "parents": 8275,
      "rabb": 8276,
      "personal": 8277,
      "lymphocytes": 8278,
      "Bec": 8279,
      "07": 8280,
      "##opic": 8281,
      "EP": 8282,
      "articles": 8283,
      "presents": 8284,
      "pal": 8285,
      "settings": 8286,
      "pan": 8287,
      "##rophic": 8288,
      "##habil": 8289,
      "typical": 8290,
      "stimuli": 8291,
      "##ibly": 8292,
      "##iaz": 8293,
      "Japan": 8294,
      "nitrogen": 8295,
      "##enyl": 8296,
      "shape": 8297,
      "maintenance": 8298,
      "influenced": 8299,
      "pa": 8300,
      "pathology": 8301,
      "##oked": 8302,
      "PET": 8303,
      "##aria": 8304,
      "surge": 8305,
      "earl": 8306,
      "facilitate": 8307,
      "##ods": 8308,
      "interv": 8309,
      "TP": 8310,
      "nervous": 8311,
      "correct": 8312,
      "tail": 8313,
      "##letion": 8314,
      "pneumonia": 8315,
      "nod": 8316,
      "##actic": 8317,
      "polyp": 8318,
      "dominant": 8319,
      "##ophage": 8320,
      "matter": 8321,
      "LPS": 8322,
      "opi": 8323,
      "nons": 8324,
      "##idal": 8325,
      "inclusion": 8326,
      "##lyc": 8327,
      "##ra": 8328,
      "volun": 8329,
      "represents": 8330,
      "Recent": 8331,
      "storage": 8332,
      "bilateral": 8333,
      "##zed": 8334,
      "##omat": 8335,
      "height": 8336,
      "fron": 8337,
      "national": 8338,
      "Sev": 8339,
      "##ipl": 8340,
      "shift": 8341,
      "tex": 8342,
      "500": 8343,
      "initiation": 8344,
      "cytoplasm": 8345,
      "spread": 8346,
      "##thern": 8347,
      "observation": 8348,
      "TGF": 8349,
      "##ament": 8350,
      "PV": 8351,
      "##part": 8352,
      "contained": 8353,
      "##anding": 8354,
      "ions": 8355,
      "intensive": 8356,
      "Is": 8357,
      "added": 8358,
      "error": 8359,
      "adjust": 8360,
      "variations": 8361,
      "channels": 8362,
      "Several": 8363,
      "##intestinal": 8364,
      "neurological": 8365,
      "satisfaction": 8366,
      "seiz": 8367,
      "##itted": 8368,
      "counter": 8369,
      "what": 8370,
      "node": 8371,
      "pen": 8372,
      "intern": 8373,
      "##ea": 8374,
      "genotype": 8375,
      "##Ms": 8376,
      "recognized": 8377,
      "08": 8378,
      "diffusion": 8379,
      "except": 8380,
      "possibility": 8381,
      "##aline": 8382,
      "threat": 8383,
      "##OX": 8384,
      "hepatitis": 8385,
      "##ump": 8386,
      "##ologists": 8387,
      "##tingu": 8388,
      "Spec": 8389,
      "Und": 8390,
      "marg": 8391,
      "bladder": 8392,
      "closely": 8393,
      "blind": 8394,
      "##ignific": 8395,
      "##ontin": 8396,
      "solutions": 8397,
      "##ware": 8398,
      "##acer": 8399,
      "##ione": 8400,
      "retinal": 8401,
      "venous": 8402,
      "minimal": 8403,
      "fiber": 8404,
      "emp": 8405,
      "##itoneal": 8406,
      "perme": 8407,
      "##TS": 8408,
      "December": 8409,
      "affects": 8410,
      "transcriptional": 8411,
      "cis": 8412,
      "balance": 8413,
      "integrated": 8414,
      "##east": 8415,
      "suppress": 8416,
      "Sch": 8417,
      "LA": 8418,
      "eti": 8419,
      "exclud": 8420,
      "distr": 8421,
      "cover": 8422,
      "ben": 8423,
      "##urys": 8424,
      "Treatment": 8425,
      "caro": 8426,
      "ischemia": 8427,
      "seems": 8428,
      "langu": 8429,
      "##oglobin": 8430,
      "##Is": 8431,
      "exchange": 8432,
      "tun": 8433,
      "vac": 8434,
      "coefficient": 8435,
      "periods": 8436,
      "##ested": 8437,
      "Participants": 8438,
      "fall": 8439,
      "questions": 8440,
      "vul": 8441,
      "##ches": 8442,
      "CK": 8443,
      "infarction": 8444,
      "done": 8445,
      "regional": 8446,
      "ather": 8447,
      "emission": 8448,
      "bias": 8449,
      "workers": 8450,
      "recommendations": 8451,
      "presenting": 8452,
      "Because": 8453,
      "progressive": 8454,
      "sufficient": 8455,
      "parallel": 8456,
      "distingu": 8457,
      "decline": 8458,
      "dele": 8459,
      "hab": 8460,
      "intervals": 8461,
      "##enes": 8462,
      "##gue": 8463,
      "goal": 8464,
      "probably": 8465,
      "##lycer": 8466,
      "##olecular": 8467,
      "Be": 8468,
      "gradi": 8469,
      "regular": 8470,
      "##ows": 8471,
      "##ocomp": 8472,
      "##osterone": 8473,
      "attach": 8474,
      "replication": 8475,
      "acceler": 8476,
      "##atur": 8477,
      "##isions": 8478,
      "invers": 8479,
      "illus": 8480,
      "##A1": 8481,
      "amyl": 8482,
      "Ev": 8483,
      "##operatively": 8484,
      "acquired": 8485,
      "##issions": 8486,
      "precurs": 8487,
      "supported": 8488,
      "modification": 8489,
      "##ivalent": 8490,
      "##habilitation": 8491,
      "apparent": 8492,
      "dual": 8493,
      "characterization": 8494,
      "##treated": 8495,
      "adop": 8496,
      "mol": 8497,
      "FD": 8498,
      "##oxyl": 8499,
      "stay": 8500,
      "extended": 8501,
      "pregnant": 8502,
      "Exper": 8503,
      "##econd": 8504,
      "##otal": 8505,
      "refr": 8506,
      "segment": 8507,
      "##cribed": 8508,
      "aging": 8509,
      "##man": 8510,
      "##ota": 8511,
      "##ifications": 8512,
      "replacement": 8513,
      "Pub": 8514,
      "graf": 8515,
      "germ": 8516,
      "neutrophil": 8517,
      "##oline": 8518,
      "##uvant": 8519,
      "spectrometry": 8520,
      "platform": 8521,
      "experiences": 8522,
      "##ardi": 8523,
      "##TR": 8524,
      "##enia": 8525,
      "University": 8526,
      "##ignificant": 8527,
      "DA": 8528,
      "nucleotide": 8529,
      "ker": 8530,
      "vag": 8531,
      "adsorption": 8532,
      "Met": 8533,
      "feature": 8534,
      "maintained": 8535,
      "hemorrh": 8536,
      "Only": 8537,
      "endom": 8538,
      "##ocarcin": 8539,
      "##leuk": 8540,
      "microM": 8541,
      "favor": 8542,
      "variant": 8543,
      "##BL": 8544,
      "localization": 8545,
      "mach": 8546,
      "hydroph": 8547,
      "demonstrates": 8548,
      "##enchym": 8549,
      "subject": 8550,
      "##ostasis": 8551,
      "conjug": 8552,
      "displayed": 8553,
      "##iment": 8554,
      "##treatment": 8555,
      "degen": 8556,
      "bran": 8557,
      "antibiotics": 8558,
      "ranging": 8559,
      "occurring": 8560,
      "phyl": 8561,
      "Par": 8562,
      "partially": 8563,
      "epilep": 8564,
      "driven": 8565,
      "actin": 8566,
      "MAP": 8567,
      "##ners": 8568,
      "Immun": 8569,
      "poorly": 8570,
      "benign": 8571,
      "##avirus": 8572,
      "verte": 8573,
      "serve": 8574,
      "break": 8575,
      "soluble": 8576,
      "estimates": 8577,
      "reason": 8578,
      "composite": 8579,
      "##RS": 8580,
      "reliability": 8581,
      "newly": 8582,
      "proximal": 8583,
      "cluster": 8584,
      "##mitted": 8585,
      "deficient": 8586,
      "gastrointestinal": 8587,
      "assigned": 8588,
      "##water": 8589,
      "organization": 8590,
      "##hal": 8591,
      "pool": 8592,
      "##ectious": 8593,
      "waste": 8594,
      "collection": 8595,
      "ten": 8596,
      "##activation": 8597,
      "##genic": 8598,
      "States": 8599,
      "correlations": 8600,
      "theoretical": 8601,
      "##ozyg": 8602,
      "shock": 8603,
      "databases": 8604,
      "intact": 8605,
      "##ectives": 8606,
      "teach": 8607,
      "urban": 8608,
      "consequences": 8609,
      "ID": 8610,
      "attr": 8611,
      "neonatal": 8612,
      "Fr": 8613,
      "background": 8614,
      "##amination": 8615,
      "SE": 8616,
      "arm": 8617,
      "corn": 8618,
      "validation": 8619,
      "MMP": 8620,
      "exer": 8621,
      "gut": 8622,
      "##esh": 8623,
      "thereby": 8624,
      "noise": 8625,
      "conversion": 8626,
      "longitudinal": 8627,
      "cortic": 8628,
      "emotional": 8629,
      "##pro": 8630,
      "plastic": 8631,
      "retrospectively": 8632,
      "##ophageal": 8633,
      "computer": 8634,
      "##umn": 8635,
      "speed": 8636,
      "##omics": 8637,
      "separation": 8638,
      "limb": 8639,
      "uter": 8640,
      "##erculosis": 8641,
      "recruited": 8642,
      "pathogen": 8643,
      "sensory": 8644,
      "catheter": 8645,
      "green": 8646,
      "transient": 8647,
      "possess": 8648,
      "T1": 8649,
      "##atif": 8650,
      "worldwide": 8651,
      "##entia": 8652,
      "reverse": 8653,
      "##min": 8654,
      "identifying": 8655,
      "##aries": 8656,
      "IGF": 8657,
      "probe": 8658,
      "AI": 8659,
      "##ocrine": 8660,
      "##down": 8661,
      "childhood": 8662,
      "##urine": 8663,
      "contain": 8664,
      "##LP": 8665,
      "##ynthesis": 8666,
      "SARS": 8667,
      "disturb": 8668,
      "ethn": 8669,
      "native": 8670,
      "##ypt": 8671,
      "regulate": 8672,
      "qualitative": 8673,
      "adherence": 8674,
      "enhancement": 8675,
      "##athy": 8676,
      "tit": 8677,
      "p53": 8678,
      "subunit": 8679,
      "dispers": 8680,
      "run": 8681,
      "CN": 8682,
      "ethanol": 8683,
      "CoV": 8684,
      "##B1": 8685,
      "introduced": 8686,
      "regulating": 8687,
      "##illance": 8688,
      "##angl": 8689,
      "limitations": 8690,
      "plan": 8691,
      "princip": 8692,
      "##avage": 8693,
      "09": 8694,
      "##kin": 8695,
      "encoding": 8696,
      "illustr": 8697,
      "constructed": 8698,
      "Comp": 8699,
      "negatively": 8700,
      "failed": 8701,
      "simulation": 8702,
      "irradiation": 8703,
      "Pol": 8704,
      "μg": 8705,
      "axis": 8706,
      "##rec": 8707,
      "valuable": 8708,
      "##acial": 8709,
      "validity": 8710,
      "detailed": 8711,
      "##ience": 8712,
      "circum": 8713,
      "##ooth": 8714,
      "Study": 8715,
      "treating": 8716,
      "mutants": 8717,
      "markedly": 8718,
      "interpret": 8719,
      "bul": 8720,
      "300": 8721,
      "##ton": 8722,
      "utilized": 8723,
      "crystall": 8724,
      "ROS": 8725,
      "language": 8726,
      "example": 8727,
      "suppressed": 8728,
      "describes": 8729,
      "deaths": 8730,
      "sensor": 8731,
      "characterize": 8732,
      "graph": 8733,
      "##izations": 8734,
      "schiz": 8735,
      "EM": 8736,
      "SF": 8737,
      "lowest": 8738,
      "##cher": 8739,
      "velocity": 8740,
      "derivatives": 8741,
      "##rous": 8742,
      "controlling": 8743,
      "##elv": 8744,
      "pseud": 8745,
      "##SD": 8746,
      "colorectal": 8747,
      "localized": 8748,
      "##others": 8749,
      "users": 8750,
      "efforts": 8751,
      "##igible": 8752,
      "congen": 8753,
      "suppression": 8754,
      "cytokine": 8755,
      "attitud": 8756,
      "antimicrobial": 8757,
      "decreases": 8758,
      "##ring": 8759,
      "producing": 8760,
      "demographic": 8761,
      "##acted": 8762,
      "##ilateral": 8763,
      "atom": 8764,
      "count": 8765,
      "challenging": 8766,
      "##abric": 8767,
      "System": 8768,
      "expressing": 8769,
      "spin": 8770,
      "crystal": 8771,
      "dors": 8772,
      "skeletal": 8773,
      "vein": 8774,
      "reporting": 8775,
      "scanning": 8776,
      "caps": 8777,
      "°C": 8778,
      "allowed": 8779,
      "##anine": 8780,
      "##uctive": 8781,
      "##RT": 8782,
      "##rocytes": 8783,
      "fixed": 8784,
      "##rel": 8785,
      "fill": 8786,
      "ane": 8787,
      "younger": 8788,
      "HPV": 8789,
      "persistent": 8790,
      "explain": 8791,
      "thorac": 8792,
      "comput": 8793,
      "barrier": 8794,
      "##po": 8795,
      "anth": 8796,
      "reproductive": 8797,
      "return": 8798,
      "relax": 8799,
      "check": 8800,
      "catalytic": 8801,
      "ET": 8802,
      "##otomy": 8803,
      "tyros": 8804,
      "##electr": 8805,
      "modeling": 8806,
      "indirect": 8807,
      "staff": 8808,
      "rise": 8809,
      "remaining": 8810,
      "##leukin": 8811,
      "##BM": 8812,
      "Rep": 8813,
      "##ways": 8814,
      "##ime": 8815,
      "adequate": 8816,
      "##entific": 8817,
      "competi": 8818,
      "earlier": 8819,
      "utilization": 8820,
      "conserved": 8821,
      "viability": 8822,
      "surfaces": 8823,
      "metastases": 8824,
      "magnitude": 8825,
      "##otypic": 8826,
      "traits": 8827,
      "##lusions": 8828,
      "residual": 8829,
      "died": 8830,
      "policy": 8831,
      "inters": 8832,
      "##ophren": 8833,
      "According": 8834,
      "assessing": 8835,
      "extracts": 8836,
      "##ensions": 8837,
      "ground": 8838,
      "amounts": 8839,
      "DE": 8840,
      "BD": 8841,
      "planning": 8842,
      "seem": 8843,
      "impl": 8844,
      "##Fs": 8845,
      "cannot": 8846,
      "particle": 8847,
      "Col": 8848,
      "sten": 8849,
      "labeled": 8850,
      "aneurys": 8851,
      "##ellar": 8852,
      "##ecal": 8853,
      "##ah": 8854,
      "infr": 8855,
      "##uff": 8856,
      "CD8": 8857,
      "receive": 8858,
      "##ulum": 8859,
      "##asons": 8860,
      "pharmacological": 8861,
      "##igm": 8862,
      "##70": 8863,
      "Hy": 8864,
      "admitted": 8865,
      "expans": 8866,
      "##ohy": 8867,
      "##bar": 8868,
      "2016": 8869,
      "heterogeneity": 8870,
      "HCV": 8871,
      "kD": 8872,
      "##oman": 8873,
      "atrial": 8874,
      "antig": 8875,
      "measuring": 8876,
      "Previous": 8877,
      "Sub": 8878,
      "probability": 8879,
      "##acting": 8880,
      "LD": 8881,
      "Intr": 8882,
      "concluded": 8883,
      "biof": 8884,
      "accompanied": 8885,
      "hydroly": 8886,
      "Analysis": 8887,
      "operating": 8888,
      "smooth": 8889,
      "##LD": 8890,
      "injected": 8891,
      "##illus": 8892,
      "rehabilitation": 8893,
      "skills": 8894,
      "##point": 8895,
      "2018": 8896,
      "latter": 8897,
      "thym": 8898,
      "radiotherapy": 8899,
      "spectra": 8900,
      "CYP": 8901,
      "DP": 8902,
      "organs": 8903,
      "consisted": 8904,
      "pack": 8905,
      "cycles": 8906,
      "120": 8907,
      "##iciently": 8908,
      "practical": 8909,
      "ELI": 8910,
      "##ensus": 8911,
      "sustained": 8912,
      "##25": 8913,
      "slightly": 8914,
      "##rium": 8915,
      "Sm": 8916,
      "##edic": 8917,
      "simulations": 8918,
      "##38": 8919,
      "##abilities": 8920,
      "psychiatric": 8921,
      "AK": 8922,
      "##queous": 8923,
      "called": 8924,
      "swit": 8925,
      "BR": 8926,
      "documented": 8927,
      "varying": 8928,
      "methylation": 8929,
      "nutri": 8930,
      "coupling": 8931,
      "shap": 8932,
      "seed": 8933,
      "##ovirus": 8934,
      "2015": 8935,
      "PH": 8936,
      "Inf": 8937,
      "Mod": 8938,
      "delay": 8939,
      "##rief": 8940,
      "valve": 8941,
      "clim": 8942,
      "whom": 8943,
      "HLA": 8944,
      "Some": 8945,
      "online": 8946,
      "##itant": 8947,
      "centr": 8948,
      "Child": 8949,
      "clar": 8950,
      "defect": 8951,
      "barriers": 8952,
      "##ociation": 8953,
      "2017": 8954,
      "predicting": 8955,
      "##abor": 8956,
      "cul": 8957,
      "SI": 8958,
      "organisms": 8959,
      "suic": 8960,
      "NK": 8961,
      "Follow": 8962,
      "##iness": 8963,
      "##transfer": 8964,
      "##avy": 8965,
      "maximal": 8966,
      "##amb": 8967,
      "viruses": 8968,
      "##opathological": 8969,
      "persons": 8970,
      "simultaneously": 8971,
      "Hg": 8972,
      "ring": 8973,
      "##osity": 8974,
      "dementia": 8975,
      "vector": 8976,
      "##upp": 8977,
      "candidate": 8978,
      "original": 8979,
      "##avel": 8980,
      "communities": 8981,
      "Medical": 8982,
      "NC": 8983,
      "cytos": 8984,
      "coding": 8985,
[...]
