[PAD]
[unused1]
[unused2]
[unused3]
[unused4]
[unused5]
[unused6]
[unused7]
[unused8]
[unused9]
[unused10]
[unused11]
[unused12]
[unused13]
[unused14]
[unused15]
[unused16]
[unused17]
[unused18]
[unused19]
[unused20]
[unused21]
[unused22]
[unused23]
[unused24]
[unused25]
[unused26]
[unused27]
[unused28]
[unused29]
[unused30]
[unused31]
[unused32]
[unused33]
[unused34]
[unused35]
[unused36]
[unused37]
[unused38]
[unused39]
[unused40]
[unused41]
[unused42]
[unused43]
[unused44]
[unused45]
[unused46]
[unused47]
[unused48]
[unused49]
[unused50]
[unused51]
[unused52]
[unused53]
[unused54]
[unused55]
[unused56]
[unused57]
[unused58]
[unused59]
[unused60]
[unused61]
[unused62]
[unused63]
[unused64]
[unused65]
[unused66]
[unused67]
[unused68]
[unused69]
[unused70]
[unused71]
[unused72]
[unused73]
[unused74]
[unused75]
[unused76]
[unused77]
[unused78]
[unused79]
[unused80]
[unused81]
[unused82]
[unused83]
[unused84]
[unused85]
[unused86]
[unused87]
[unused88]
[unused89]
[unused90]
[unused91]
[unused92]
[unused93]
[unused94]
[unused95]
[unused96]
[unused97]
[unused98]
[unused99]
[UNK]
[CLS]
[SEP]
[MASK]
!
"
#
$
%
&
'
(
)
*
+
,
-
.
/
0
1
2
3
4
5
6
7
8
9
:
;
<
=
>
?
@
A
B
C
D
E
F
G
H
I
J
K
L
M
N
O
P
Q
R
S
T
U
V
W
X
Y
Z
[
\
]
^
_
`
a
b
c
d
e
f
g
h
i
j
k
l
m
n
o
p
q
r
s
t
u
v
w
x
y
z
{
|
}
~
























¡
¢
£
¤
¥
¦
§
¨
©
ª
«
¬
­
®
¯
°
±
²
³
´
µ
¶
·
¸
¹
º
»
¼
½
¾
¿
Æ
Ð
×
Ø
Þ
ß
æ
ð
÷
ø
þ
Đ
đ
ħ
ı
Ĳ
ĸ
Ł
ł
Ŋ
ŋ
Œ
œ
Ŧ
ŧ
ſ
Ɓ
ƅ
Ɔ
ƈ
Ɖ
ƍ
Ǝ
Ə
Ɛ
ƒ
Ɣ
Ɩ
Ɨ
Ƙ
ƙ
ƛ
Ɯ
Ɲ
ƞ
Ɵ
Ƥ
Ƨ
ƨ
Ʃ
Ƭ
Ʈ
Ʊ
Ʋ
Ƴ
ƴ
Ƶ
ƶ
Ʒ
Ƹ
ƹ
ƺ
ƿ
ǀ
ǁ
ǂ
ǃ
ǝ
ǥ
Ƿ
Ƞ
ȡ
ȣ
Ȥ
ȥ
ȵ
ȶ
Ȼ
ȼ
ɀ
Ɂ
Ƀ
Ʌ
Ɇ
ɐ
ɑ
ɒ
ɓ
ɔ
ɕ
ɖ
ɗ
ɘ
ə
ɚ
ɛ
ɜ
ɝ
ɟ
ɡ
ɢ
ɣ
ɤ
ɥ
ɦ
ɧ
ɨ
ɩ
ɪ
ɫ
ɬ
ɭ
ɮ
ɯ
ɰ
ɱ
ɲ
ɳ
ɴ
ɵ
ɶ
ɷ
ɸ
ɹ
ɻ
ɼ
ɽ
ɾ
ɿ
ʀ
ʁ
ʂ
ʃ
ʅ
ʈ
ʉ
ʊ
ʋ
ʌ
ʎ
ʏ
ʐ
ʑ
ʒ
ʔ
ʕ
ʘ
ʝ
ʟ
ʤ
ʦ
ʧ
ʰ
ʱ
ʲ
ʷ
ʹ
ʺ
ʼ
ʾ
ˁ
˂
˃
˄
ˆ
ˇ
ˉ
ˍ
ː
ˑ
˖
˘
˙
˚
˛
˜
˝
˞
˟
ˠ
ˡ
ˢ
ˣ
ˤ
˥
˧
˨
˩
˪
˫
˭
ˮ
˴
˷
˸
˿
Ͱ
ͱ
Ͳ
ͳ
ͻ
Ϳ
΀
΁
΂
΃
΄
΍
Α
Β
Γ
Δ
Ε
Ζ
Η
Θ
Ι
Κ
Λ
Μ
Ν
Ξ
Ο
Π
Ρ
Σ
Τ
Υ
Φ
Χ
Ψ
Ω
α
β
γ
δ
ε
ζ
η
θ
ι
κ
λ
μ
ν
ξ
ο
π
ρ
ς
σ
τ
υ
φ
χ
ψ
ω
Ϗ
ϐ
ϑ
ϒ
ϕ
ϖ
Ϝ
ϝ
Ϡ
Ϫ
ϫ
Ϭ
ϭ
ϰ
ϱ
ϲ
ϴ
ϵ
ϸ
Ϲ
Ϻ
ϻ
ϼ
Є
Ѕ
І
Ј
А
Б
В
Г
Д
Е
Ж
З
И
К
Л
М
Н
О
П
Р
С
Т
У
Ф
Х
Ц
Ч
Ш
Ы
Ь
Э
Ю
Я
а
б
в
г
д
е
ж
з
и
к
л
м
н
о
п
р
с
т
у
ф
х
ц
ч
ш
щ
ы
ь
э
ю
я
є
ѕ
і
ј
ћ
Ѡ
Ѱ
ѱ
Ѳ
Ѵ
ѵ
Ґ
ґ
Қ
қ
ҝ
ҟ
Ҡ
ҡ
Ҫ
ҫ
Ү
ү
Ұ
Ҳ
ҳ
һ
Ӏ
Ӕ
ӕ
ә
Ө
ө
Ӷ
Ӽ
ӿ
ԁ
Ԏ
ԏ
Ԑ
ԑ
Ո
Ւ
Փ
ՙ
՚
՛
՜
ղ
ո
ւ
օ
։
֊
־
׀
׃
א
ב
ו
י
מ
ס
פ
ץ
ק
ר
ש
ת
׳
״
׹
،
؛
ء
ا
ب
ة
ت
ث
ج
ح
خ
د
ذ
ر
ز
س
ش
ص
ض
ط
ظ
ع
غ
ـ
ف
ق
ك
ل
م
ن
ه
و
ى
ي
٠
١
٢
٣
٤
٥
٦
٩
٪
٬
٭
چ
ک
ی
ۥ
۰
ݣ
߂
ߚ
ߝ
ߢ
ߣ
ࡩ
ࢤ
ࢧ
ࣈ
अ
आ
ई
उ
ऊ
ए
क
ख
ग
च
छ
ज
झ
ञ
ट
ठ
ड
ढ
ण
त
थ
द
ध
न
प
फ
ब
भ
म
य
र
ल
ळ
व
श
ष
स
ह
०
१
२
অ
ক
ন
ভ
ম
ষ
স
০
৯
ଌ
അ
ഇ
ഈ
ഉ
എ
ക
ഖ
ഗ
ഘ
ങ
ച
ജ
ഞ
ട
ഠ
ണ
ത
ദ
ധ
ന
പ
ഫ
ബ
ഭ
മ
യ
ര
റ
ല
ള
ഴ
വ
ശ
ഷ
സ
ഹ
ก
ข
ค
ง
ช
ญ
ฏ
ต
ท
ธ
น
บ
ป
ผ
ฝ
พ
ฟ
ภ
ม
ย
ร
ล
ว
ศ
ส
ห
อ
ะ
า
฿
เ
แ
โ
ใ
ไ
๥
໿
༅
་
༌
།
ཀ
ཁ
ག
ང
ཆ
ཉ
ཏ
ཐ
ད
ན
ཕ
བ
མ
ཚ
ཛ
ཞ
འ
ར
ལ
ཤ
ས
ཨ
ခ
ᄀ
ᄁ
ᄂ
ᄃ
ᄄ
ᄅ
ᄆ
ᄇ
ᄈ
ᄉ
ᄊ
ᄋ
ᄌ
ᄎ
ᄏ
ᄐ
ᄑ
ᄒ
ᅟ
ᅡ
ᅢ
ᅣ
ᅥ
ᅦ
ᅧ
ᅨ
ᅩ
ᅪ
ᅫ
ᅬ
ᅭ
ᅮ
ᅯ
ᅰ
ᅱ
ᅲ
ᅳ
ᅴ
ᅵ
ᆨ
ᆩ
ᆪ
ᆫ
ᆬ
ᆭ
ᆮ
ᆯ
ᆰ
ᆲ
ᆴ
ᆷ
ᆸ
ᆹ
ᆺ
ᆻ
ᆼ
ᆽ
ᆾ
ᆿ
ᇀ
ᇁ
ᇂ
ᇞ
ም
ር
ሻ
ታ
እ
ኩ
ገ
ጠ
ᐃ
ᐅ
ᐊ
ᑎ
ᒐ
ᒡ
ᒥ
ᒪ
ᓕ
ᔪ
ᖅ
ᗡ
᛫
ក
គ
ត
រ
ᴂ
ᴅ
ᴋ
ᴌ
ᴍ
ᴏ
ᴐ
ᴓ
ᴢ
ᴦ
ᴧ
ᴨ
ᴪ
ᴫ
ᴳ
ᴵ
ᴷ
ᴹ
ᴺ
ᴼ
ᴽ
ᴾ
ᴿ
ᵀ
ᵃ
ᵈ
ᵐ
ᵒ
ᵗ
ᵚ
ᵝ
ᵞ
ᵡ
ᵢ
ᵥ
ᵦ
ᵧ
ᵪ
ᵶ
ᵹ
ᶍ
ᶓ
ᶟ
ᶫ
ᶯ
ᶲ
ᶺ
ẞ
ẟ
ỿ
᾽
᾿
῾
​
‌
‍
‎
‏
‐
‑
‒
–
—
―
‖
‗
‘
’
‚
‛
“
”
„
‟
†
‡
•
․
‥
…
‧
‪
‫
‬
‭
‰
‱
′
″
‴
‶
‹
›
※
‾
‿
⁀
⁁
⁃
⁄
⁎
⁒
⁓
⁕
⁗
⁝
⁠
⁡
⁢
⁣
⁤
⁰
ⁱ
⁴
⁵
⁶
⁷
⁸
⁹
⁺
⁻
⁽
⁾
ⁿ
₀
₁
₂
₃
₄
₅
₆
₇
₈
₉
₊
₋
₌
₍
₎
ₐ
ₑ
ₓ
ₘ
ₙ
ₚ
ₛ
₣
₤
₦
₩
₪
₫
€
₮
₰
₱
₳
₵
₸
₹
₺
₽
₿
ℂ
℃
℅
ℇ
℉
ℋ
ℌ
ℍ
ℎ
ℏ
ℐ
ℑ
ℒ
ℓ
ℕ
№
℗
℘
ℙ
ℚ
ℛ
ℜ
ℝ
℞
℠
™
ℤ
℧
ℬ
ℭ
℮
ℰ
ℱ
Ⅎ
ℳ
ℴ
ℵ
ℷ
ℼ
ℽ
⅀
⅃
ⅅ
ⅆ
ⅇ
⅒
⅓
⅔
⅕
⅖
⅗
⅘
⅙
⅚
⅛
⅜
⅝
⅞
Ⅰ
Ⅱ
Ⅲ
Ⅳ
Ⅴ
Ⅵ
Ⅶ
Ⅷ
Ⅸ
Ⅹ
Ⅺ
Ⅻ
ⅰ
ⅱ
ⅲ
ⅳ
ⅴ
ⅵ
ⅹ
↋
←
↑
→
↓
↔
↕
↗
↘
↙
↝
↦
↨
↪
↱
↷
↻
↼
↽
↿
⇀
⇄
⇅
⇆
⇇
⇉
⇋
⇌
⇐
⇑
⇒
⇓
⇔
⇝
⇢
⇨
⇾
⇿
∀
∂
∃
∅
∆
∇
∈
∊
∋
∎
∏
∐
∑
−
∓
∕
∖
∗
∘
∙
√
∛
∝
∞
∟
∠
∡
∢
∣
∥
∧
∨
∩
∪
∫
∮
∱
∴
∶
∷
∸
∼
∽
∾
≂
≃
≅
≈
≊
≌
≍
≏
≐
≑
≒
≔
≖
≘
≙
≜
≡
≣
≤
≥
≦
≧
≨
≪
≫
≲
≳
≶
≷
≺
≻
≼
≽
≾
≿
⊂
⊃
⊆
⊇
⊊
⊎
⊓
⊔
⊕
⊖
⊗
⊘
⊙
⊚
⊛
⊝
⊞
⊟
⊠
⊡
⊢
⊣
⊤
⊥
⊳
⊸
⊿
⋁
⋂
⋃
⋄
⋅
⋆
⋈
⋊
⋍
⋎
⋗
⋘
⋙
⋜
⋝
⋮
⋯
⌀
⌃
⌈
⌉
⌊
⌋
⌐
⌒
⌖
⌜
⌝
⌠
⌢
⌣
⍙
⍛
⍦
⍬
⍰
⍳
⍴
⍵
⍺
⎓
⎔
⎕
⎛
⎤
⎯
⎼
⏊
␣
①
②
③
④
⑤
⑥
⑦
⑧
⑨
⑩
⑴
⑵
⑶
Ⓑ
Ⓒ
Ⓕ
Ⓝ
Ⓟ
Ⓡ
ⓒ
ⓟ
─
━
│
┄
┅
┏
└
┛
├
┤
┬
┴
┻
═
║
╗
╪
╫
╳
▁
█
▉
░
▒
▓
■
□
▪
▫
▬
▯
▱
▲
△
▴
▵
▶
▸
▹
►
▼
▽
▾
▿
◆
◇
◊
○
◎
●
◗
◦
◯
◻
◼
◽
◾
★
☆
☉
☐
☑
☓
☯
☱
☹
☺
☼
♀
♁
♂
♠
♡
♢
♣
♥
♦
♪
♭
♮
♯
⚥
⚫
✓
✔
✕
✗
✘
✜
✝
✠
✧
✱
✴
✶
❋
❖
❶
❷
➀
➁
➂
➃
➔
➙
➜
➝
➞
➢
➤
➧
⟀
⟁
⟂
⟝
⟦
⟧
⟨
⟩
⟪
⟫
⟵
⟶
⟷
⟺
⟼
⠃
⠇
⠉
⠐
⠒
⠕
⠗
⠙
⠞
⠬
⠻
⤳
⦀
⦁
⦌
⦵
⧁
⧄
⧅
⧎
⧧
⧫
⧸
⧹
⨀
⨁
⨂
⨉
⨦
⨪
⨯
⨰
⩒
⩦
⩼
⩽
⩾
⩿
⪅
⪆
⪍
⪕
⪖
⪝
⪞
⪡
⪢
⪯
⪰
⫅
⫖
⫫
⫹
⫽
⬄
⬓
⬛
⬜
⬡
⬢
⬧
⬰
⬽
⭘
⮚
Ⱔ
Ⱕ
Ⱪ
ⱪ
Ⱶ
ⱷ
ⲫ
ⴄ
ⵙ
⸍
⸦
⸧
⸰
⸱
⸳
⸸
⸺
⸻
⿤
⿥
⿬
⿲
⿿
、
。
〈
〉
《
》
「
」
『
【
】
〓
〔
〕
〖
〗
〚
〛
〜
〝
〞
〟
〰
あ
い
ぅ
う
え
お
か
き
く
け
こ
さ
し
す
せ
そ
た
ち
っ
つ
て
と
な
に
の
は
ひ
ふ
ま
み
め
も
や
よ
ら
り
る
れ
わ
を
ん
゜
ア
ィ
イ
ェ
エ
カ
ク
ケ
コ
サ
シ
ス
タ
チ
ッ
ツ
テ
ト
ナ
ニ
ノ
ハ
ヒ
フ
ヘ
ホ
マ
ミ
ム
メ
モ
ュ
ラ
リ
ル
レ
ロ
ン
・
ー
ㄍ
ㄹ
ㄾ
ㅊ
ㅏ
ㅐ
ㅑ
ㅓ
ㅕ
ㅗ
ㅛ
ㅜ
ㅠ
ㅣ
ㆍ
㎂
㎍
㎎
㎕
㎖
㎛
㎝
㎟
㎡
㎥
㎶
㏒
㒐
㯌
一
丸
丹
二
人
仙
倫
关
养
化
十
卍
参
味
囊
地
壮
复
大
妇
子
射
平
府
康
延
房
承
新
方
春
毒
气
汤
泉
注
活
消
液
清
温
湯
湿
潜
热
片
王
生
痛
痞
瘀
瘟
白
益
祛
粒
红
肝
肾
胃
胆
胶
脉
脾
至
艾
节
芎
芪
荣
虎
虛
血
补
败
迪
透
逐
阳
附
陽
颗
饮
骨
鹤
麦
黃
龄
ꓕ
ꓫ
ꓼ
꓿
ꘌ
ꙍ
ꙙ
ꙡ
ꜛ
Ꜥ
Ꜫ
ꝏ
ꝛ
ꝩ
ꞃ
Ꞇ
꞉
꞊
Ꞌ
ꞌ
ꞏ
Ʇ
Ꞵ
ꞵ
Ꞷ
ꞷ
ꟷ
ꭃ
ꭓ
ꭔ
ꭕ
ꭙ
ꭤ




































































































































































ﬀ
ﬁ
ﬂ
ﬃ
ﬄ
ﬅ
ﭏ
﴾
﴿
︒
︰
︵
︸
﹑
﹒
﹙
﹚
﹛
﹡
﹢
﹣
﹤
﹥
﹩
﹪
ﻻ
﻿
＂
＃
＄
％
＆
＇
（
）
＊
＋
，
－
．
／
１
４
６
７
：
；
＜
＝
＞
？
＠
Ｇ
Ｋ
Ｍ
Ｐ
Ｒ
Ｗ
Ｚ
［
＼
］
＾
＿
ｃ
ｉ
ｌ
ｍ
ｎ
ｏ
ｓ
ｖ
ｘ
｛
｜
｝
～
｢
｣
､
･
ｧ
ｰ
ｱ
ｵ
ｾ
ﾀ
ﾂ
ﾓ
ￗ
ￚ
￠
￡
￢
￥
￦
￼
�
𝌁
𝐑
𝐟
𝐤
𝐫
𝐴
𝐵
𝐶
𝐷
𝐸
𝐹
𝐺
𝐻
𝐿
𝑀
𝑁
𝑂
𝑃
𝑄
𝑅
𝑆
𝑇
𝑉
𝑊
𝑋
𝑎
𝑏
𝑐
𝑑
𝑒
𝑓
𝑔
𝑖
𝑘
𝑙
𝑚
𝑛
𝑜
𝑝
𝑟
𝑠
𝑡
𝑥
𝑦
𝒆
𝒙
𝒞
𝒟
𝒢
𝒦
𝒩
𝒪
𝒫
𝒮
𝒯
𝒱
𝒴
𝒾
𝓁
𝓇
𝓗
𝓘
𝓞
𝓡
𝓣
𝔃
𝔇
𝔉
𝔐
𝔹
𝔻
𝕀
𝕊
𝕏
𝕜
𝖢
𝖱
𝗑
𝘗
𝘢
𝘤
𝘥
𝘪
𝘭
𝘮
𝘰
𝘱
𝘳
𝘴
𝘶
𝘹
𝚫
𝚿
𝛂
𝛃
𝛄
𝛅
𝛆
𝛇
𝛋
𝛍
𝛘
𝛤
𝛥
𝛸
𝛹
𝛼
𝛽
𝛾
𝛿
𝜀
𝜁
𝜂
𝜃
𝜅
𝜆
𝜇
𝜋
𝜌
𝜎
𝜏
𝜒
𝜔
𝜖
𝜗
𝜟
𝜶
𝜷
𝜸
𝜹
𝜼
𝜿
𝝀
𝝁
𝝅
𝝌
𝝰
𝝹
𝞭
𝞽
𝟀
🄬
😊
😐
😢
😣
🡪
𠀓
𠄼
𠄽
𠆀
𰀎
񥌈
󿇀
􀀀
􀀃
􀁅
􀁆
􀁊
􀁐
􀁕
􀁠
􀂡
􀂢
􀂣
􀃼
􀆌
􀆗
􀆘
􀍗
􀏐
􀏔
􀳏
􏰁
􏰃
##D
##H
##6
##C
##h
##o
##g
##e
##n
##s
##i
##l
##r
##a
##p
##t
##c
##0
##7
##8
##m
##u
##S
##P
##N
##B
##3
##2
##9
##T
##A
##k
##R
##I
##M
##Δ
##4
##1
##E
##y
##b
##z
##d
##™
##O
##F
##G
##v
##V
##Z
##f
##L
##5
##U
##j
##w
##x
##®
##Q
##μ
##K
##W
##J
##X
##₄
##Y
##₅
##≤
##°
##ª
##µ
##Ⅰ
##⁻
##р
##у
##н
##я
##±
##´
##≈
##q
##‍
##α
##─
##¬
##ß
##β
##©
##∙
##π
##˚
##₂
##γ
##Ⅱ
##⋯
##В
##≡
##≲
##√
##Μ
##ʘ
##∼
##−
##×
##Ω
##³
##
##∓
##ζ
##一
##味
##参
##芪
##片
##≥
##¯
##∕
##∆
##Κ
##ε
##∞
##χ
##₁
##δ
##～
##═
##↔
##Ⓡ
##♀
##→
##⋅
##θ
##⁺
##ı
##φ
##△
##↑
##С
##₃
##ℓ
##₈
##⊃
##⁰
##⁄
##＋
##Ⅲ
##º
##∴
##∧
##≫
##ǀ
##Н
##Ф
##ﬁ
##¹
##⁵
##≪
##€
##ν
##Ε
##˙
##Φ
##‌
##²
##А
##∗
##
##⩾
##₀
##♂
##𝜇
##𝑔
##а
##о
##ω
##
##Π
##ø
##⁸
##∥
##↓
##÷
##σ
##
##﻿
##⊂
##ϕ
##ɑ
##ᅵ
##ᇁ
##ᄋ
##ᅥ
##ᄇ
##ᅩ
##ᄀ
##λ
##⁶
##ˆ
##₆
##ट
##ई
##ł
##≃
##ʱ
##≒
##ƙ
##­
##с
##ƒ
##＞
##Р
##ˮ
##ŋ
##΄
##ﬄ
##е
##➔
##瘟
##败
##毒
##饮
##∶
##∂
##ϵ
##ι
##¼
##Σ
##ﬂ
##□
##
##≦
##∘
##ρ
##∩
##स
##च
##∣
##ﬀ
##¢
##ο
##
##η
##₉
##​
##τ
##І
##
##★
##
##←
##⁴
##κ
##Γ
##ǁ
##₇
##◦
##ᅡ
##ᄅ
##ᅨ
##ᅳ
##ᆯ
##œ
##⁹
##⿿
##˜
##∈
##
##ς
##∝
##⦁
##⟂
##฿
##∖
##ξ
##ð
##Т
##
##⩽
##ψ
##ध
##क
##б
##л
##ю
##д
##ь
##
##陽
##虛
##ʰ
##⁠
##＜
##г
##
##ظ
##ه
##ر
##Ν
##æ
##½
##₋
##
##Ψ
##¤
##า
##ว
##○
##в
##ы
##х
##≳
##✱
##＝
##त
##र
##‬
##Β
##
##⎼
##⌢
##⅓
##ː
##и
##п
##т
##з
##Ш
##℃
##し
##た
##こ
##の
##な
##シ
##ス
##テ
##ム
##は
##■
##●
##Λ
##≐
##Τ
##Η
##
##▪
##і
##˂
##
##ĸ
##ɛ
##▫
##ع
##ا
##ض
##ϒ
##⁷
##ɸ
##ᆼ
##ᄉ
##ᆫ
##ᅮ
##ᆨ
##ᐃ
##⋮
##⇌
##ل
##م
##ي
##ة
##⪆
##Θ
##£
##‎
##
##ʂ
##
##‏
##ℝ
##Ð
##¨
##₣
##☓
##∟
##⇇
##∠
##
##≧
##˃
##▸
##М
##О
##マ
##ィ
##ッ
##ク
##レ
##ヒ
##ュ
##ー
##ح
##│
##Ο
##⊕
##
##∪
##ｱ
##⋆
##∀
##प
##⊣
##ᅧ
##ᅢ
##ᄃ
##⁢
##�
##К
##Ϲ
##य
##व
##ह
##Ι
##ज
##Б
##
##├
##⨉
##ꞵ
##ف
##ч
##∑
##⟶
##ط
##ب
##Е
##Ɛ
##ड
##ɡ
##
##∷
##➙
##⁤
##υ
##ɪ
##⇔
##¦
##⊙
##⁡
##¾
##𝛽
##ن
##﹥
##∫
##Ζ
##к
##˝
##
##⊥
##∅
##΀
##↦
##ᅰ
##ᆲ
##⊝
##⅔
##ߚ
##ᵥ
##⇋
##ʀ
##Ⅴ
##⊗
##Α
##و
##Ⅷ
##
##⪅
##ϖ
##⁣
##Ɵ
##ʌ
##≅
##↘
##℅
##ت
##¥
##ج
##س
##Х
##þ
##ذ
##¸
##ј
##ℏ
##⇒
##₹
##ə
##∽
##∊
##ᄒ
##ᅪ
##ₚ
##↕
##м
##Đ
##⩿
##⬜
##ᅟ
##Ⅻ
##ཞ
##↷
##
##ى
##ˑ
##➝
##𝜅
##⊘
##꞉
##ﬃ
##
##
##
##
##
##У
##Л
##
##☹
##ᴍ
##♡
##􏰁
##Ø
##ळ
##ҡ
##░
##▬
##▒
##ц
##ж
##↼
##
##ⅹ
##␣
##⬢
##ᆸ
##ᄌ
##ᄐ
##ℒ
##𝌁
##᾽
##ꓼ
##▽
##อ
##ง
##ㅣ
##Ұ
##よ
##り
##い
##か
##て
##あ
##る
##と
##さ
##れ
##ш
##◊
##
##⧧
##đ
##⊠
##Ⅳ
##З
##￠
##₵
##ɔ
##リ
##メ
##カ
##ɣ
##
##ϱ
##も
##っ
##Я
##ᄆ
##ᅦ
##ᆻ
##ʒ
##ф
##ɬ
##℠
##ʁ
##ɚ
##є
##􀂢
##Æ
##⇄
##ᴂ
##
##د
##ങ
##ക
##ത
##ള
##ട
##𝑚
##Ρ
##♦
##ꞏ
##┬
##᾿
##Ł
##Χ
##ᒪ
##ᐅ
##ᓕ
##ᒡ
##ᔪ
##ᐊ
##ᖅ
##ħ
##ᅴ
##▵
##∋
##⇀
##꞊
##に
##を
##す
##Ꞌ
##▲
##﹤
##ث
##ച
##യ
##ひ
##ҫ
##₦
##
##‪
##
##ന
##И
##ഖ
##ല
##∇
##￥
##ᅯ
##𝑖
##𝑓
##ɷ
##ˇ
##द
##म
##ɹ
##𝑡
##ℎ
##𝑦
##⍺
##
##ʊ
##ｌ
##ƛ
##
##𝛅
##⇆
##ʼ
##⇝
##⎯
##𝑏
##≣
##П
##қ
##≊
##つ
##コ
##ᴓ
##⨯
##
##ᄎ
##ぅ
##み
##ᅭ
##ẞ
##ℵ
##ₓ
##ष
##ق
##
##
##𝛇
##˘
##Ɣ
##⫽
##􀏐
##ⁱ
##⊛
##ᵒ
##Ξ
##〓
##胆
##汤
##വ
##ശ
##മ
##
##
##⟷
##ʃ
##ル
##
##
##ल
##ब
##न
##Ⅶ
##ك
##ز
##⊖
##∃
##∎
##┴
##𝑐
##𝑟
##ɗ
##ꞌ
##ᆷ
##
##⊆
##ཆ
##ང
##ɳ
##ठ
##𝘭
##𝘢
##𝘴
##𝘮
##𝘰
##𝘥
##𝘪
##𝘶
##ᆺ
##热
##祛
##瘀
##颗
##粒
##ϴ
##
##⋙
##✕
##ᄑ
##ग
##Ƀ
##ⱪ
##ഠ
##ˤ
##ᆰ
##ᴾ
##ᴿ
##ᴼ
##
##
##΂
##غ
##∡
##ˍ
##
##ʹ
##ᆾ
##ഴ
##സ
##‫
##⚥
##≙
##˴
##ᵧ
##Ʌ
##ӕ
##𝐺
##𝑎
##𝑝
##ʎ
##স
##ম
##ন
##ᄂ
##₌
##
##せ
##Ӏ
##ˉ
##⊤
##∏
##⍴
##ә
##
##ག
##⇑
##˞
##􀳏
##􀀃
##Г
##Ə
##خ
##𝑠
##𝑙
##𝑒
##𝑛
##Ƴ
##
##③
##ʉ
##ᄊ
##Ƙ
##э
##˧
##˥
##⌖
##№
##ʐ
##ʲ
##↪
##􀆘
##􀆌
##ƴ
##ण
##
##
##≖
##⌃
##ꟷ
##⊟
##鹤
##延
##龄
##方
##ʟ
##ハ
##④
##｜
##Ѵ
##Д
##♥
##Ⅹ
##􀂣
##⠉
##⠻
##⠞
##⌣
##
##ᆩ
##ص
##⚫
##ɒ
##⧹
##ˢ
##
##║
##ℤ
##
##▼
##Ⅸ
##イ
##ト
##ラ
##ン
##く
##ผ
##ส
##ม
##โ
##ค
##ล
##น
##⇾
##
##ϑ
##
##˭
##𠄽
##ധ
##ℇ
##゜
##
##
##
##Þ
##承
##气
##う
##き
##ⱷ
##ᴪ
##⌐
##ᅱ
##΃
##𝑜
##ᑎ
##℞
##Ⅺ
##ᄏ
##ᅫ
##痞
##消
##ണ
##ታ
##♯
##①
##⨪
##
##ढ
##ᴐ
##
##ᄁ
##ᵃ
##⍛
##ｘ
##ϰ
##⑤
##╳
##٠
##ᶓ
##ҟ
##↿
##
##₊
##ദ
##ɫ
##迪
##注
##射
##液
##𝐿
##⬰
##ʾ
##𝒞
##ـ
##
##
##􀂡
##ഘ
##۰
##ᴏ
##𝜀
##
##ɱ
##Ꞷ
##འ
##②
##Ȼ
##ｍ
##
##Ч
##ҝ
##ء
##
##Є
##ȡ
##Υ
##
##ㆍ
##⋝
##チ
##ɾ
##ɴ
##ɢ
##ƞ
##ᅬ
##
##ԁ
##ར
##ད
##泉
##℗
##ℽ
##
##Ѱ
##⁒
##˩
##≷
##ⓒ
##タ
##ア
##フ
##ロ
##⟵
##ཚ
##ལ
##≌
##
##ᵐ
##Ѕ
##ɵ
##ɤ
##𝐑
##һ
##ᇀ
##ᆹ
##ǃ
##┄
##≑
##
##Ы
##₺
##◎
##⌝
##Ɂ
##
##ʷ
##Œ
##റ
##▯
##ノ
##や
##ェ
##ߣ
##⊢
##▾
##ش
##𝛾
##𝚿
##˛
##₸
##ک
##ی
##ө
##┤
##₩
##𝞭
##ɲ
##˄
##
##ꭃ
##
##わ
##
##ㅜ
##ɀ
##𰀎
##↝
##≼
##ᆿ
##↗
##⌀
##▓
##ɯ
##
##ǂ
##΍
##芎
##Ө
##⋂
##
##█
##ʔ
##ᶲ
##ᅲ
##￼
##⠗
##⠇
##⎓
##⇿
##𝑑
##
##ཕ
##΁
##₤
##⋎
##🄬
##ͻ
##ര
##⩒
##⧅
##お
##け
##𝘤
##𝘱
##𝘳
##भ
##ƺ
##ต
##แ
##ะ
##ข
##ภ
##พ
##ย
##ร
##ใ
##ป
##เ
##ท
##ศ
##ไ
##ѱ
##エ
##え
##ら
##♣
##𝛂
##๥
##━
##പ
##⑥
##⑦
##⑧
##⑨
##黃
##附
##子
##湯
##≽
##⬡
##≺
##
##Ⅵ
##ԑ
##７
##ഷ
##ȥ
##
##⪢
##ℱ
##ན
##✠
##Ꜫ
##ɓ
##♭
##
##𝒪
##
##≍
##⍰
##✓
##མ
##ɥ
##ˁ
##⨀
##ʏ
##Ʇ
##ヘ
##श
##Ǝ
##ℕ
##☺
##ℜ
##Ϭ
##▁
##١
##⎛
##
##ก
##ญ
##บ
##ബ
##ₐ
##ん
##☱
##Ƭ
##☉
##ᵀ
##ᵹ
##ɨ
##
##Ɩ
##🡪
##◻
##٦
##٢
##𝒢
##ऊ
##ϐ
##Ⱶ
##
##肝
##潜
##阳
##ᴹ
##⊡
##↙
##㎍
##˨
##˖
##Ŧ
##≻
##ᵗ
##ק
##ו
##ר
##ɕ
##𝑥
##↨
##℧
##⪡
##ᇂ
##Ј
##
##ﬅ
##≔
##𝑆
##
##ₑ
##㎡
##ӿ
##བ
##ƹ
##至
##丸
##▴
##ℳ
##Ɓ
##໿
##٤
##
##
##⊳
##┻
##
##モ
##め
##ү
##﹢
##▱
##ᴧ
##麦
##ⲫ
##
##𝑂
##𝜃
##ｵ
##℉
##Ｐ
##
##㎛
##
##ȼ
##
##ᴋ
##𝛃
##ᆪ
##
##Ʃ
##
##⨁
##◯
##थ
##ʕ
##サ
##ホ
##ツ
##↱
##ᶟ
##☆
##ᄄ
##𝛼
##⿲
##≿
##ｉ
##ｖ
##ｏ
##រ
##ត
##⇓
##⫫
##щ
##𠀓
##ₘ
##𝐸
##
##𝜖
##╫
##Ⓑ
##肾
##活
##血
##𝛆
##ᆮ
##ո
##Ʒ
##㎖
##⊿
##⧁
##
##٣
##㯌
##𝐷
##ㅓ
##Ʈ
##􀆗
##ふ
##Ѳ
##ഗ
##ᵦ
##Ւ
##红
##
##ｾ
##ⁿ
##ᵈ
##⨰
##Ү
##♪
##ꭓ
##⋜
##⍬
##ख
##ナ
##ɮ
##ћ
##Ｍ
##Ⓟ
##ͱ
##Ͳ
##♁
##𝐟
##ᆬ
##
##Ʊ
##ᆽ
##虎
##ɩ
##ᅣ
##𝑉
##Ｇ
##ᵝ
##≏
##ᇞ
##ᆭ
##✗
##
##⋘
##פ
##ߝ
##⊊
##Ю
##ɦ
##Ϗ
##▿
##ｓ
##𝒮
##𝒯
##⧸
##𝜋
##脉
##胶
##囊
##
##ミ
##ɐ
##􀏔
##􀀀
##𝒆
##ȣ
##ɭ
##ₙ
##ࢤ
##⬽
##骨
##痛
##
##
##⩦
##⠕
##₮
##ꜛ
##✶
##☐
##⎔
##关
##节
##ϲ
##
##ʋ
##ࢧ
##＾
##ₛ
##ۥ
##ニ
##०
##२
##府
##逐
##ห
##ƈ
##ѕ
##
##Ⓒ
##➞
##ǥ
##
##ǝ
##⋃
##ℑ
##补
##１
##ᴽ
##
##
##ɶ
##𝐶
##￢
##ﾀ
##ﾓ
##ᴵ
##ᴺ
##ᴷ
##ˣ
##ϭ
##ℴ
##ẟ
##ㅠ
##⨂
##ㄾ
##ℂ
##օ
##
##ち
##ഭ
##⍦
##ᆴ
##א
##ש
##י
##ת
##养
##荣
##⑩
##∨
##ꝩ
##ഹ
##⭘
##⍵
##⇐
##新
##房
##⊇
##⋄
##┛
##
##Ж
##Ь
##٥
##ᵢ
##
##ㅕ
##
##ɖ
##ｎ
##ꓕ
##𝑘
##Ц
##ጠ
##ም
##ꘌ
##􀃼
##˟
##ञ
##
##𝑁
##𝑀
##复
##春
##ር
##ሻ
##ʺ
##ষ
##６
##
##׹
##󿇀
##ฏ
##ｰ
##
##
##湿
##化
##
##ケ
##ฟ
##↻
##ti
##er
##on
##en
th
##es
##ed
##in
##al
##nd
the
##or
in
##at
of
##tion
and
##ro
##it
##an
##ic
##ar
##as
##is
##ent
##ec
##el
##re
##ing
to
##ation
##om
##ol
##et
##ul
##ur
##ac
##os
##ith
##ati
##ve
##id
with
##ly
##le
##us
Th
##th
st
##ere
##ig
##ter
pro
con
for
re
an
##ce
##il
##ess
##ts
##em
##if
##uc
##ated
as
was
##ow
##od
##ut
##im
##am
##tic
were
The
ex
##ity
##oc
is
##tr
##um
##op
##ir
##ents
res
##ate
##ud
com
on
##ys
##ab
##og
##ion
##ev
##ot
ac
that
##ag
be
##ain
##ical
##ell
##ad
##ng
ch
##ers
##ap
##ant
by
##ect
##rom
##ment
wh
al
pr
##pl
##ib
##igh
##un
or
##ff
pati
im
##iv
su
##ine
##ase
dis
##ep
tr
inc
us
##tiv
##ence
stud
ad
comp
patients
##iz
at
##qu
##ure
are
##ign
from
##ial
##tive
##ay
##ies
##ific
sp
cell
##ort
##ations
##ch
##ip
##ress
##rou
##ear
sh
ass
##fer
##enti
ind
##orm
##per
##ou
##te
per
##ph
##ore
ne
eff
##ous
##ens
In
##ans
##evel
rec
##ely
##ons
##ge
##act
sign
gen
##ia
##ting
##est
en
inf
##ition
high
##ary
##olog
cl
we
##ased
##pp
this
ph
met
##ular
##and
##ver
imp
dif
bet
##reat
study
can
rel
##erm
##bs
inter
##oth
##yp
##ors
##ance
par
##ost
##ese
##roup
co
pre
cont
##enc
##ative
ev
##ich
anal
resp
##ist
str
mod
ha
exp
de
##ath
car
differ
signific
##een
not
##ym
group
##st
##ual
##ied
##ong
pl
##ection
trans
incre
significant
##yl
reg
##iti
sur
##end
##oci
##able
##ween
##ose
di
##ast
##duc
between
me
rep
##age
resul
##all
##vi
##ression
det
which
cons
show
inv
spec
cells
have
##oll
##rol
##ory
##ding
We
pres
##ari
##ros
sc
20
activ
##ide
un
treat
##alu
##ach
##ally
##ound
##fter
int
##eal
##ved
associ
##yst
##form
##ever
10
##unc
##ected
##ther
mic
##ech
und
##ates
##ight
compar
##ects
am
##ility
level
##tein
##tin
This
##ive
ab
##ases
all
than
analys
##lud
treatment
##tim
cor
##ted
##ome
##unction
app
##our
se
##one
##ak
after
med
##ating
##gh
using
pos
ar
has
##evelop
anti
##NA
##cer
##ized
##ulation
##ard
ag
these
meth
develop
##mun
year
bi
##ood
##osis
##ew
##ue
##dition
low
##wo
no
protein
been
##ox
dise
control
##cess
##ective
dat
but
##uring
their
le
clin
##acter
##erap
##ree
used
##yn
results
##ang
##ater
dec
red
##so
##ass
##entr
##action
##hib
##ill
includ
##ystem
##anc
mon
##ob
##ealth
id
tim
may
bl
##ological
##agn
##pt
el
##ures
##ism
associated
##uld
out
##ectiv
fact
function
##ri
also
model
two
##lu
##iss
hy
des
had
##cr
vari
analysis
sub
##plic
##uced
ris
system
conc
##atic
##ogen
dep
more
clinical
##ond
##entif
##ined
##yt
under
##ub
##urr
both
##aus
##out
ser
data
##ution
man
respons
dr
suc
##ential
health
risk
obs
perform
during
##etic
##gg
meas
##ven
em
##ays
##uct
identif
disease
method
significantly
##ants
acc
use
##aph
##gen
sam
over
##der
up
##ici
##inding
present
##ollow
pot
compared
##ization
00
##br
##tain
increased
non
evalu
form
expression
##eth
##ole
##gr
##ult
##ild
time
##ile
sugg
typ
##ace
ap
prov
path
##itive
##ite
based
##ail
dem
##tig
levels
##hibit
studies
##owever
follow
sim
therap
activity
found
ob
es
##ium
obser
gl
##ogr
showed
##ork
##ug
pol
##atory
##ments
qu
assess
ins
corr
##tal
##av
##ectively
end
##ities
other
it
different
its
appro
char
exper
effects
##estig
##ability
##ish
years
partic
immun
##ery
##yc
investig
19
effect
cancer
##ane
diagn
##ple
##tern
##mon
report
##idence
produc
tum
indic
##ions
determ
one
##onstr
##ences
impro
rem
##oid
12
##row
##ron
sel
##ency
##arg
higher
pred
##echan
##cc
##als
##amm
supp
##ination
##tical
mul
##erg
hum
into
##ology
specific
age
exam
most
##ex
##les
##adi
op
##ric
##ange
well
##ale
Al
gr
##ently
def
contr
mechan
micro
##ber
##ren
##esis
min
character
##ograph
##iqu
##til
fr
##ature
related
subs
##view
decre
##oph
##inal
concentr
##ark
groups
gener
95
These
test
ma
##rough
struct
such
##ord
import
##ible
##ik
##ne
##ack
acid
occ
##earch
##vention
patient
##ov
demonstr
##olec
##ural
caus
surg
##ement
process
##ormal
##ix
However
##af
##now
post
##ital
observed
sens
induced
rate
cr
valu
potential
num
##rop
intr
sm
who
##irst
##lex
only
care
inhibit
new
##ute
factors
##ept
##usion
##echn
##tit
human
term
three
CI
##osed
syn
there
aff
respectively
development
##cop
cases
loc
##uction
To
predic
child
month
conf
through
##och
outc
##istic
chang
##ior
##oma
sec
##ough
ep
##ivid
po
##ines
##ental
##ational
##eng
##omes
##ok
total
response
fl
ox
techn
first
##ured
disc
##led
##ulated
##asm
tiss
##ize
##ten
gene
##over
br
15
role
##tid
##aining
prop
grow
##ful
when
##fore
condition
##ould
col
inj
fe
pop
mechanism
those
##ains
molec
including
drug
##osp
##ived
##dro
suggest
mem
##air
review
type
##omen
tre
##osph
##cular
blood
performed
correl
medi
prog
##ene
##vers
invol
prim
could
among
sol
lower
11
long
cal
del
addition
mean
phys
prom
##endent
increase
There
##its
##00
infection
##res
ol
finding
changes
##arly
##are
##eter
##ucle
main
##gan
sym
##val
##ider
important
comb
##urs
know
peri
##ption
bas
##ek
201
##crib
reported
identified
recept
prob
##sy
therapy
reve
multi
lik
##etr
##requ
##ptom
##tained
##par
##ores
coll
requ
neu
tumor
lim
##di
hyp
mut
work
approach
##ross
##arge
##ages
cyt
our
aim
within
14
##iver
##roph
##ividual
##ival
need
extr
##xim
number
adm
##abol
##ade
rat
##ody
##oper
vir
##ock
##ise
##ality
##ether
##otic
##ha
frequ
experim
13
sequ
Ch
mus
##ness
##urther
##ues
research
reveal
##eld
analy
18
complex
provid
##ited
##ilar
where
##old
30
cap
individual
##iter
months
##ateg
positive
##ning
ext
##ples
ret
common
##tivity
expl
normal
findings
children
growth
without
hist
##ily
##ety
treated
##vious
##plications
period
##RNA
An
##equ
##acy
consider
prot
antib
##crip
chem
CD
II
##arget
while
qual
##atis
women
stim
##ativ
week
surv
factor
##omy
sever
subj
hyper
##ield
metabol
mg
hydro
##otyp
##urrent
improve
##havi
##atal
##lamm
It
##ically
each
##orph
##istr
cardi
##ascular
less
symptom
fib
great
poss
target
flu
included
DNA
days
St
##lish
describ
radi
16
pat
##ties
##jor
25
##ake
##plet
05
vis
mal
##ice
##hip
##vir
particip
enh
tem
dir
did
similar
##ogn
mice
##int
##ung
sing
behavi
##of
24
genes
CO
resist
calc
major
##ospital
##ication
##ified
##ty
influ
PC
analyz
surf
inform
he
reduced
case
tissue
##esting
##oun
##eu
due
class
differences
vit
organ
rece
rati
species
##ind
techniqu
##med
synth
As
should
##zym
##aging
##lement
neg
diagnosis
lead
conduc
av
##ectr
primary
exc
evidence
pers
single
conditions
Our
##erst
sev
inflamm
phosph
vol
population
lif
revealed
##ink
##uce
isol
mark
##ites
50
##oles
second
001
mat
##ength
measure
hem
some
decreased
small
##cin
##erv
interaction
bec
pathw
##ics
##itis
initi
##ension
range
abs
early
mo
##ivers
intervention
##trib
##arm
fem
binding
presence
stress
about
nucle
surgery
vs
##ography
obtained
developed
##ening
##ests
dose
proteins
##oh
200
17
##ately
##viron
my
samples
previous
day
survival
##her
##roscop
##ials
##ained
cyc
##though
##ins
outcomes
proper
further
##ced
demonstrated
plasm
coun
quality
underst
##erc
sk
prof
##ressed
stand
design
investigated
four
evaluated
effective
phen
##ymph
##uss
bre
measured
##ocyt
adv
pe
relations
line
##asing
##oss
##GF
##Cs
brain
receptor
##por
val
they
01
aut
lip
##ian
##ax
cult
prac
##sych
provide
set
##ire
characteristic
pattern
requir
##cle
##ults
##operative
molecular
##osure
##tions
##pha
admin
nov
enzym
##onal
##plant
##ving
der
oper
functional
will
##anced
methods
concentration
signal
relationship
Wh
mater
manag
est
lymph
strateg
##plication
pain
IL
lab
rates
param
##ensity
estim
##ither
again
##ick
hospital
prol
support
life
##reg
nan
models
##ms
complet
surface
contrib
information
fam
arter
##ostic
##tered
##icient
concentrations
##andom
environ
studied
reaction
large
##ronic
##cent
performance
serum
dependent
##esp
press
##ynam
100
membr
mort
##anti
standard
sus
ratio
##ification
##fic
weight
symptoms
values
identify
rats
determine
injur
##aneous
elect
##omic
following
water
##ission
dom
gu
proced
various
##und
##ator
mortality
21
electr
fac
against
##ensive
##ulations
##otherap
##orb
local
structure
##emic
##az
##pective
##hy
nec
kg
Here
bacter
##lic
liver
##tis
##eutic
body
occurr
experi
random
assessed
les
free
discuss
##atively
current
novel
reduction
adj
whether
polym
examined
##eters
##onic
mass
ref
diab
mechanisms
commun
##ulin
pur
##eptid
negative
##hi
regul
multiple
anim
before
activation
ul
region
gluc
phase
##opl
##emia
known
bone
transcrip
subjects
acute
cir
pub
##SA
determined
properties
##CT
##ision
##ause
Am
genetic
Com
##went
##eration
##iven
analyzed
chronic
confir
##atin
hep
equ
mm
##itivity
##icity
understand
##atus
hear
cle
##up
management
##MP
40
##atures
association
prec
vitro
##pec
Ad
ele
##ler
loss
neur
dim
difference
##acc
plasma
evaluate
ang
avail
exposure
##se
do
greater
production
##ablish
##uted
##ann
repres
conducted
impact
appear
scre
##cept
distrib
several
so
##ules
ur
##ists
alpha
fail
environment
psych
pressure
chrom
22
strong
carb
establish
achi
same
pul
CT
recom
success
either
foc
formation
indep
direct
##olution
compound
change
##ellular
sex
##roduc
##amin
shown
os
medical
##otherapy
sy
##round
##nal
beta
involved
##rome
preval
##ust
compon
##gram
##uration
##AR
therapeutic
##ID
er
##ised
size
detected
##AP
##ward
##CC
##ct
resistance
HI
value
add
weeks
death
##ateral
##iciency
characteristics
deg
##ocial
##iving
virus
##tric
temper
##ording
particular
accur
##AS
being
hel
##ey
60
lung
increasing
sl
severe
statis
resid
self
oxid
field
##ored
imaging
any
optim
diseases
part
responses
tra
##ergy
##lusion
many
##orts
OR
##yr
##line
flow
like
participants
differenti
##tegr
dys
bene
parameters
lo
##etes
##opath
All
sep
saf
For
23
rele
##ocytes
behavior
phot
order
##verage
general
surgical
investigate
link
possible
controls
sch
tox
whereas
area
inhib
pap
##RI
##enal
##ochem
##aw
old
000
super
neuro
vers
viv
##ae
gly
membrane
synd
chall
##own
##gn
MS
via
detection
muscle
contin
enc
Res
Ex
##asis
##ances
dev
##active
##ef
consist
effic
how
valid
AD
##elial
cent
##osition
diet
state
injury
##etry
vivo
improved
outcome
##inant
stage
##iat
better
exhibit
##ling
Cl
vi
presented
net
volum
ques
active
##pr
##ysis
proble
allow
systems
##work
##amine
##oring
##eline
##eric
Con
##therm
##verse
artic
immune
inflammatory
Ca
##tinal
considered
status
##ended
##ancy
individuals
score
cross
focus
Although
##istration
##ble
PD
##ylation
men
analyses
##oy
##ocy
available
##uk
28
index
##ogenesis
highly
carcin
hypoth
mit
##tically
frequency
sensitivity
At
##ographic
magn
##app
RNA
them
incidence
##ising
##ially
poor
##Ps
overall
efficacy
Tr
##eding
distribution
mediated
##ogenic
integr
circ
##elet
IC
sal
cause
rap
Un
##oses
healthy
followed
short
##iological
Pati
correlation
muc
pregn
##ient
energy
five
##itation
however
regression
##ft
breast
prevalence
att
##astic
result
##red
mac
##ably
##ologic
util
##ices
##lor
contrast
received
coh
More
decrease
complications
On
types
##ters
male
##etric
site
##ule
features
technique
heart
##opt
liter
##uture
intra
##AD
required
biom
##ner
35
morph
##PS
##omp
sample
tested
##thermore
##eg
##ouse
##urthermore
##plied
##ols
26
ov
family
syndrome
derived
##inary
physical
record
very
##entral
##AT
predict
eth
amin
pathway
##ledge
##tice
indicate
you
##ibility
##els
##izing
assay
dynam
##ands
##ference
##ull
prev
##ators
metast
Furthermore
ability
caused
progn
block
surve
prolif
rapid
##AC
##abil
peptid
##art
##otype
prepar
fat
emerg
atten
CR
No
##ves
##inc
##ressive
combination
network
mRNA
##odies
social
##roscopy
temperature
heter
inhibition
pharm
monit
il
fil
across
collected
##ygen
experimental
27
indicated
##eness
cri
##he
previously
After
underwent
##ortion
influence
content
##TP
electro
left
HIV
assessment
dam
##ually
dist
because
isolated
##icular
ec
larg
PE
nit
likely
enzyme
##rob
sour
31
play
length
six
lesions
average
##ectomy
described
##ables
hom
poly
independent
glucose
applied
gas
containing
##terior
##20
##ral
diagnostic
##ecting
key
kin
knowledge
often
##olic
pros
##enced
subst
vacc
light
##ides
##ulf
if
understanding
diabetes
##antit
program
stimul
##orders
transcription
renal
obj
maxim
correlated
sites
##ces
90
impair
##cence
demonstrate
##ru
##iotic
volume
##fusion
then
drugs
literature
45
expressed
characterized
36
##OS
##ours
solution
limited
Sc
scores
##vement
##acellular
##ount
relative
##arr
tumors
Pro
29
##order
events
##ales
##eved
proposed
percent
##go
good
signaling
cardiac
##ocard
##lus
moder
ir
##olar
median
apopt
Patients
##lying
##enting
compounds
cere
guid
recover
evaluation
ultr
bel
80
density
ver
biological
##ower
##ode
##ison
##arc
##monary
##iatric
food
##cep
##ask
32
##de
tub
##itu
depend
enhanced
processes
help
administration
cogn
represent
mi
##ince
cur
##urn
constr
visual
activities
hypert
baseline
disorders
33
skin
female
##aps
release
benef
educ
confirmed
adults
might
##itud
cellular
##amp
##romb
elev
combined
provides
##orption
regulation
lig
failure
##CA
199
training
lear
recogn
spect
##aking
recent
##ier
ro
continu
48
tissues
##igr
##ploy
useful
least
##till
paper
au
sequence
question
orig
oste
carr
animals
ess
HR
mix
strategies
##yro
lack
off
successful
##normal
interactions
amino
minim
Im
lipid
synthesis
reli
techniques
recomm
##encing
measures
section
invas
areas
##ones
##10
##mit
regions
secre
aimed
##medi
criter
PA
tests
##artic
transfer
cohort
adult
initial
young
times
oral
produced
##pecially
quantit
##ke
affected
##enz
##otox
separ
nat
##MI
application
Ph
trials
Med
spectr
future
patterns
##acts
##NF
##tle
prior
70
##ata
catal
down
observ
ST
37
sw
##ovascular
Rec
##orbid
pH
##port
02
##ytic
##aff
insulin
##tine
##grad
te
##iversity
practice
versus
cre
critical
CS
wid
especially
abnormal
would
even
screening
relev
oxygen
made
75
##ople
procedure
Moreover
diss
transplant
step
##dr
34
established
Ig
##ogene
Ind
##bers
her
ml
##ochemical
vascular
position
remains
facil
retros
serv
##omal
capac
arr
##ious
injection
##ds
scale
##ining
Co
##MS
coron
##CL
consum
##rogen
microb
medic
fraction
##ave
still
few
##iratory
promo
ey
##isting
##ets
progression
selected
##xt
cat
according
controlled
##ying
pathways
##otor
history
approxim
##thm
Me
##VID
purp
reduce
strains
pharmac
acet
duration
central
experiments
##oint
##ochond
toward
lay
resulted
real
essential
chemical
defined
structures
adap
parti
Us
##oscop
cost
proliferation
##orr
##iting
occurred
##CR
nurs
##arding
access
angi
epid
aden
postoperative
disorder
##utes
##istered
##roc
air
##rosis
challeng
##aken
COVID
suggesting
agg
aged
SD
displ
PCR
malign
##ocyte
alter
suggested
##idne
perce
criteria
altern
metabolic
right
repe
mid
##ld
PT
damage
da
suggests
##oxid
glyc
receptors
##erve
##PA
exerc
functions
yield
subsequ
##fficient
glob
improvement
smok
testing
secondary
plat
complete
thromb
38
accum
asp
artery
cognitive
##ochondr
ax
employ
##estinal
culture
##ints
given
sum
##ture
reduc
measurements
##ights
place
pulmonary
Thus
carcinoma
provided
Ar
sensitive
fer
people
plant
increases
safety
structural
ER
##set
stimulation
epith
##inally
cm
kidne
bir
MD
##opro
42
##na
##ibr
Therefore
##coh
seg
Using
##omas
interval
strain
diagnosed
##entially
thus
apoptosis
inhibitor
kinase
adverse
discussed
community
public
components
describe
bio
##orld
promot
fluores
##itional
older
load
phosphor
##function
trial
##onding
03
affect
mouse
neurons
highest
##lation
mutations
inhibited
necess
neut
labor
detect
substr
distin
##50
perip
article
extract
additional
importance
##ivery
Chin
hand
Ac
##ermal
##read
learning
metabolism
##O2
diffic
concer
##ered
##emb
##ont
chain
resulting
migr
Two
highl
populations
electron
prevent
antibody
horm
agents
polymer
log
sil
##inetic
achieved
mitochondr
implement
AS
##BP
plac
delivery
seen
point
CH
infections
fract
mL
capacity
colon
needed
##ession
isch
strength
rang
rare
Results
III
enhance
One
##odes
strategy
setting
action
IV
##leep
countr
auth
particularly
search
cer
antibodies
side
molecules
##ER
comparison
undergo
##bral
top
accuracy
##oplasm
##oids
##roke
##ethyl
CA
Of
##MD
##ulate
variables
inflammation
eng
##ventional
task
65
methyl
head
##occ
##yroid
fold
back
depression
##12
experience
Pre
daily
##put
interventions
nut
HC
exhibited
carbon
PR
corresp
cours
With
##rees
natural
hydrox
##hold
43
ventr
bar
domain
39
antigen
regarding
##ficial
basis
proportion
onset
alg
Health
products
power
endoth
##mission
##II
##icians
hal
AC
prost
chann
clear
alone
lat
##MA
fluid
exercise
pregnancy
environmental
##ove
series
quanti
examine
clus
differentiation
implant
##aft
##eph
statistically
approximately
##lob
cou
PP
require
examination
ultras
markers
alcoh
confidence
survey
##terol
bacterial
##ustr
open
cop
approaches
doc
protoc
activated
04
##ument
mel
situ
efficiency
EC
##esth
##agen
refl
linear
When
##ayed
calculated
44
stem
underlying
host
coronary
##LA
lines
degrees
##titution
inhibitors
infected
##formation
respond
biop
HP
toler
##heral
hip
resistant
induc
##umin
relevant
##arb
##rolog
##DL
od
terms
AP
##riate
##ES
##ched
don
cardiovascular
severity
datab
AR
##ariate
bil
applications
adjus
Over
kidney
55
##brid
elevated
respiratory
treatments
cycle
summ
near
##ancre
stability
##bry
rad
bro
peak
purpose
dig
recovery
home
transport
##istry
##dom
facilit
ca
##ank
fram
##onomic
sleep
##etal
procedures
##OR
acids
students
although
degrad
leading
approp
rest
ion
cytok
Among
dou
##orn
stable
best
cryst
41
linked
##inical
conclud
stroke
estimated
mes
conventional
include
##irus
tool
go
along
SC
moderate
nerve
##isms
##hes
##anning
##ges
46
prote
hours
##pling
MR
dysfunction
mental
Both
##ptake
lit
does
monitoring
##atisf
##ortic
CP
##oster
leuk
ampl
systematic
randomized
##ulating
recurr
##ectiveness
AL
##trans
degree
compare
conte
composition
iss
##iety
##agon
peripheral
99
##omer
antibiotic
peptide
72
world
mar
wide
thir
problems
repair
curr
distinct
absence
chemotherapy
##ressing
MI
##ique
Br
consistent
##bo
specificity
##oral
chlor
education
exposed
evolution
##rem
##MR
##oz
##imens
recorded
nor
effectiveness
52
embry
47
##eling
mainly
spati
##ering
designed
##ophil
##utaneous
conn
##anol
simple
carried
quantitative
component
##otid
##hood
##naire
Fe
##otypes
##ret
##oding
modified
reproduc
administered
##reatment
limit
attention
##tib
##ergic
Sur
course
pancre
##esized
contribute
birth
bacteria
##duce
magnetic
calcium
dimension
ill
genome
Sp
sulf
internal
67
##uter
nm
miR
##ense
ant
uptake
developing
glut
##tively
quantif
##inated
objective
MRI
frag
causes
##ool
chromos
cycl
medium
Stud
tempor
adoles
myocard
##orting
##rix
materials
NO
images
maximum
##NS
identification
whole
56
PS
HS
Addition
SP
indicating
pig
variation
Pr
viral
##ogenous
54
introduc
predicted
promising
pair
##roscopic
ped
source
doses
traum
nuclear
bu
thick
acqu
las
soil
##know
PI
##eti
irr
therefore
having
49
##eral
##atives
opp
categ
var
##atitis
##den
alternative
64
material
reach
trig
53
Data
##other
##olesterol
##ather
wild
##ape
problem
systemic
##11
mutation
##izes
special
##encies
hypertension
alcohol
remov
spe
##oft
transition
marked
eight
motor
grade
##ems
##odium
Na
suscep
fix
ve
##inity
##andid
reviewed
animal
ear
##osa
macroph
##reh
appropriate
generation
sequences
##tif
induction
shows
ME
physiological
##utive
females
##orpor
##orbidity
##sis
prevention
##21
advanced
hybrid
difficult
Compar
necessary
explore
##orith
##rine
##neum
males
interp
perm
Inter
substanti
##amma
tom
upon
Group
intensity
##eve
toxicity
bur
selection
relatively
frequently
85
##inf
##ococc
unique
restric
##mediate
seven
##ories
metal
able
read
color
##ened
algorith
##urb
retrospective
fas
profil
##uary
radiation
tog
biomark
57
together
satisf
Further
58
directly
regulated
51
context
reson
By
liqu
##que
##lished
act
ter
countries
prognosis
global
MC
##ometry
TB
star
consequ
subsequent
##xiety
ES
sci
##obl
##ometric
detail
recently
generated
soft
mamm
matrix
##esity
shif
efficient
wall
err
processing
##asts
refer
63
laboratory
##osts
continuous
polymorph
IF
resour
RA
mechanical
persist
microscopy
##yg
memory
##MT
late
led
recurrence
oxidative
plants
measurement
66
optimal
resolution
##known
##ots
68
Pl
much
susp
bound
intake
ge
unknown
ventricular
ster
amount
trend
endothelial
##iology
little
TNF
incorpor
experiment
famil
RT
96
liquid
reconstr
##isc
##ching
During
selective
barri
62
sem
mitochondrial
full
59
larger
NS
##hydro
dynamics
##activity
compreh
##EM
##rin
##ta
double
isolates
soci
repl
accumulation
##NP
antagon
potentially
unc
##idine
corresponding
##ively
instr
arth
##activ
##obacter
regard
anterior
While
##care
##plicated
odds
occur
published
SS
recru
nanop
73
reference
rob
resection
prospective
ann
##ired
commonly
ATP
invasive
services
reports
AT
interest
profile
last
CC
##itude
##land
subc
Americ
##LI
involvement
##ifically
trad
##OC
epithelial
reducing
divid
completed
##estern
Finally
##LC
diff
##PD
##oration
multiv
profession
diam
authors
##ope
prepared
forms
##ella
terminal
hepat
##ternal
later
##ason
cholesterol
Mul
##ologies
lact
##elines
third
recommend
##ultaneous
view
disp
##rolled
##illary
predictive
half
assays
extent
ED
consumption
Gen
const
prognostic
infants
##ectal
##onia
198
since
adjusted
pneum
stages
diabetic
##ams
transl
##truct
lesion
mutant
intracellular
##ify
##arily
IR
##ycin
degradation
##oglob
associations
regulatory
neural
78
ever
revers
remained
obesity
##tile
placebo
above
CD4
##erative
MT
##AL
##opathy
here
transmission
image
ven
imm
means
way
extrem
longer
percentage
variety
gastric
##ocal
fav
##ecutive
GS
##icle
61
clinically
grad
concern
##BC
yet
mil
investigation
widely
remain
broad
enzymes
##ings
points
##ished
layer
##oprotein
removal
recomb
cruc
strongly
##yth
gender
antic
interview
76
anxiety
alk
mild
though
neurop
heterogene
##ared
squ
reactions
98
spatial
myocardial
solid
74
coli
assist
69
origin
hypothesis
undergoing
##amide
US
cerebral
supplement
##ember
##cers
gamma
sequencing
##ework
##IS
##ula
##ending
##erved
##anes
vaccine
transplantation
##BA
83
##au
inhibitory
dimensional
##aces
majority
must
##use
cho
##elling
chromat
deriv
arterial
##io
prefer
##osing
resonance
##otion
appar
secretion
exist
adhes
##itable
platelet
et
HT
advant
call
mob
roles
conclusion
benefit
receiving
divided
disch
##mentation
comm
Eu
cas
##osite
71
organic
deep
86
targets
aw
Desp
gast
Despite
vas
questionnaire
77
agent
##53
making
contact
88
##pression
##erex
sectional
84
##iton
##aine
hormone
##ortex
Inc
nanopartic
coe
substrate
discover
complexes
##ervical
successfully
##ophag
attrib
gran
tend
##ident
##tering
##NT
lateral
cann
dop
abund
unit
OS
ble
smoking
myel
induce
appears
CF
certain
malignant
maternal
allel
candid
##enic
divers
##outh
Most
##enge
simultaneous
sodium
##tration
tw
93
##pectively
92
spinal
hepatic
eas
ed
targeted
97
PF
ng
##ream
conj
##BS
event
become
##jection
fluorescence
healthcare
predom
fatty
involving
82
protocol
confirm
Overall
87
##pled
antioxid
migration
framework
dynamic
##acr
significance
responsible
##DNA
TR
Cons
##aged
poll
offer
##16
lum
maintain
##iph
##ame
vess
decision
stimulated
Ser
##LR
94
79
##dominal
bond
living
mixed
En
##orrh
bo
challenges
##ynth
##IR
PM
Ag
intestinal
ful
##reshold
##ancer
Three
NF
neurolog
alb
nerv
Gr
89
wound
cath
##ector
morbidity
iron
guidelines
##itr
Jan
product
0001
##inations
##acch
princ
hemat
superior
produce
challenge
relationships
paras
technology
polic
Based
analog
temporal
AF
feed
##venous
##actory
nature
##acement
needs
core
accept
tomography
interf
##ritis
flex
Clinical
Reg
plays
agre
reactive
classification
##alk
aggreg
assemb
##less
neon
subun
They
##oxide
solub
gel
##lo
Additionally
ads
##tility
attenu
address
BMI
inn
past
rou
person
cys
fit
rather
melan
partial
##odynam
employed
statistical
3D
MP
##eta
avoid
##otide
laser
pass
##uv
expected
crucial
phenotype
operation
infer
##phal
##wenty
HB
prostate
CV
##ocl
##RNAs
constit
external
extracellular
sexual
specimens
##EC
pathogenesis
##asia
cytotox
##eli
GA
feas
Four
rot
tetr
ray
Di
fung
##ectivity
weak
auto
rh
anat
Ca2
##ellent
suff
##by
##inus
frequent
manif
##argeting
upper
##13
Ass
asym
nutr
phosphorylation
##itiz
sperm
##arian
aer
Bl
traditional
members
Su
matched
experienced
tel
joint
variants
##ortun
##ontaneous
##seud
kinetic
##22
CM
cortex
urinary
numer
staining
##otrop
##pati
medicine
##group
thyroid
states
manner
taken
vary
marker
cervical
threshold
##obic
##eck
differential
leads
toxic
HF
center
humans
biopsy
around
##ention
construc
Dec
Ins
High
##gramm
##ground
adren
thickness
subt
##ohist
formed
PG
device
eryth
##uls
uncle
##ars
asthm
##crim
81
providing
ste
contribution
posterior
##ET
profiles
occurrence
##aves
metastasis
##arch
existing
label
##dle
##rich
##ucid
bal
currently
dietary
dog
##olip
molecule
##iation
##eletal
SA
CB
unclear
##gin
##most
benefits
safe
affinity
highlight
prediction
adip
January
##rog
fluor
accurate
pyr
occurs
##ench
Cr
impairment
gastro
requires
Cu
tract
musc
find
excellent
##osc
Sim
##OD
NP
##itively
Anal
variable
aspects
comparable
prolong
atr
haz
fund
##ean
##ject
therapies
##itary
transform
oil
space
alterations
##any
curve
Sh
comprehensive
sources
collagen
pediatric
emph
##rot
bios
optical
##ico
targeting
emb
slow
she
direction
##olved
##ii
OH
##IP
Af
##herence
T2
##ats
BP
obtain
document
NH
practic
concept
altered
orth
aortic
thor
##ema
compr
clos
located
BC
theory
enrolled
abdominal
##apl
ratios
perception
now
defin
programs
##robl
nine
irradi
neuronal
pathological
root
recommended
91
anesth
spontaneous
##ogenetic
##uch
##igen
base
##cents
costs
##ori
elements
olig
##tibility
spectrum
relation
LC
##ealing
##akes
white
diameter
discrim
eye
generally
##fl
logistic
##itin
implementation
##isation
force
radical
final
overex
wave
##arin
ultrasound
vitamin
fully
diversity
##onucle
Europ
hazard
micros
ves
recognition
##esia
enrich
estimate
##aring
adapt
cancers
Acc
##orter
particles
polar
cultures
extraction
##ytes
Es
synthesized
IFN
DS
impaired
towards
fo
##apping
LV
fetal
allows
##adder
deficiency
##uts
domains
##derly
residues
protective
H2
rev
analyze
ligand
channel
achieve
elucid
Per
consecutive
tools
##icrob
##ophys
spectroscopy
##EG
##oxy
nanoparticles
HA
improving
emotion
gre
sed
implications
ens
##ectin
promote
every
rib
specifically
behavioral
norm
throughout
inser
##elf
haem
oxide
complement
fed
absorption
mode
assign
ow
antim
IgG
leg
manifest
kn
abnormalities
gest
Trans
graft
signals
industr
hydrogen
chromatography
independ
meta
##to
pancreatic
inst
SR
morphology
lys
trauma
attem
variability
##osin
agon
media
promoter
##ubation
##bal
constant
turn
database
##ili
##asal
dil
desp
propose
onc
ure
##HD
TC
account
Mean
hypox
analysed
algorithm
AU
microg
##ps
macrophages
therm
deliver
effectively
Re
##ict
aims
behaviour
##alian
reconstruction
Partic
school
##titud
make
AA
##immun
##isp
despite
##18
##iral
DM
basal
recip
slight
kne
##ronch
eyes
explored
##14
predominant
##itals
rapidly
Afric
adequ
elderly
diverse
adolescents
proxim
GC
##inate
China
##olytic
operative
descrip
##way
Chinese
##ids
RR
heat
##ients
compl
##osomal
psychological
usually
elim
Zn
##HC
beli
institution
##version
preoperative
PL
randomly
##ancies
From
rich
##wide
##DM
UV
##GFR
fracture
illness
medication
units
peptides
##apa
iso
TS
arch
chol
trigg
Compared
##ervation
##imer
antioxidant
issues
validated
computed
summar
Ab
stabil
cultured
Bi
##poc
fibrosis
focused
plus
##mental
##OP
NA
devices
##oscopic
bleeding
exch
asthma
pand
biomarkers
coord
fish
location
distance
##ounts
retin
tumour
biochemical
defects
fusion
##ocar
##ylated
##HR
##MC
##irect
respect
accel
burden
positively
obstr
spectrom
hosp
serious
injuries
##eds
recurrent
behaviors
##acchar
##ulatory
robust
communication
conver
phenomen
##US
intravenous
##Ds
progress
##ives
subtyp
##lerosis
agreement
##pocamp
DR
Ne
por
##teen
enter
exce
conclude
##stream
potent
benz
carri
bind
##hythm
emergency
clinic
indicates
fast
oxidation
ech
suitable
subgroup
PK
middle
wors
##icles
extracted
##EP
Six
##ie
signs
##angu
families
SN
perceived
until
##ills
##apse
AN
blot
tolerance
##Cl
HD
enti
MA
Hospital
susceptibility
##abb
##amic
vel
epis
transf
##rophy
##15
cut
opportun
Sever
almost
##organ
AM
another
##ades
##FA
perf
##OL
GP
##rophil
##itative
cortical
2019
excess
programm
##elium
El
histological
SL
motion
cereb
##VA
Twenty
polymerase
Scale
##IN
Conc
##asty
regen
epidem
protection
band
numbers
depth
cord
growing
risks
basic
##aptic
infarc
presentation
##onin
Nor
classified
06
pandemic
determination
urine
hydroxy
IP
TA
noted
National
theore
practices
Since
metabolites
nursing
He
fin
Em
thermal
New
neck
showing
metastatic
##Es
##osine
##tre
ovarian
phosphate
DC
##omatic
far
networks
American
VE
##23
orient
defic
membranes
minutes
accomp
upreg
minor
reliable
nam
physicians
##17
uns
##arv
dental
##thers
##HA
invasion
Or
electronic
spl
neutral
##thal
##let
CL
donor
occup
##azole
infil
repeated
##ialysis
##try
2020
discharge
##aryng
##oscopy
hippocamp
gain
acetyl
##ician
##ilep
multivariate
immunohist
complication
working
##ocation
HCC
##ologous
chromosome
FA
genomic
primarily
movement
##orage
##used
independently
##tics
##iform
##olysis
Meth
milk
##we
SAR
##ogens
hospitals
understood
predictors
##ococcus
varied
mill
##undred
Thir
fibrobl
##19
tri
preparation
veloc
IS
##osomes
angle
##vent
##urg
completely
synthetic
cav
##imen
commerc
##allel
##itus
appeared
##itudinal
ischemic
CSF
adhesion
##ises
##ancing
distal
knee
interfer
hundred
beneficial
United
immunos
records
##anial
##ercul
ra
close
infusion
ty
intermediate
neph
##BD
developmental
aud
insights
his
venti
choice
Gl
extensive
##back
##icrobial
##osal
##TA
cytokines
bronch
##iffer
##ged
##cem
datas
microbial
engine
##eless
morphological
##tenance
##uit
accompan
Particip
admission
Cd
##apan
observations
healing
div
##enter
ana
resources
comparing
purified
service
nucleus
recombinant
element
marrow
transcript
##ban
face
routine
microbi
Dep
whose
knock
ranged
prolonged
sampling
substantial
##cal
delayed
nurses
Western
largely
electroph
rs
put
economic
amb
below
##gans
coupled
##ica
##anth
##hing
##IC
##yle
##artment
vaccination
##odynamic
##ike
##GA
dogs
prem
date
##tious
others
##ester
##ochemistry
fractures
endogenous
affecting
##certain
##fact
du
lapa
CY
##patient
necrosis
smaller
feeding
assum
##inking
##uting
mM
CE
##umab
parents
rabb
personal
lymphocytes
Bec
07
##opic
EP
articles
presents
pal
settings
pan
##rophic
##habil
typical
stimuli
##ibly
##iaz
Japan
nitrogen
##enyl
shape
maintenance
influenced
pa
pathology
##oked
PET
##aria
surge
earl
facilitate
##ods
interv
TP
nervous
correct
tail
##letion
pneumonia
nod
##actic
polyp
dominant
##ophage
matter
LPS
opi
nons
##idal
inclusion
##lyc
##ra
volun
represents
Recent
storage
bilateral
##zed
##omat
height
fron
national
Sev
##ipl
shift
tex
500
initiation
cytoplasm
spread
##thern
observation
TGF
##ament
PV
##part
contained
##anding
ions
intensive
Is
added
error
adjust
variations
channels
Several
##intestinal
neurological
satisfaction
seiz
##itted
counter
what
node
pen
intern
##ea
genotype
##Ms
recognized
08
diffusion
except
possibility
##aline
threat
##OX
hepatitis
##ump
##ologists
##tingu
Spec
Und
marg
bladder
closely
blind
##ignific
##ontin
solutions
##ware
##acer
##ione
retinal
venous
minimal
fiber
emp
##itoneal
perme
##TS
December
affects
transcriptional
cis
balance
integrated
##east
suppress
Sch
LA
eti
exclud
distr
cover
ben
##urys
Treatment
caro
ischemia
seems
langu
##oglobin
##Is
exchange
tun
vac
coefficient
periods
##ested
Participants
fall
questions
vul
##ches
CK
infarction
done
regional
ather
emission
bias
workers
recommendations
presenting
Because
progressive
sufficient
parallel
distingu
decline
dele
hab
intervals
##enes
##gue
goal
probably
##lycer
##olecular
Be
gradi
regular
##ows
##ocomp
##osterone
attach
replication
acceler
##atur
##isions
invers
illus
##A1
amyl
Ev
##operatively
acquired
##issions
precurs
supported
modification
##ivalent
##habilitation
apparent
dual
characterization
##treated
adop
mol
FD
##oxyl
stay
extended
pregnant
Exper
##econd
##otal
refr
segment
##cribed
aging
##man
##ota
##ifications
replacement
Pub
graf
germ
neutrophil
##oline
##uvant
spectrometry
platform
experiences
##ardi
##TR
##enia
University
##ignificant
DA
nucleotide
ker
vag
adsorption
Met
feature
maintained
hemorrh
Only
endom
##ocarcin
##leuk
microM
favor
variant
##BL
localization
mach
hydroph
demonstrates
##enchym
subject
##ostasis
conjug
displayed
##iment
##treatment
degen
bran
antibiotics
ranging
occurring
phyl
Par
partially
epilep
driven
actin
MAP
##ners
Immun
poorly
benign
##avirus
verte
serve
break
soluble
estimates
reason
composite
##RS
reliability
newly
proximal
cluster
##mitted
deficient
gastrointestinal
assigned
##water
organization
##hal
pool
##ectious
waste
collection
ten
##activation
##genic
States
correlations
theoretical
##ozyg
shock
databases
intact
##ectives
teach
urban
consequences
ID
attr
neonatal
Fr
background
##amination
SE
arm
corn
validation
MMP
exer
gut
##esh
thereby
noise
conversion
longitudinal
cortic
emotional
##pro
plastic
retrospectively
##ophageal
computer
##umn
speed
##omics
separation
limb
uter
##erculosis
recruited
pathogen
sensory
catheter
green
transient
possess
T1
##atif
worldwide
##entia
reverse
##min
identifying
##aries
IGF
probe
AI
##ocrine
##down
childhood
##urine
contain
##LP
##ynthesis
SARS
disturb
ethn
native
##ypt
regulate
qualitative
adherence
enhancement
##athy
tit
p53
subunit
dispers
run
CN
ethanol
CoV
##B1
introduced
regulating
##illance
##angl
limitations
plan
princip
##avage
09
##kin
encoding
illustr
constructed
Comp
negatively
failed
simulation
irradiation
Pol
μg
axis
##rec
valuable
##acial
validity
detailed
##ience
circum
##ooth
Study
treating
mutants
markedly
interpret
bul
300
##ton
utilized
crystall
ROS
language
example
suppressed
describes
deaths
sensor
characterize
graph
##izations
schiz
EM
SF
lowest
##cher
velocity
derivatives
##rous
controlling
##elv
pseud
##SD
colorectal
localized
##others
users
efforts
##igible
congen
suppression
cytokine
attitud
antimicrobial
decreases
##ring
producing
demographic
##acted
##ilateral
atom
count
challenging
##abric
System
expressing
spin
crystal
dors
skeletal
vein
reporting
scanning
caps
°C
allowed
##anine
##uctive
##RT
##rocytes
fixed
##rel
fill
ane
younger
HPV
persistent
explain
thorac
comput
barrier
##po
anth
reproductive
return
relax
check
catalytic
ET
##otomy
tyros
##electr
modeling
indirect
staff
rise
remaining
##leukin
##BM
Rep
##ways
##ime
adequate
##entific
competi
earlier
utilization
conserved
viability
surfaces
metastases
magnitude
##otypic
traits
##lusions
residual
died
policy
inters
##ophren
According
assessing
extracts
##ensions
ground
amounts
DE
BD
planning
seem
impl
##Fs
cannot
particle
Col
sten
labeled
aneurys
##ellar
##ecal
##ah
infr
##uff
CD8
receive
##ulum
##asons
pharmacological
##igm
##70
Hy
admitted
expans
##ohy
##bar
2016
heterogeneity
HCV
kD
##oman
atrial
antig
measuring
Previous
Sub
probability
##acting
LD
Intr
concluded
biof
accompanied
hydroly
Analysis
operating
smooth
##LD
injected
##illus
rehabilitation
skills
##point
2018
latter
thym
radiotherapy
spectra
CYP
DP
organs
consisted
pack
cycles
120
##iciently
practical
ELI
##ensus
sustained
##25
slightly
##rium
Sm
##edic
simulations
##38
##abilities
psychiatric
AK
##queous
called
swit
BR
documented
varying
methylation
nutri
coupling
shap
seed
##ovirus
2015
PH
Inf
Mod
delay
##rief
valve
clim
whom
HLA
Some
online
##itant
centr
Child
clar
defect
barriers
##ociation
2017
predicting
##abor
cul
SI
organisms
suic
NK
Follow
##iness
##transfer
##avy
maximal
##amb
viruses
##opathological
persons
simultaneously
Hg
ring
##osity
dementia
vector
##upp
candidate
original
##avel
communities
Medical
NC
cytos
coding
functioning
European
##err
foll
numerous
loop
fibers
dos
substrates
##okinetic
SM
salt
infectious
assembly
gover
interviews
obese
##oblast
fabric
##oside
Research
emerging
##30
airway
sinus
stratif
##40
includes
lob
antagonist
2010
charge
transformation
determining
nitr
Str
assisted
##ements
##ogram
Cont
mothers
software
derm
##urally
leukemia
capable
##SS
promoting
generate
availability
allele
LDL
reached
##dehy
socio
directed
pathogens
contains
2000
RP
##oin
schizophren
retention
standardized
parent
antigens
cad
##insic
ELISA
egg
kinetics
influenz
advantages
##OM
perc
##ED
Jun
output
##TC
elic
radio
aqueous
##ichia
150
den
investigations
reper
clearly
##estic
South
overexpression
AUC
rural
clon
gland
hour
autoimmun
lymphoma
vessels
##appa
Mic
##eptide
modulation
##bre
surviv
substit
shorter
##ystolic
disability
implantation
Intern
##entical
##oclonal
muscles
port
dy
perfusion
##icin
##alpha
##ocardi
NMR
TM
chest
dependence
considerable
issue
uncertain
mim
induces
chick
##tible
##K1
equal
conform
##ycl
##cephal
albumin
##eting
volt
minimum
Differ
depressive
mand
tuberculosis
reflect
improvements
immunity
fibr
##aemia
##nel
##owel
microgram
##atid
Rh
decl
##emical
ethyl
applic
pla
mineral
multid
melanoma
##axis
Au
pathophys
accoun
fields
evaluating
increasingly
gli
##ifying
CO2
transduc
##GS
##ai
centers
scientific
myc
leaf
Post
##weight
column
2D
SH
belong
taking
Eng
GH
subjected
contraction
Austr
Hb
flav
bat
##itory
distributed
##cl
abundance
##atase
##illin
thi
aspir
tax
##acin
##ilarly
Dr
buil
##acet
Many
##time
##aper
##areness
##GE
causing
##Ns
thin
mis
Not
##anded
End
##27
identical
temperatures
##tition
##ilities
income
DF
##amate
emphas
multic
subsequently
##ze
miss
saline
fresh
careg
##iveness
sustain
interleukin
steps
placed
fixation
interface
##rup
enab
changed
track
kill
thought
##alities
heavy
tasks
bov
FS
symptomatic
hearing
clusters
##sin
proph
fragment
pathogenic
RS
amplitude
explained
options
mostly
##24
OA
wr
indicators
possibly
hypoxia
frequencies
##luores
expansion
lipoprotein
##aphyl
##oidal
parameter
##odon
contrac
ru
inher
Se
AB
RF
kDa
##ocarcinoma
move
utility
##olute
surround
advances
display
Cell
VEGF
##oon
attenuated
##mediately
AMP
electrical
transpor
involves
##ury
##come
Thirty
gap
atherosc
variance
rhe
deposition
FT
pelv
##opo
aid
##IA
tyrosine
depending
gold
commercial
mammalian
##umor
phases
surveillance
mell
##omical
Del
integration
##antum
##ias
arti
aug
pulse
repeat
gir
attemp
clearance
professionals
environments
categories
congenital
walk
##biqu
Incre
##mark
##T1
attributed
##LS
nasal
prevalent
house
2014
implemented
isolation
##iance
pairs
feedback
##elim
overl
max
##urance
##wise
##rh
residents
systolic
##ematic
rank
Escher
ple
reduces
appearance
autophag
entire
diges
##ruption
feasibility
manip
insight
implicated
##arth
room
professional
Escherichia
125
yeast
hard
##term
circulating
suspected
junction
stimulus
hair
##ls
##oved
plate
##ptomatic
##acent
##atigue
##Vs
scaff
draw
monoclonal
##ensis
substance
diast
##plasia
##NC
##ysacchar
scan
##rotein
digital
##otropic
compet
TE
homeostasis
polymorphism
##alc
##ady
foot
##arcoma
##60
referred
##omitant
distress
##IF
inoc
fluorescent
align
sets
dehydro
bis
##tial
guide
volunte
Out
equivalent
ket
clinicians
arthritis
##lux
DD
Ti
##enin
gradient
dry
composed
TH
Mg
Studies
PO
predictor
trends
##born
2021
restricted
az
recording
removed
Ep
stenosis
##umul
##pass
version
actions
femoral
separate
nodes
##ensin
##ait
compart
expect
Qu
vide
consisting
proved
methodology
advantage
GF
contamin
arteries
##ging
##beta
Sal
correction
influenza
requiring
##oic
ligands
deletion
phenyl
002
##acing
downreg
2012
ICU
loading
bowel
Hum
##amental
analges
Significant
##rose
mellitus
hex
rout
EB
2013
medications
phenomenon
offers
##pase
items
initially
##wh
Ni
##34
providers
screened
ubiqu
Second
##olin
once
1000
SU
technologies
adaptation
##57
MB
duct
decomp
agonist
Non
prophyl
own
##CLC
mixture
##ophosph
immediately
discovery
##ariable
educational
typically
Can
Multi
supplementation
awareness
forming
##yan
##exp
nutritional
remark
option
cartil
modul
Neu
##dehyde
predominantly
##rane
400
tube
endoscopic
biology
Hist
##aced
##ontal
anesthesia
granul
##anged
##enchymal
discre
seek
live
govern
##ears
##cul
SV
outs
3H
curves
Herein
cyst
observational
##agement
encoun
##Hg
Five
Cox
scaffold
aure
##oag
guided
Dis
achiev
##PR
##transferase
##eget
AV
limits
##uria
decreasing
cytotoxic
concerns
phenotypes
197
reactivity
excre
emerged
protocols
##enol
visits
fractions
Phys
extremely
researchers
monitored
dend
microm
Le
susceptible
Mn
medial
gal
##oded
##omers
##ademic
aggregation
ulcer
instrument
concerning
conduct
take
##osome
murine
zinc
schizophrenia
##ache
errors
scal
##acco
unf
asc
fibroblasts
opioid
resource
##enari
viol
##ocytic
impacts
comorbid
Si
hospitalization
physician
highlights
incubation
aureus
##ought
Such
adaptive
##inger
zone
absolute
released
heterogeneous
lacking
woman
quantum
m2
pil
Cancer
peroxid
indices
regeneration
film
contributes
##aryngeal
##ayer
##aceu
##ohydr
##PC
buff
biofil
retro
##gar
sections
##angi
none
carotid
autoimmune
distinguish
echocardi
perspective
motif
##emat
##isition
team
##ifer
remod
analytical
scat
##itect
##bl
categor
cultiv
easily
immediate
mature
dopamine
parad
##omycin
GABA
veh
Methods
ast
adjacent
fewer
##sp
veget
2011
African
cytotoxicity
extension
##ipp
identi
metall
##elihood
depends
##OH
supr
trim
glomer
cataly
fatigue
Each
motiv
participation
pharmacokinetic
synaptic
reviews
##chron
polymorphisms
prevented
##otr
apoptotic
structured
ventilation
sought
Plasm
next
CRC
LT
##ister
bovine
##vascular
ages
insertion
Sw
precise
rar
##heimer
enhancing
March
GR
##ensively
greatly
definition
fundamental
artificial
##90
##mol
define
text
cDNA
calculations
##O3
isoform
Alz
enriched
##onas
gangl
Ap
hypothesized
coverage
BA
list
##equently
facial
concomitant
regimen
glycos
occlusion
##isons
saliv
Rev
vessel
Subs
LS
input
estrogen
breat
asymm
brief
weighted
fever
##EF
##ocytosis
mobility
deficits
vulner
express
Also
sepsis
translation
glycop
##olding
undert
scenari
recipients
CG
consensus
promoted
##amatic
bey
adjuvant
dimin
Fif
whe
##ono
##essions
layers
beyond
acquisition
##Rs
##ina
Alzheimer
retri
kappa
Medic
sti
NAD
created
comparative
intrinsic
infant
amyloid
donors
##ude
##uments
supporting
requirements
##estingly
nearly
epilepsy
2009
##amus
differentiated
Mo
reasons
cyclic
gon
drinking
##athione
##teine
influences
June
sizes
vaccines
contents
Hep
prosth
dramatic
##ued
inferior
puls
##idin
lens
substitution
recovered
synerg
participated
##opor
vital
complexity
##lets
bp
##actor
immunosupp
continued
asymptomatic
First
##eliminary
spectral
untreated
determin
embryos
penetr
classes
recruit
TLR
cavity
counts
adjustment
relapse
segments
nonc
##ibration
laparoscopic
virt
feasible
fragments
yielded
##rept
##uous
survivors
cartilage
##osystem
progen
##itol
respondents
Recently
##oli
aggressive
HE
harm
##Med
innov
##nea
ps
favorable
stere
DO
##oming
delivered
always
estimation
begin
##umulative
##luor
give
anomal
##aires
preventing
##oor
enzymatic
elevation
epithelium
##chemical
HM
NT
IQ
mitochondria
If
pigs
episodes
dehydrogen
CNS
likelihood
##ochrome
##28
Ob
##amous
PB
##naires
bile
##obil
farm
##yte
cold
##ley
immunore
config
microbiota
##ready
ensure
##des
spine
became
fet
optimized
modifications
mmol
burn
bypass
##Gs
##ilib
inhibiting
fungal
##ads
##nia
##AMP
##IT
rod
twice
introduction
precision
Ma
electrode
##IL
genotypes
Following
mapping
delta
leaves
word
hr
department
Eight
putative
decades
##agnetic
tob
##26
manifestations
App
biosynthesis
cardiomy
Human
phospholip
biomarker
strom
Ang
already
cond
differed
##ilibrium
namely
pall
obstruction
abundant
detecting
phyt
considering
bearing
assessments
warr
Serum
infiltration
voltage
##avi
simulated
Index
remission
##ND
##osens
sulfate
##inson
embryonic
##lycem
scales
dorsal
##aints
##ections
MM
##ette
##enop
##empor
tobacco
##uly
blocked
May
##going
hybridization
hemorrhage
Surg
NPs
maintaining
compens
films
implants
newborn
downstream
allowing
micrograms
teeth
arom
placement
ablation
##ivariate
kind
##vas
maturation
##itor
worse
##oplastic
trained
Typ
005
terti
beam
adenocarcinoma
##lip
##cill
Surve
##oxic
##espread
TF
steroid
sn
subtypes
solvent
##break
Interestingly
caspase
separated
dex
HDL
##linical
##hydr
academic
construct
advance
##anted
UC
photo
volunteers
inducing
annual
fibrin
virul
##veolar
nutrition
##acterial
array
PubMed
proven
TT
ms
##itig
relevance
Germ
deviation
##pler
differentially
inhibits
land
##ibrary
autom
searched
##sies
grown
glutathione
excluded
proton
iod
ongoing
prescrip
tumours
##zyme
##plete
computational
Dise
interc
substances
machine
attitudes
pert
international
OP
##oresis
decisions
lymphocyte
COPD
orb
uses
angiography
rheum
pure
locus
##oplasty
evoked
member
subcutaneous
py
traumatic
##tead
supports
schem
##ulties
dimensions
empir
potentials
macrophage
architect
restriction
Fort
2008
enable
summary
##path
parts
HBV
##ituitary
##ectors
NR
deb
selectivity
pretreatment
technical
diastolic
E2
accurately
CX
##O4
rating
synthase
arrest
##adian
widespread
Min
cleavage
##bor
offs
coc
Os
existence
sple
stent
##iplinary
##draw
outbreak
##aving
##tructure
copper
substantially
##ulmonary
precursor
##iologic
##As
Gu
##uity
malignancy
##rovers
EEG
Mon
classical
autophagy
##luorescence
EGFR
mmHg
DH
##max
##anic
improves
OC
quantified
##ote
orientation
identity
gestational
correspond
abuse
##ritic
reinf
##mented
etiology
##oL
smokers
##aturation
NE
##ysts
reversed
engineering
TG
ocular
##acillus
precip
##aster
elucidate
chains
pelvic
ML
##onate
##opathic
relaxation
habit
loci
acting
black
ju
denti
subjective
uniform
De
mucosa
oscill
##ma
subset
million
hydr
cirrh
##HO
##raction
##for
shared
initiated
examinations
combinations
Assess
detectable
##eses
sensitiz
lumbar
regardless
##DS
##inflamm
lipids
acetate
retic
true
Coll
Long
##ana
mening
Rel
Their
permeability
trop
leak
focal
rig
carbohydr
reperfusion
semi
miRNAs
limiting
##titis
climate
promin
##Bs
blue
ecological
dialysis
##uation
##assium
sched
thrombosis
##oxin
questionnaires
transgenic
corneal
positions
##otensin
Under
##ozygous
practition
##rown
parental
algorithms
##opol
genus
Park
mA
##amer
##OF
##atinine
similarity
003
si
injections
Oct
quin
intrac
##29
##anned
ones
mitig
exhibits
reveals
pump
evident
##mic
sensing
aberr
coag
tib
malaria
neurot
eosin
glycoprotein
##rospective
##3K
correlate
##80
nico
hemoglobin
quad
Op
fa
representative
quantify
squamous
glutamate
sessions
hydrog
anatomical
dehydrogenase
withdraw
start
scans
phylogenetic
controvers
##urity
Forty
##atile
attack
##ani
surrounding
dro
cytoplasmic
rupt
##arrow
cry
pituitary
performing
evolutionary
Ir
largest
demonstrating
##degen
My
MV
thoracic
##ventive
##ufact
NSCLC
glass
##igar
##phosph
##tor
movements
formal
tertiary
inner
cytometry
##ash
adrenal
starting
incorporation
##eed
compression
##usions
Soci
interact
nuclei
residue
efficiently
GM
Eff
exclus
##omb
intell
jud
cumulative
screen
##load
interpretation
undertaken
Other
##ffici
nitric
fals
discontin
creatinine
ath
##gi
##65
##oglyc
##ighting
ask
infrared
stiff
complicated
determinants
difficulties
excit
optimization
alle
compliance
responsive
excretion
acceptable
monitor
born
unch
upregulated
Apr
ii
author
International
Prim
pyl
##astom
never
##azol
pp
lactate
eligible
##NK
SB
unl
##apped
##adily
##unced
mucosal
quantification
##acerb
##ensities
systematically
consistently
AG
entry
##itting
##acranial
##plex
sup
Arab
2007
vesicles
2005
bodies
##auc
uncom
ways
UK
transm
overview
C3
panel
spleen
discrimination
potassium
Bet
toxin
neurodegen
##atidyl
outpatient
country
##off
supply
##fficients
square
Pb
carriers
##idase
Int
##ograft
project
ultim
CRP
phosphatase
amplification
chloride
timing
##ception
overcome
contributing
speech
preterm
brid
##inter
epit
Vari
##eded
##omonas
ammon
rarely
exacerb
locations
antis
##iples
makes
changing
neigh
trip
##aden
interferon
April
##gal
partners
disruption
##iae
resolved
splic
##IDS
degeneration
recruitment
visit
North
Coch
industry
Ques
intraoperative
immobil
race
##ospor
encour
regulates
LH
nM
exact
diagnoses
##ausal
integrity
Children
priv
biopsies
yields
Qual
cutaneous
##DP
ester
LR
##ropl
O2
coefficients
##theless
seizures
preferred
symm
L1
##ry
##Ts
manufact
cAMP
immunohistochemistry
##NPs
##isciplinary
##tes
##jects
focusing
lost
accom
##atib
Multiv
esophageal
frontal
lep
auditory
chond
consists
conflic
Braz
dataset
2006
hippocampus
represented
##adiol
flap
rice
depletion
exists
cohorts
faster
Due
aort
2022
BM
prospectively
Early
##ulose
addressed
interference
Car
July
embol
##N1
unus
LP
Patient
##ylate
##elled
principles
##ils
teaching
CKD
Li
phenotypic
aneurysm
actual
bot
vaginal
careful
cation
promotes
lifest
circulation
plasmid
RV
aqu
S1
antit
uterine
##aum
MG
gestation
household
wind
extra
##ded
spher
subgroups
##aturated
gall
tooth
epidemiological
cytochrome
guidance
SW
stronger
confound
closure
prono
contamination
##embr
itself
leth
RCT
Mal
girls
xen
##P1
##ends
discovered
ect
STAT
pronounced
inhal
##istent
refractory
cigar
Japanese
CAD
##mod
combining
##tisol
expressions
capture
embed
##ided
##ietic
consult
exogenous
vision
##ibular
##iction
Brazil
hypothal
flux
enables
false
deter
##ubated
urg
##rotic
opportunities
couns
representing
mess
##ogether
antiv
synergistic
situation
##osocial
##etrial
κB
remodeling
drain
angiotensin
cham
eating
##inating
industrial
instability
registered
pollution
cla
meaning
create
outer
rabbit
subunits
demand
constitu
preliminary
TI
volumes
##utr
estr
fu
allergic
##ober
candidates
Hz
visible
indicator
Man
##alling
chromatin
allevi
epigen
contributed
fine
##imental
operated
vehicle
Blood
##zing
dip
transcripts
nutrient
##°C
##ordance
EF
fist
##unt
regimens
reinfor
EA
Dop
Care
finger
atyp
mer
dissection
comparisons
Given
diarr
##atch
##ophilic
preparations
outside
conserv
##environ
BS
CVD
surgeons
##iasis
lamin
HO
Resp
##ife
##usc
hippocampal
insp
Statis
##ionic
##tors
##versely
approved
greatest
fluct
##kle
##entricular
neither
Fl
##H2
sera
stom
Ak
plaque
modulate
##oad
##ysaccharide
bulk
rotation
modes
carcinomas
##electric
Then
modalities
parasite
immunoglob
deform
proportional
##R1
comprised
narrow
biomass
neoplasm
DL
bor
adjusting
argin
adipose
##ME
plane
steady
youth
metals
univers
diets
traject
immunod
dosage
HER
thal
gave
ball
nano
##ocellular
om
fasting
western
coated
##cape
shaped
indications
absent
Ret
##pring
250
electrophoresis
##ameth
Question
fetus
##ush
##azine
Taken
perceptions
adolescent
equation
regulator
deterior
SEM
##atibility
crop
##irc
adenosine
bip
triglycer
closed
exception
microenviron
tau
Up
##opoietic
occupational
reading
tree
war
suicide
obst
wet
hydrophobic
fruit
##ero
secret
labeling
Myc
upd
powerful
obvious
comprom
hapl
##ozo
involve
carrier
##uits
sound
diffuse
mono
##graph
##ders
effort
vertebr
incorporated
raised
##vel
ent
onto
standards
##yster
brom
percutaneous
##osm
resting
##isk
participate
enrichment
spp
mother
season
mesenchymal
Cochrane
##ofl
##TE
Control
pilot
pharmaceu
HPLC
##lem
##F1
##phrine
##54
formulation
Organ
homogene
edema
subtype
##ocular
hydroxyl
datasets
Type
Primary
translocation
angiogenesis
ecosystem
quar
serot
##arged
Sept
excision
loaded
jo
Africa
##choline
managed
map
##ocortic
dihydro
##ometer
##hea
follows
easy
Function
absorb
distributions
attachment
##tt
##dep
##tures
##eptive
##ato
Its
alleles
Multiple
prominent
unilateral
coating
hydrolysis
beginning
modern
fibrill
silic
##phthal
protease
facilities
reductions
metabolite
learn
##oyl
see
inactivation
mast
##rocyte
consideration
##platin
##opes
isot
wear
##RD
equilibrium
anticoag
depos
testosterone
Assessment
fertil
##olate
walking
corrected
item
redox
pooled
004
harv
##uron
negl
elimination
WT
mT
##rought
sul
anastom
drop
hypertensive
traff
pren
##CS
##flow
route
studying
science
Radi
experimentally
sclerosis
forces
pg
TK
critically
driving
##pecific
##ediatric
vic
caregivers
protect
2004
##esides
intes
viable
achieving
adapted
perman
incident
disapp
scar
Cal
Parkinson
##inn
##amycin
pent
##roduce
hormones
pylori
idi
##uncture
stimulating
##EA
larv
correlates
abol
SG
video
##economic
hyd
lifestyle
activating
##rene
##sh
##atible
Aug
miRNA
coordination
monol
statistics
ideal
incom
generalized
##ynthetic
##aceae
amel
diverg
peritoneal
##III
transfusion
dispar
##Ls
bonds
mobile
comorbidities
atherosclerosis
malignancies
##ocon
rabbits
postoperatively
##ofluorescence
preventive
accep
amph
Des
##MO
width
##ada
preference
##rof
selectively
embryo
September
aver
fatal
chi
synchron
TN
English
utilizing
##fort
Pseud
##onuclear
Cor
explan
##yb
bed
dich
QT
pathophysiology
Gy
IU
electroc
anaesth
dimethyl
prescribed
encoded
##vasive
##antly
lith
##fold
needle
anemia
##urrently
shell
##adic
virulence
capillary
arrhythm
interpre
Ten
Clin
PEG
Ul
verified
##37
grafts
October
##ional
postn
##iod
attempt
colony
##EV
##orbent
prep
policies
SNPs
respective
Instit
MF
##ks
Kore
wa
cortisol
##HS
validate
Meas
disrup
biofilm
fore
complementary
somatic
epigenetic
##avelength
sugges
molar
cov
cultural
automated
Exp
##otides
rejection
nanos
Total
##itic
intracranial
ze
##orous
stiffness
reversible
##outhern
tolerated
optic
influencing
##ufficient
stop
##ricult
immuno
roots
##nc
probes
Staphyl
vertical
overweight
flexible
##adequ
unusual
Disease
principal
Red
encephal
agricult
offspring
dissem
visc
##linear
portion
Never
rectal
osteopor
ionic
rhythm
##yll
##ools
##epine
explo
dur
##izumab
##quin
##HL
pic
mom
microorgan
overexp
DT
signalling
##vis
Er
μM
##RA
##oriz
antagonists
##ortions
unchanged
##ensitivity
FF
electrochemical
psychosocial
radiological
alkaline
AIDS
consequence
##DI
heparin
Pt
accounted
##pathetic
innate
ATPase
dark
##ert
##ocr
readily
decade
##pert
##35
motility
##ee
microscopic
suffering
tension
Arg
sediment
potenti
Nevertheless
hospitalized
Society
##obacterium
atypical
bic
##embrane
##ographs
cirrhosis
immunotherapy
investigating
infiltr
Low
binds
##uctase
pip
Future
excessive
##sw
inside
fear
endocrine
IQR
antip
μm
pow
clones
P4
depr
##plicit
knockdown
replic
foods
MDA
IA
hors
category
##keletal
acts
metric
##osan
IT
##atum
##asic
##avail
180
applying
obstructive
##GT
continue
##E2
started
propag
histor
##otoxin
rheumat
scattering
##oxygen
corticoster
operations
surveys
elicited
automatic
difficulty
description
Questionnaire
Doppler
GI
filtration
Ital
alveolar
phag
##LT
MAPK
oct
##icking
agonists
sequential
evid
cystic
descriptive
arg
##pin
histone
building
##agg
antibacterial
Form
anticancer
epidermal
just
fitness
dye
##sA
situations
##lege
empirical
##odal
##anges
##ards
former
PN
cisplatin
##anal
casc
architecture
##PH
##olid
##lands
belief
##NOS
arginine
Hence
discussion
wavelength
cyan
genetically
##ensor
responded
nonin
carrying
postm
##lass
boys
##arp
construction
tab
110
##ostr
mask
##lit
elastic
##otoxicity
##onography
shear
insufficient
NI
ASD
nonlinear
##tructural
conformation
ROC
connectivity
rRNA
microenvironment
##titial
throughput
BB
##OT
1β
engagement
antiviral
predictions
##CP
Fifty
stratified
activator
fir
Staphylococcus
BMD
##iant
tight
considerably
Class
##ierarch
##xy
oxidase
atrophy
inadequ
microscop
socioeconomic
canal
##iol
##uate
carboxyl
##ilic
wheat
Through
##iration
ethnic
law
phosphatidyl
histopathological
activate
##amily
EV
secreted
##iments
##ancial
isolate
##oe
HL
##omorph
glauc
##ophila
##oustic
yr
##36
ren
FI
galact
causal
RNAs
##assay
Det
practitioners
SOD
na
Europe
blocks
##opathology
processed
quick
clarify
##atics
##osures
opportunity
emergence
asked
WHO
Akt
diffraction
VI
electroly
SLE
organism
gradually
superoxide
pac
##emographic
atm
highlighted
ke
conv
spermat
perioperative
comprising
chemistry
endomet
dimer
##romes
##RIS
postnatal
DN
modulated
##otes
##OA
##ukary
endometrial
##chlor
enhances
neutrophils
transduction
sham
##ocking
ACT
harb
fri
India
satisfactory
intestine
##oarth
microgl
2003
Median
##angement
modality
##RP
seizure
multivariable
PAH
triggered
##orp
produces
leuc
##inflammatory
Women
passive
Id
##GC
lungs
referral
homologous
instead
diminished
drainage
acuity
##ino
##openia
enl
Science
rated
##rowth
adopted
##ocatal
##ips
##inder
Between
matching
conven
genomes
competitive
usage
templ
tendon
Survey
immunological
pregnancies
##roplasty
nurse
capability
##ON
##omotor
destr
##encephal
##osus
##agm
examining
fif
horiz
randomised
Current
answ
##times
mediate
helpful
PU
##apt
acidic
##56
##aste
carbohydrate
resc
weekly
Austral
Test
themes
platelets
sugar
August
screw
recombination
deficit
##yclic
Within
stromal
Ram
dL
marine
##related
elong
hold
concurrent
round
trait
withdrawal
##utrition
Import
neurom
VS
##inosa
object
sheep
summarize
obl
##lycemia
##rod
##idity
extensively
anthrop
##odil
vaccin
##isph
##osen
##osyl
Pa
##erge
remarkable
2002
P2
GSH
larvae
##cine
##ping
perturb
Plasma
##aterials
IM
encaps
permanent
COX
##ulus
neuros
##2A
incubated
informed
proliferative
immunohistochemical
accepted
dyst
differentiate
immunoglobulin
FC
##day
##omeric
share
ADHD
shoulder
retained
chromosomal
##abolic
##BI
manual
gonad
NCT
##ians
##cepts
accelerated
gait
session
immunodef
microc
paired
offered
emphasis
IC50
reflex
elucidated
financial
confer
Gram
scheme
plasticity
##onom
microf
trach
premature
dendritic
tended
Asian
goals
aromatic
atoms
##esterone
ND
focuses
tryp
linkage
hypers
projection
##andem
transformed
prenatal
claim
prescription
MSCs
programme
vascul
NMD
##gia
##BG
progesterone
##anger
chromosomes
coronavirus
pi
##inea
ile
##ectable
##iary
Ele
##igation
glycer
minute
polarization
##ocated
numerical
##oxacin
predisp
PKC
embedded
polymers
echocardiography
Similarly
blockade
##opsis
eukary
##elve
amelior
##roz
Comb
implanted
##tives
encountered
atmosph
T3
##oking
excitation
Salmon
portal
##agic
Expression
OCT
transporter
myeloid
prophylaxis
fibrillation
AML
breeding
property
cattle
Chronic
user
examples
##urk
Cardi
rearr
##otyping
forward
##omestic
GD
sarc
##K2
##amil
night
axial
VA
radiographic
TD
##letes
popular
##asone
seeking
opening
PSA
MHC
2001
BAL
MH
posts
##athyroid
disappear
##1A
##lings
##ycline
contributions
cows
PTSD
Aβ
inverse
##opr
lobe
analyzing
##ograms
diph
World
displacement
Bay
sensors
Diagn
pore
aorta
chor
IgA
fungi
##iable
severely
##ococcal
opposite
exposures
occas
jour
600
IBD
##nt
usual
##67
##estim
##yces
vacu
##ora
morphine
lam
##39
rupture
Drug
pay
##C1
microt
Acute
##EN
reporter
stimulate
math
stret
##points
BL
expanded
Protein
bands
##gl
static
lineage
pathologic
Sing
university
Ox
controversial
violence
spor
derivative
5p
connected
topical
paradigm
emissions
antitumor
##uz
apo
patch
gastr
IgE
spr
stained
assumption
har
mutagen
Anti
aerug
mood
##atell
transfected
pollut
conformational
##timal
meet
Sevent
catalyst
EGF
keratin
Cyt
presum
potency
##ectom
##esize
##AM
pup
##mitt
##EL
graphene
##bruary
border
effector
aeruginosa
##±0
atomic
Similar
reag
inducible
February
##elves
chamber
underg
##actant
##ephal
pressures
serotonin
restored
tracking
##aemic
alteration
dissociation
Center
declined
multim
exon
aerobic
##oplasmic
Salmonella
##ofib
threatening
market
microarr
blocking
filter
Back
nom
Bcl
##tism
##iative
photos
microorganisms
cysteine
equip
##olym
##ropathy
PAR
lnc
undergone
discusses
glomerular
Tw
sense
cannab
urea
tandem
##ming
1990
radial
wastewater
hepatocellular
Pe
capt
cloned
##opia
mechanistic
Age
psori
##rile
PI3K
H2O2
##partum
chosen
anaer
consistency
Aut
wt
##oot
neuron
neurodegenerative
ubiquitin
cement
##cious
##ardia
indication
##aint
upregulation
##antic
ultimately
enabled
fluctu
instruments
hierarch
idiopathic
reflected
##akers
headache
concepts
electric
##mia
translational
##eps
Web
##rosp
peer
meeting
monocytes
##pectives
schools
Hisp
naive
uncommon
##G2
##eptides
Specifically
##rox
distinc
edge
requirement
evol
isoforms
ART
hypertrophy
##ologist
##ito
surgeon
completion
believed
estradiol
hemodynamic
##idae
glands
apical
Association
VAS
RB
art
ide
virtual
protected
serine
revision
clean
reductase
pharmaceutical
electrodes
##abs
dermat
noc
hematopoietic
##elin
kinases
##ques
swelling
ECG
Risk
optimize
nodules
exclusively
suppressor
antif
interstitial
GL
insuff
applicable
And
turnover
dramatically
promise
unders
Department
lifetime
contral
biliary
partner
histologic
hepatocytes
shifts
domestic
scoring
##odialysis
bud
buffer
RD
uncertainty
Develop
##ocin
neonates
antidep
communic
circular
T2DM
IgM
defense
ligament
##echanical
lethal
prolifer
contaminated
doub
##osites
##edical
Seven
aspect
##ynaptic
##affected
HU
##iar
##imetry
ADP
covered
##PCR
##oblastoma
alkal
clinics
ankle
##ographical
responsiveness
duod
batter
details
##expected
##grade
perspectives
lands
Conclusion
##vem
latency
esophag
scenarios
linking
##anium
physiology
None
##ometh
BT
##orrel
##orec
abolished
pancreas
forest
##iosis
Gene
FP
AH
##ographics
##ented
disturbances
nmol
##ucted
configuration
coagulation
athletes
##anish
##actin
tendency
vectors
##vember
tach
digestion
minimally
Australia
supplemented
##lam
glaucoma
##actors
##sk
zero
mediators
Institute
conservation
November
solv
##nis
##udden
anatomy
library
took
blotting
locally
oocytes
##amps
histology
##carb
compartment
##gu
##iking
TBI
peric
fourth
ventral
preserved
intrav
generating
unaffected
directions
preclinical
SNP
##P3
##agland
intraper
meat
##bil
anch
##Os
Sixty
becomes
mediating
antidepress
140
alignment
contralateral
saturation
bonding
introduce
fertility
thems
additive
centre
frame
mitral
##ulsion
hypog
Finding
themselves
##ostatic
dosing
##ositive
institutions
personality
Eth
fell
##ocyan
fre
##ivation
phosphorylated
promotion
##obacteria
warm
unrelated
attempts
box
##lutin
coping
##enopausal
select
Initi
append
microtub
waves
distant
ranges
Black
##onomy
R2
cure
##eres
staging
##43
##orth
##essation
Multivariate
exploration
strict
##opyr
##pes
##PT
##AF
cats
##idium
manage
stomach
Quality
mTOR
LM
##aven
transferred
##lusive
C57
##ethylene
##fe
##eleton
cognition
ventil
##iew
shed
##ministration
calibration
preservation
postpartum
##oarthritis
private
Level
intention
objectives
homolog
Val
##oderm
scler
Increased
receiver
observe
osteoporosis
##ilization
##aboration
nas
hot
CAR
sympathetic
null
hypot
inpatient
separately
chemok
nicotine
##ationally
RCTs
##oides
examines
immunodeficiency
Psych
##while
formulations
knockout
covari
perin
inadequate
##otherapeutic
IN
##plastic
student
mos
normally
apply
interesting
##66
thresholds
recall
ophthal
exclusion
USA
vulnerable
130
androgen
FR
cues
GO
Mut
tag
attractive
nerves
modulating
ACh
##olone
deal
A1
returned
bioavail
##operation
optimum
##E1
birds
calculate
partly
conservative
lowering
PPAR
##era
cessation
restoration
syndromes
termin
Ki
purposes
Evidence
sph
##iciencies
somat
strand
colitis
##ysiological
warranted
sac
extend
##axel
intellig
Dros
mixtures
gained
##urgical
mathematic
##prising
equally
##nat
profound
##oprot
cef
Pseudomonas
OSA
C2
105
PW
bioactive
relaps
coval
nanom
##T3
gaps
immunofluorescence
injured
categorized
clustering
##inescence
NLR
um
innovative
provision
pneumoniae
la
substituted
blast
pref
evaluations
incomplete
bab
immunization
usefulness
##47
weights
Vis
##puts
illustrate
##amethasone
htt
##ositol
leptin
##48
reserv
too
Individual
Evalu
##be
secretory
glucocortic
senes
Gal
hall
MO
profiling
superficial
peroxidase
Besides
salivary
eu
reaching
regulators
mRNAs
rheumatoid
incons
addressing
served
favour
##inase
administr
Candid
mov
neuropsych
maps
Hyp
bipolar
palliative
##aching
Ov
representation
Cas
insurance
adduc
Conclusions
##arum
rough
Ps
cocaine
epidemic
abilities
multidisciplinary
##CD
sudden
##ochrom
pestic
Consequently
resin
extreme
Hear
sun
siRNA
##viral
similarly
##eries
inactiv
Enter
Importantly
Drosophila
##erstanding
106
wk
Obs
##nR
abscess
##emble
leaders
Statistical
persistence
1999
Findings
novo
##imp
Sym
trigger
wat
Consider
##imb
##ergies
periodontal
006
copy
##aments
dl
chron
calculation
facilitated
GTP
breathing
naturally
##esium
##95
##olum
##omet
veter
triple
PFS
Raman
outl
anticip
employing
Changes
interacting
hous
chemicals
##enta
##recip
##gestion
ars
Obj
catalyzed
Sa
16S
imped
publications
##GR
sustainable
abstr
swe
##uclear
##oradi
##elles
depressed
routin
CHD
droplet
mammary
caud
##avir
Central
Nin
ging
citr
muscular
silica
##esare
olf
Background
expert
MIC
rect
stored
branch
ppm
sometimes
retard
##esticular
VL
##ploid
homogeneous
ventricle
papill
##inting
continuously
precursors
##ony
MU
HbA1
placental
piv
autologous
becoming
glioma
dysreg
tibial
conduction
Ha
##opulmonary
ureth
fabricated
functionally
##INE
ine
endemic
intram
N2
##olus
equipment
AKI
division
##ej
ACE
competition
transp
##astatin
powder
stabilization
sent
equations
Together
drive
herb
##organic
adul
##ognitive
recordings
tubular
LI
switch
catenin
Understanding
ejection
##B2
Bo
enabling
##FLD
scaffolds
##esarean
attached
dism
nitrate
thorough
etc
detr
hemisph
Path
She
##osarcoma
quantitatively
FDG
##rontal
##MRI
jus
anomalies
retina
vertebral
catech
dox
Notably
endothelium
fistula
relief
porous
Dat
##unk
gp
words
anis
SDS
##45
afford
specimen
microscope
##erated
Wnt
3p
orally
missing
clamp
FL
losses
meal
##asonal
trace
##afts
apparently
##iliary
##inform
eggs
General
Lys
cysts
##otoxic
evolved
Pharm
NaCl
peaks
scaven
CD3
fibroblast
##itability
quite
transmembrane
amplified
strept
hence
Pres
##ortical
entit
beh
eosinophil
geometry
purification
fermentation
Genetic
parasites
##GD
deterioration
##ubicin
##atonin
reticulum
cust
upstream
##rozen
segmentation
mammals
porcine
##osphate
osm
##vant
poorer
coex
##opa
007
##OVA
##42
LF
enough
Stand
##99
electrom
Glu
victim
incid
hams
latent
rhin
##patients
##omatous
inactive
Pers
endpoint
Net
prostagland
##ala
His
##lear
subm
prescrib
##oemb
##atellite
arthroplasty
underl
xyl
##oric
Information
expon
methodological
circadian
Medicine
kidneys
commit
manipulation
acoustic
mononuclear
##lipid
enanti
##asome
##BT
flavon
Sam
managing
silver
neurotrans
belonging
photon
##uscular
##regn
hormonal
Additional
sucrose
moment
homology
hyperplasia
Canada
iii
remote
annot
##static
hyster
medull
principle
Cys
##onduc
plans
anaerobic
DI
hind
##elding
specialized
flexibility
lasting
sick
##utable
##antib
why
decay
##ender
cellulose
Higher
hosts
White
migraine
hydrogel
Surgical
##3A
RC
##tidine
##ares
diarrhea
##M1
accumulated
OD
preferences
dense
merc
discrep
CMV
##atosis
Diab
##ocompatibility
experts
##otub
##ycardia
soils
tip
##ague
institutional
bott
constants
##estr
assumed
Intra
Functional
µg
FV
gives
cigarette
cros
transmitted
owing
neuropath
code
front
downregulated
incision
bund
moderately
unst
##ele
##ocys
simpl
proportions
##ometr
CAP
tetra
ureter
biomedical
kb
brach
conductivity
A2
silencing
##uck
establishment
BF
behavioural
elective
ethical
Cp
Bas
prone
##imetric
rational
cool
familial
HER2
sa
chicken
adsorb
HIF
##lementing
ethnicity
Supp
definitive
job
analogue
epidemiology
fecal
currents
Fas
describing
let
crystals
##enium
FGF
insec
##inyl
D2
lup
highlighting
PCI
##ECT
conceptual
##oir
Log
##aplan
Num
##63
anion
mouth
Even
Molecular
dispersion
gyr
##68
##ees
##ophen
ERK
opin
Subjects
collabor
##irable
universal
standing
statin
##75
aggregates
para
gyn
deprivation
mandibular
irradiated
conscious
sampled
sequenced
Go
nond
Kaplan
##uing
##met
Hispanic
intermitt
##ulos
multicenter
aware
orbital
tric
##orecept
catar
horizontal
bif
subp
##ogenicity
camp
##antitative
fasc
Administration
##phen
demographics
formula
##ropyl
##usive
##rex
historical
##oblasts
hyperg
entr
objects
intense
##apor
pancreatitis
conjugated
##ejun
1998
G1
##herent
##esophageal
oriented
160
Ge
Impro
##rolif
olfactory
Secondary
##elect
Nurs
accessible
resemb
univariate
FM
##orted
alkyl
incorporating
frail
progenitor
Currently
exert
mann
mu
flat
phenomena
named
noninvasive
balloon
papers
flexion
TU
crude
##ulty
testicular
recognize
web
##ptosis
T4
productivity
minimize
##inted
agricultural
neuropathy
##rupt
Fc
HSP
Ultr
mor
lock
##idopsis
cerebellar
HbA1c
Datab
transitions
pseudo
analogues
D1
hazards
##aminergic
BMP
carry
Identif
##usp
ambient
HRQ
acyl
lev
guinea
008
##hibiting
##istar
EBV
##yd
constructs
So
engineered
##ostomy
cascade
101
##atories
normalized
Sn
beliefs
Arabidopsis
Glob
##antom
leukocyte
inorganic
##hion
Swed
polyc
cycling
ratings
anten
##allow
intermedi
aspart
bioavailability
##airy
overlap
##hed
margin
reproducibility
precipitation
limitation
##ST
disturbance
accounting
frozen
Meier
built
starch
Review
crani
Bio
aneurysms
Measure
follicular
neuroprot
visualization
reward
##cap
FU
104
mimic
##odegrad
steroids
reflux
Different
microbiome
urgent
##sts
played
marginal
adding
discl
##ogenes
NAFLD
helix
participant
colonic
metrics
criterion
fashion
splicing
sulph
##ires
viscer
arising
charged
leakage
##iers
attenuation
Wistar
Te
RE
##oprecip
##lerotic
stig
##thromb
##lication
sand
Electr
NCT0
##atr
sib
##ellow
responders
pivotal
##imus
Self
grafting
varies
shr
lac
serial
facility
raw
##endit
analgesia
p38
neoplasms
##itosan
quantity
episode
attributable
build
##umb
##quito
modest
##olarization
connection
unable
perinatal
##osel
##ACE
ACL
##N2
registration
Conversely
##essive
believe
##S2
##ped
##55
Therap
acceptance
asymmetric
##ugh
sulfur
##elt
resident
alanine
neurologic
qPCR
deline
##ungal
aspiration
topic
##enth
##opolysaccharide
immunosuppressive
counseling
suffered
##eval
dysplasia
MET
Depression
Retrospective
seasonal
Mac
evidenced
Micro
##H1
government
gov
##perg
inoculated
joints
arise
Treg
##ura
QoL
accompl
##emporal
developments
MW
filled
inversely
articular
P450
insufficiency
spontaneously
103
##ns
expand
111
establishing
C1
phosphorus
contacts
modif
unexpected
##ophore
SCI
condens
attend
Sr
juven
108
assembled
zebr
##tium
mt
##VI
astrocytes
adrenergic
mention
SIR
interpreted
participating
chloro
anatomic
##zation
discrete
unres
##omod
disl
Prov
NM
##thood
Single
desired
histamine
penetration
binary
luc
enrol
Pur
lag
lysine
rely
coinc
repeti
##44
M1
colonization
designated
Various
retrieved
##enstr
compatible
wounds
otherwise
C57BL
##erate
extremity
modify
trunc
SCC
immunoreactivity
envel
coil
constitute
##ibilities
rule
converted
adulthood
drawn
docking
meaningful
chel
LN
radicals
resol
##omial
running
irre
##HP
distric
constraints
conclusions
seeds
avoidance
plas
slope
RI
admissions
methanol
##oxygenase
doctors
##isis
ald
recipient
neoplastic
Leu
aspirin
##ionine
800
polypeptide
MEDL
AE
resusc
##icul
microarray
##ulates
planned
finally
inver
Subsequently
geographic
Emb
propensity
lithium
##mg
##MV
subsets
neighb
demands
hypoxic
undersc
Germany
mir
MEDLINE
Appro
1997
solubility
##LE
routinely
segreg
suspension
ultrasonography
hemodialysis
mV
##vian
densities
prove
Mex
efflux
##orial
America
MY
courses
##FC
dexamethasone
city
But
##entan
glial
TCR
cholec
lymphoid
##aternal
##advant
correctly
serop
expendit
circuit
##lin
dysp
endometri
window
##illi
weakness
macro
##afish
##iding
pharmacokinetics
##rug
##haus
Candida
##itch
amn
Pd
psoriasis
##onym
##ortive
photocatal
##rosion
attending
septic
##uled
grain
JA
##yel
2023
reproduction
verify
massive
##ivity
##inance
gross
giving
##ulant
foreign
encodes
##ithelial
designs
##keys
continues
inequ
Ol
Nine
reservoir
positivity
pleural
verbal
signature
##elic
lesser
##P2
cyclin
State
dilution
##ilience
mosquito
Her
Heart
discharged
station
curric
Delta
##ropriate
##erent
CoA
picture
Po
##affe
##oratory
dairy
revascular
cardiomyopathy
sarcoma
phantom
MCF
##ompass
switching
coherence
tick
ole
tes
ips
mathematical
ICD
disadvant
explicit
Lip
##regular
cutoff
Time
commercially
ALS
defective
##etics
fragmentation
radiographs
experiencing
nav
ionization
##itone
tone
lupus
held
HSV
tRNA
##iger
facilitates
##bumin
encompass
obtaining
102
inserted
##izer
conjunction
##arct
##opathologic
cranial
mind
insect
publication
pigment
centered
##tified
1995
##L1
##88
intermittent
arteri
sea
##feeding
destruction
##ius
Experiment
Commun
Database
estimating
symb
analyse
canine
##oreg
unstable
##tructures
Serv
cytosolic
AOR
Ec
exhibiting
sigm
allo
##itamin
TiO2
Cross
Meanwhile
Lact
tailored
ger
##ylamide
stat
##ayers
macular
trypt
consumed
dent
##ielding
devi
reflecting
##rospinal
fluctuations
##ampsia
che
grav
##bilical
Social
osteoarthritis
coch
NMDA
terminus
##oea
##otrophic
players
rub
trem
Organization
transfection
##BR
subpop
template
##orubicin
considerations
##odynamics
disparities
Chi
hearts
##arom
VD
cosm
SO
proce
##omerase
lign
polymerization
##abine
guideline
fulf
IOP
##acil
replaced
##like
intended
capabilities
ganglion
##lampsia
recons
##hibition
##graphy
melatonin
##ophyll
Bacillus
conditioned
attempted
##VE
Where
caries
depart
MRSA
masses
##illed
##herin
##da
superv
Food
##ersion
magnesium
PTH
micron
##33
vestib
##eties
termed
provider
##oxicity
solar
apprec
releasing
surfactant
scored
acup
Fourier
diaph
pollutants
autosomal
##ola
109
nutrients
##after
takes
ALL
##arse
fluids
Chem
organizations
regarded
LG
ECM
twenty
alumin
1H
poli
##orac
Char
similarities
Score
##ipine
fair
Bayes
forced
Activ
applicability
##NV
stake
facilitating
trimester
irregular
summarized
##romycin
analgesic
##prisingly
ABC
laboratories
##amines
Ta
perox
Differences
pin
yl
##inergic
oxidized
Hem
aquatic
spent
1996
peroxide
synov
distances
##etized
##eled
107
chitosan
mutated
##oplasia
##hab
Evaluation
zebrafish
tac
immunosorbent
capsule
##terase
mism
submitted
Epid
BW
peroxidation
aberrant
supernat
Spr
epiderm
energies
entity
Strept
Short
##urnal
augmented
##me
catalysts
reflects
damaged
##eces
conductance
M2
breath
immature
ligation
clone
Cro
phage
##astric
landscape
vasodil
##ogeneic
spot
thrombin
Tc
proinflammatory
dw
##angements
tumorigen
legal
##PE
physic
##idic
##yses
smoke
bench
renew
collaboration
##rological
##parts
##aker
senescence
vo
Indian
dioxide
serves
##enteric
transplanted
vibr
therapeutics
maxillary
get
Cent
nucleic
##itated
impairments
imbal
##ontinence
disulf
Sequ
oncology
stratification
LE
##uge
autonomic
Rem
##virus
summarizes
consent
reproducible
##roid
aspartate
prompt
vom
pari
preserv
hs
oligonucle
stresses
sized
spectroscopic
hypotheses
##ettes
ANOVA
ACS
##monic
H1
visceral
##oal
slower
Sel
##69
van
##atine
angles
uncover
lives
propagation
##itten
Gly
##ecan
##SI
conditioning
Australian
CCR
irrevers
transverse
keep
GW
##A2
##yrin
cm2
surgically
narr
lumen
##nRH
registry
##tee
##imal
microglia
Asp
KO
kinds
##nutrition
##etamine
modelling
adjunc
##oxif
##UT
timely
chiral
subsc
moving
centres
cG
multif
din
ovary
##omyc
##amel
Program
expectations
sharp
TSH
##atelet
sports
integrin
winter
curative
behaviours
deox
##oblastic
feeling
##ellum
##lements
doped
fetuses
##inates
Experimental
counterparts
autoantib
dB
cough
scr
heating
##plantation
EMT
stabilized
##roduction
##opsy
axons
integral
##oler
determinant
downregulation
##juvant
cataract
SER
kerat
##uccess
inoculation
drink
bronchial
##yph
consuming
anc
aOR
views
##eptic
behind
infl
##uretic
remove
friend
eventually
##onn
imper
F1
acetylcholine
Ru
##aight
##iferase
bacterium
##sychotic
society
prophylactic
fate
Emerg
##CG
##ading
strongest
SK
Seventy
##onit
##utase
finite
motivation
##ubin
caroten
abnormality
##aved
homozygous
scenario
##ulsive
zones
catechol
resilience
hydrocarb
##formin
MK
##ostatin
Nr
distinguished
granules
1α
quadr
pathologies
wean
##hn
caffe
boundary
##Ws
endoscopy
heterozygous
decomposition
robotic
Those
##ensitive
links
circumference
##NO
aeros
Bre
CAT
Twelve
creating
son
eukaryotic
##iatal
Fem
hygi
atherosclerotic
exploring
mitogen
prevents
PLA
##LV
##imeric
stream
deploy
herpes
saliva
ingr
aph
LDH
hypothalamic
paral
diagnose
relatives
##ologically
vast
labelled
Iran
inherent
FSH
ethylene
VP
##PSS
prosthesis
lipopolysaccharide
motifs
##ographically
##ASE
Extr
allergy
postmenopausal
La
desc
009
##59
complaints
erythrocytes
trees
converg
unpr
prefrontal
hol
Nan
immobilized
##apine
##ger
stranded
CFU
phenolic
ingestion
##arium
Ba
suffer
elongation
BRCA
##ift
intubation
Comparison
##respective
##istrib
osteocl
medicinal
trajectories
##f2
ulcers
##omegal
lineages
##arcop
overlapping
transcriptome
straight
##ucas
tens
implementing
semic
drivers
poison
minority
iodine
respiration
assayed
summer
slic
ammonia
ambulatory
GnRH
Elect
Global
vomiting
infertility
ingred
Tai
til
GT
probiotic
HH
##ynamic
##odontic
preferentially
Model
anastomosis
fig
thromboemb
menop
custom
jejun
moiety
##32
cerebrospinal
autism
module
vaccinated
explanation
Northern
sole
Increasing
modifying
gam
circumst
electrolyte
spherical
nucleotides
copies
antifungal
Wil
probable
##ylic
falls
inherited
##odemographic
supportive
AKT
heme
hierarchical
GFP
dial
slud
survived
responding
drought
genital
endpoints
pulp
##enem
microvascular
crystalline
##xts
##ocket
renin
attributes
Adv
sharing
ded
personnel
habits
umbilical
lengths
##ney
mentioned
##roliferative
##olet
##mium
Abs
##2C
##iac
##atation
thyro
Standard
##PV
corticosteroids
##osidase
revealing
lived
Quantitative
individually
taxa
##uric
consultation
##yroidism
herein
QOL
DV
eliminated
Asia
contexts
G2
stre
sector
cadherin
dest
Tumor
##asi
##obut
employment
endoplasmic
titers
smart
prostaglandin
affective
striat
##idazole
endovascular
##ida
##comes
genetics
fire
partition
designing
terr
carcinogenesis
##agit
folding
yellow
century
450
glycol
Invent
blockers
dismutase
pulses
##itors
physicochemical
##ifug
conflict
##bow
haemat
Considering
incontinence
rings
transc
trunk
Sci
RO
viscosity
giant
##play
gingival
classic
ipsilateral
##icidal
##49
comorbidity
fluoride
instruction
##onazole
##urc
adhesive
causative
kappaB
programmes
##ohex
##ulture
limbs
Random
coordinated
Embase
Know
biodegrad
averaged
split
volunt
##unctiv
transporters
dominated
volatile
fabrication
myocardium
accounts
swim
##PP
waters
testis
ineff
spike
Collectively
MN
south
##ously
##ophan
filling
BI
mum
fertilization
competence
detach
monocyte
##ygd
remarkably
rain
##ografts
##entin
##ails
##amph
C4
aryl
predicts
##olymer
gro
biologically
Inventory
Inv
VR
proc
##wan
BDNF
lin
ammonium
##otting
globally
horses
functionality
leukocytes
gram
acr
Use
Specific
##irubin
Latin
##quar
##rices
parietal
sept
RAS
Pred
hernia
carefully
dead
triglyceride
composites
racial
soyb
OT
Immunohist
genera
##62
monotherapy
##otechn
malform
challenged
symmetry
##ausea
123
##retro
##astern
exhaus
thrombocyt
lute
##etary
##arboxyl
breastfeeding
sen
##ozoa
transforming
adoption
appropri
confined
sludge
corp
periodic
subf
Caucas
Sy
##aver
German
##icans
flight
echo
##itating
plaques
cephal
Physical
GV
scope
##iatr
connections
undet
structurally
Pain
##ishman
##odg
antipsychotic
Prospective
intraocular
quickly
##edema
cardiopulmonary
LL
##ulator
D3
##irth
##ll
suture
reasonable
retr
cerevis
##G1
spind
priority
inputs
plex
##inogen
##epatic
idea
Objective
epitopes
pollen
MAL
Mycobacterium
##iber
dopaminergic
coast
##place
Day
activates
multis
misc
DSM
##onc
lowered
cerevisiae
multil
interviewed
##ragm
arms
14C
Coh
manifestation
isoth
mitotic
intelligence
fibrinogen
Neither
monthly
organized
##icillin
resuscitation
##oti
##adren
##000
rend
##odic
codon
Life
RN
H3
131
menstr
amygd
intermediates
Phase
ZnO
harmful
fused
##rench
##uan
actively
newborns
wood
ICC
ferr
efficac
Ur
##agr
prescribing
Ext
monkeys
##EB
shunt
dissolved
##F2
##77
attitude
inapp
electrostatic
placenta
anaesthesia
ectopic
sexes
Surv
covering
β1
interacts
southern
diagnosing
agar
##epithelial
Streptococcus
slowly
##ondyl
##unting
paediatric
electrocardi
surveyed
allograft
revascularization
vulnerability
dic
AMI
Daw
##osacchar
codes
##endocrine
mediates
sacr
explores
##Tr
juvenile
##onical
deformation
allocated
##urable
unex
1994
nanoparticle
blinded
handling
##58
checkpoint
You
##titude
Development
persisted
##abec
FEV
liposomes
##face
gyrus
nick
contractile
DCs
artif
##inear
judg
stone
##uvate
sial
sensitization
East
geographical
##onyl
MDR
bridge
contractions
outbreaks
##istance
##cy
constituents
Surgery
##XA
Respons
vocal
grass
veins
TEM
##atric
histologically
retrieval
filament
habitat
exploratory
##aldehyde
recyc
glycem
##ext
phon
subd
GBM
##asting
##oracic
PAC
intim
Network
immunomod
nephropathy
##atology
immunoprecip
##ceptual
##emporary
big
traffic
plates
differs
Rho
reinforce
mesh
##pons
Bayesian
contribut
##itance
UT
striking
glycerol
Techn
slices
LU
##arial
resected
willing
repetitive
clinician
perfor
SBP
confounding
##abin
reversal
##astin
##31
DW
NIR
operational
##roch
##eption
interplay
catalase
glomerul
Mechan
dust
spring
accid
consequently
detector
Behavi
luciferase
fibres
integrating
##aviolet
musculos
##C2
fMRI
nausea
##pleted
Imp
lectin
abortion
mitigate
musculoskeletal
French
defining
ribosomal
parathyroid
glycogen
PCa
lamb
##HF
tor
CON
promoters
impacted
intraperitoneal
confirming
Eighty
tris
illustrated
pyro
Pan
##sil
##ucose
Cs
EG
compartments
grouped
bacteri
neurotransmit
##retroviral
bioinform
##list
titanium
##urgery
##atinib
myeloma
foss
##lipidemia
triglycerides
WM
Antib
excited
lactam
1980
##hypert
match
phospholipid
nonp
northern
##ega
arrays
preoperatively
##urane
irrespective
erythrocyte
PCOS
orders
rigid
MDS
##opress
metalloprotein
covariates
##rectomy
pals
nitro
relating
##jected
conducting
##CN
128
DFT
follicles
apparatus
##aumatic
characterised
##rogens
crisis
##ephone
##benz
Sprague
GST
neighbor
lattice
amput
##quartile
agreed
##itudes
##enger
Dawley
##ongue
18F
PCA
glycine
##iforn
##ardial
##atinum
##acycline
mixing
gray
scin
albicans
myosin
ganglia
crypt
arb
UA
exec
written
sided
progressively
##ipping
papillary
repeats
##64
##tification
##entric
trajectory
##exin
Oral
VT
matrices
lymphatic
suggestive
Sep
gynec
trich
tropical
tumorigenesis
homogen
broader
Mid
maize
periodon
mapped
pathophysiological
Yet
Italy
seemed
vig
##rovascular
PM2
ACTH
allogeneic
identifies
##imaging
malformations
Ga
West
biph
thous
surgeries
##tituted
ultra
cot
faculty
axonal
arach
mediator
##VD
##ronectin
emphasize
epitope
##diagn
mang
Male
reconstructed
essentially
circumstances
tur
Work
##olab
unexpl
helps
##illing
sin
ICP
Correl
##arval
biod
##CAM
multiplex
executive
soybean
##urate
augmentation
concentrated
Pot
stain
cholinergic
doxorubicin
Postoperative
EU
claims
bolus
attain
ago
Mass
splen
degenerative
##rogate
interquartile
##rogenic
triph
killing
north
##GO
branches
##Se
Prot
Alt
##affin
travel
dermal
Logistic
##ersonal
##aran
Labor
Hydro
99m
displays
unfav
sociodemographic
##MSCs
oxygenation
rescue
##ailed
security
##ittle
tachycardia
familiar
##ococci
calcification
Few
##floxacin
##litaxel
129
##78
inconsistent
offering
ophthalm
##erebral
tap
excitatory
captured
moist
ecosystems
overexpressed
##olipid
##asc
CAS
Mel
##valence
striatum
permit
##acyl
analogs
proof
Approxim
shifted
##li
##ply
##epinephrine
Accordingly
envelope
OM
vestibular
positioning
percenti
isop
CRIS
began
Syn
discontinuation
##fish
underestim
MDD
personalized
presentations
Pharmac
115
ubiquit
dissolution
seq
percentages
EMB
cannabis
theories
geometric
nation
##ocks
grades
aller
CAM
entrop
solvents
infarct
suicidal
dermatitis
rum
##earson
EL
sedation
prepare
##ipt
Contr
dendr
epidural
tet
##mal
##FT
kit
Exposure
##enn
Bacter
eliminate
##ectomized
irreversible
##FS
aux
platforms
adequately
Mc
Registry
##istribution
Da
##AG
##itron
helical
118
influx
septal
fractional
nemat
colonies
atmospheric
Pearson
hyperp
walls
##tention
Exc
chart
transcribed
radius
antiretroviral
kept
##ilst
CD34
elast
Whereas
resorption
pet
neuroprotective
##glycer
immunoreactive
##apses
uro
##oadjuvant
Examination
investigates
##room
transpar
remed
##agittal
trabec
college
Gol
##reen
embolization
detrimental
Lim
notably
fruct
turb
primers
##haps
Taiwan
disrupted
retinopathy
Analyses
NSA
comfort
brown
sequel
##develop
hypothalamus
depleted
transferase
balanced
silicon
restore
137
Bone
metformin
monolayer
I2
ration
##uccessful
##otactic
STAT3
spir
ALT
allocation
foundation
guan
##ASH
##luent
Korean
medicines
flank
attacks
##ophysical
schedule
confocal
accordance
##holders
nal
titr
##role
antidepressant
NOS
neutralizing
assistance
departments
immunocomp
frailty
converting
twin
impedance
exceeded
physiologic
nanotub
BSA
Numer
##otom
##but
HG
DG
EMG
manufacturing
MTT
learned
fruits
kcal
##tinib
interventional
inhalation
Medicare
electrophysiological
sufficiently
LB
##ipped
##DA
physi
Symptom
##brain
nich
perp
Atl
##otroph
rules
tryptophan
ascorb
##ovir
##plicate
SHR
Diabetes
crosso
##irection
##ifferenti
NB
##gic
multidrug
restr
BH
arsenic
creation
scarce
seconds
pretreated
penic
ordered
##perform
disulfide
MSC
relate
km
RH
trafficking
cerebellum
larval
safely
duodenal
##enzyme
##oprotective
intens
relies
##NTs
EN
Spanish
trypsin
stigma
1993
purs
Case
Ras
react
##itionally
topics
apnea
prednis
curriculum
tear
##oconstr
functionalized
exerted
oxal
alcoholic
##obs
hinder
indicative
Mark
recessive
confirms
asymmetry
telephone
sarcop
deformity
pose
##98
perforation
loads
differing
Hodg
blocker
##engue
ultraviolet
##ocaine
silico
camer
##pyr
##accharom
hydrogels
mini
accommod
B1
##73
salv
PAS
microd
noradren
##lyl
##eced
ASA
importantly
chemically
lean
arrhythmias
palsy
##itization
Ce
##requency
Tyr
##iff
morbid
extrap
##omnia
1992
Aff
Upon
KD
hemorrhagic
briefly
CRISPR
##otemporal
quantities
foci
isotope
initiate
eGFR
125I
##ART
Approximately
curv
cholecyst
Americans
CRT
voluntary
oocyte
bring
Canadian
fifth
updated
##ifier
##La
PPI
epileptic
##olecules
CCL
##idone
chemotherapeutic
nanocomp
transmit
##ball
skull
##perm
mAb
##51
heavi
##fall
JNK
bull
sug
##K3
desirable
Korea
##obacillus
card
trade
bin
utilize
clonal
##ulas
unp
NADPH
junctions
mutagenesis
Hu
##odec
cooling
scaling
microw
##trial
Hodgkin
cationic
##IV
CEA
descending
Bar
wider
RBC
look
tongue
mucin
##lim
##46
hered
bases
##urin
micr
faces
norepinephrine
away
moun
tea
dysph
FTIR
##ona
neuromuscular
hydrochlor
mtDNA
dysregulation
Outcomes
##keleton
##berg
teams
friendly
##rep
##imide
road
VTE
derive
ferro
degraded
nonspecific
entered
CU
chromatographic
sacrific
hypersensitivity
116
##force
glucocorticoid
Oste
battery
##alin
endometriosis
NAC
CCK
organizational
112
iv
Major
batch
##ossible
hygiene
##ishing
shortening
performances
##otropin
##opter
##agia
hope
indirectly
Mus
##grav
rose
##D1
macrom
cytology
covalent
strengths
##accharomyces
gradients
gelatin
##yx
hands
240
cone
gels
neuroendocrine
planar
Mental
bones
RCC
##nec
cations
sap
##ops
##Ca
##rio
Phe
cleft
felt
singlet
hydrophilic
alternatives
synthesize
diagnostics
saturated
dissemination
##otyped
immigr
laryngeal
Fish
Inhibition
margins
acupuncture
splenic
Lik
routes
Library
##exual
oz
specialist
polys
sporadic
inappropriate
altering
mesenteric
##tinc
hypotension
##ximab
deoxy
##isely
empt
phenol
GE
waist
aeti
AQ
puber
interfering
hole
borne
adolescence
AMPK
extrac
outperform
collect
disabilities
RSV
oscillations
##cript
##graduate
##osides
ham
##acrylamide
Disc
plasmids
##jus
crossover
##tral
polyethylene
relig
stack
##functional
##GB
Crohn
##AA
subcellular
##ofol
##rotomy
caffeine
stimulates
periodontitis
presumably
births
perceptual
compromised
CRF
anesthetic
faecal
Diagnostic
platinum
##unic
cyclo
lysosomal
expanding
varic
anthr
imag
antigenic
##nx
reflection
ot
termination
P3
126
embolism
Southern
Unlike
mercury
##mann
##ofacial
differently
paclitaxel
mating
CDK
programmed
##ochemically
deletions
pharmacy
prolactin
##inery
expenditure
cuff
repress
##omyel
##epsin
synovial
Systematic
adenoma
135
works
##emed
H2O
##pation
##otent
##R2
Epidem
##uran
ment
methionine
Young
bus
reliably
approval
carp
Vi
Coun
stakeholders
cub
##otopic
sexually
fitting
ling
SMA
debate
SPECT
angina
College
worsening
signatures
##DH
Californ
CXCL
stationary
sut
##growth
iter
initiating
burst
##ophosphate
meningitis
Brain
deposited
consumers
spik
##iders
lever
FDA
graded
##urons
possibilities
cadmium
connective
Turk
disappeared
P1
rhiz
Ed
colour
biologic
##amn
obstetric
##ux
painful
elicit
bac
brains
propr
contemporary
Regarding
cyl
superc
Tg
PRO
yielding
prostatic
trust
##orable
##opharyngeal
vesicle
ice
taste
Baseline
##hol
MCP
Adult
engage
Small
Ninety
regime
Direct
VC
cesarean
diaz
Notch
TV
accessibility
Liver
addiction
##ido
##oreal
VO2
Internet
quer
interd
regenerative
leucine
Meta
plots
discriminate
tracheal
##onectin
integrate
microsph
Sl
intravenously
era
plot
exerts
LOS
lid
##ortunately
##itabine
ineffective
TOF
amygdala
##ipr
divergence
triggers
suppressing
cerebrovascular
##oval
CXCR
##hips
chance
enlarg
Knowledge
intensities
notable
quen
Golgi
assembl
regurg
haplotype
chemokine
raise
##41
follicle
##aign
##olateral
axon
islet
beg
argue
##ealand
teachers
##ikely
procedural
Pi
falc
negligible
Onc
Pac
proximity
spindle
##cein
##etrical
GLP
cyclase
California
##entary
##otions
consolid
fibre
1991
pacing
immunized
crossl
##hypertensive
unlikely
Nrf2
benchmark
delays
ances
passage
##igenous
imbalance
possesses
Hyper
fitted
Calc
##ocept
Et
Zealand
OF
modules
retrograde
offic
extending
biomechanical
Prote
nodal
preceding
##ineal
arrangement
semantic
stressors
inactivated
configur
Cells
readmission
##79
deviations
circuits
fungus
Spain
microtubule
##ya
##edicine
efficacious
##yz
##partic
thrombocytopenia
Educ
calves
concordance
Cer
France
crown
##ushing
Little
vasopress
cities
canonical
diver
neoadjuvant
Rap
##imension
latest
glycemic
MetS
lactic
BALB
bup
convenient
hern
fum
spi
span
femur
curc
interfere
immunosuppression
luminal
##omfort
haemorrh
rising
##aches
insectic
##rost
pocket
##M2
firing
##oac
robustness
elusive
perhaps
expensive
spatially
engaged
endocard
##ita
dried
compact
amp
reagents
##ADS
##arynx
leadership
EMBASE
floor
hallmark
toc
##eterious
fuel
definitions
myelin
Before
Eleven
seal
vill
incremental
MCI
kinematic
reciproc
naph
concerned
124
digestive
gath
T2D
thrombus
170
pulsed
##nary
##illa
##azone
mobilization
polymeric
TLR4
##hex
obstac
hypotherm
Positive
hereditary
Phot
grading
##stem
diameters
Scop
Def
temporary
wrist
accomplished
##inement
esters
contrary
##anin
killed
fibrous
sput
diaphragm
##odend
##tise
proposes
##ancomycin
segmental
harvested
avoiding
supplements
ord
paid
perfused
semiconduc
plur
##tia
opinion
Indeed
##ilis
EPS
weakly
effusion
NSAID
overload
Poly
aminotransferase
interactive
##head
##1a
simulate
APC
##itter
solely
continuing
Next
electros
ferritin
1st
iNOS
glycosylation
DEG
##obenz
##extr
quasi
##edicated
preec
acceptor
HeLa
refractive
Cardiac
deleterious
pesticides
##iated
evolving
Hal
##itinib
145
train
dissoci
sediments
Port
##umental
##iab
adrenocept
##olated
modulus
backb
##XR
##oxia
flag
##borne
confirmation
##iate
stents
##timulation
sagittal
enamel
satisfied
PGE2
##opathies
##entists
##Cl2
brought
Conf
aerosol
acceptability
modeled
conjugate
sequelae
venom
##Fe
SOC
escape
amine
rac
114
What
crops
Italian
discomfort
tuning
hospitalizations
##using
differentiating
Contin
##omed
glucagon
##PI
osmotic
absorbed
neuropsychological
methodologies
priming
deposits
happ
HDAC
##ylase
particulate
autoantibodies
Mar
distinctive
invest
Ala
selecting
Factors
glutamine
malnutrition
sheet
ACC
##edom
HCT
fibronectin
originating
morning
kary
disordered
palm
discipl
bilirubin
avoided
monomer
representations
##WT
##oate
semen
adenomas
Whether
choices
ace
Visual
ta
emotions
meg
amongst
demonstration
Lew
##ogl
residence
##enoid
Integr
##oplasma
transgen
##O1
PDT
menstrual
GB
attracted
##essary
##phenyl
hydroxylase
incorporate
antioxidants
##afil
insects
spreading
acceleration
chickens
constitutive
neurodevelop
spite
##wards
Pri
come
salts
precisely
thematic
About
Hsp
occasion
RMS
lib
origins
##band
C5
webs
stones
##ysaccharides
invari
proteolytic
promp
##osum
campaign
restor
allergen
butyl
FOX
troph
##ois
Mit
##ba
##ISH
##ondition
190
##icion
##olub
employees
cit
succin
##aminase
technological
citrate
##fulness
oncogenic
Experiments
##oquin
dilatation
Th1
poses
immobilization
vapor
anticoagulation
omega
synapses
Intervention
competing
lactation
voice
prosthetic
confounders
gradual
advice
opt
ends
clock
appra
regularly
centrifug
earth
polymorphic
tubes
cultivation
bottom
##uterine
##amidal
bath
eg
##diting
HMG
filaments
format
spermatozoa
beds
alleviate
##cetin
EE
##CO
Compound
IVF
aven
TL
immunobl
neurobl
Prop
immunost
hyperglycemia
angiogenic
Local
flaps
##nals
##otropy
ADC
homes
122
##oped
attended
operator
##amuscular
EVs
cochlear
##onv
occip
##ez
Asperg
rodent
210
IB
caregiver
photosynthetic
illnesses
uncont
specified
MTX
lncRNAs
##zymes
psychosis
compan
curcumin
Fifteen
Magnetic
interfacial
indexes
##infected
adsorbed
military
ascertain
breakdown
King
##ophosphamide
Nov
119
OV
necessity
literacy
salvage
##health
modulates
realistic
##ocyst
##omere
chemo
Fox
sedentary
##orax
dedicated
stepwise
river
investigators
##adication
tors
NPC
Are
FH
autopsy
##irectional
advoc
Prof
MCA
entities
hyal
editing
mirr
Bax
patency
SES
erg
physically
decompression
##quine
magnet
specialists
##inge
ultrasonic
discussions
folate
Cre
##isin
conjunctiv
##artan
isomer
unnec
##tigraphy
skill
Coron
apart
clients
excluding
cod
nitros
polysaccharide
narrative
suspicion
##NAc
Saccharomyces
workplace
GG
pmol
exercises
##unicip
##imes
herbal
trache
##oplast
hemisphere
encapsulated
##luded
##ensic
enhancer
KR
catalysis
##astoma
##uent
117
missed
##anz
extinc
phospho
BE
poisoning
Men
neutrop
##bach
protr
133
FN
projects
definite
gains
expiratory
contextual
WB
proteinuria
pell
##DD
removing
Body
River
couples
plurip
superf
ont
##rd
##SP
introducing
erythemat
##obarb
collaborative
abd
entropy
##epam
toxins
spots
##ern
aggregate
plexus
tomato
York
antihypertensive
##ucl
ds
##oglycan
C6
psychometric
nicotin
thymus
choline
projections
##idel
Trials
spaces
biotin
pyruvate
Act
toxicities
brainstem
##ords
prosp
tensile
##edge
falcip
VO
##electro
chaper
ether
clinicopathological
##utri
##elle
##olipoprotein
deeper
metallic
configurations
iliac
##X1
113
arachid
catheters
uterus
##yrene
viewed
tele
traine
carn
p21
Laboratory
cardiomyocytes
visualized
Lung
E1
locomotor
virtually
FEV1
##ectual
ductal
retardation
SY
lymphaden
angular
rodents
Monte
messenger
Factor
dehydr
Pediatric
##GH
exponential
wash
BV
thiol
unid
##aco
today
accumulate
Brazilian
Anxiety
avian
SLC
ww
##etine
DHA
humoral
##iled
households
generic
machinery
abdomen
##birth
##SC
DOX
dengue
##rotid
CpG
falciparum
assumptions
enroll
##mm
compensation
Prior
disseminated
contaminants
##alanine
opioids
selenium
osteogenic
intron
corpus
aldosterone
##oreceptor
interfaces
reacted
##onymous
duc
##ovsk
Environ
biofilms
warf
sheath
thereafter
propofol
transpl
cytoskeleton
##ullary
##61
plasminogen
documentation
hone
##ativity
BN
ON
shapes
menisc
Survival
addresses
generates
lavage
Glc
PRL
adenovirus
HFD
lipase
hematoma
##sc
##lycemic
infras
adipocytes
accelerate
rigorous
##incter
calls
APP
155
##here
##acaine
manifested
vancomycin
cup
##uling
SCD
bundle
proteasome
microwave
drying
Kr
oxyt
Maxim
##bladder
typing
amorph
ease
energe
repro
surrogate
esophagus
burs
compositions
chip
xenograft
anesthetized
How
##rolimus
Sleep
Ont
regurgitation
SPSS
histopathology
immunoprecipitation
helper
AZ
Consistent
NG
failures
scheduled
##rexate
trif
spray
ensuring
genotyping
apt
Great
stretch
IE
conditional
exceeding
##549
encourage
positron
rationale
Tiss
Dem
driver
##lobulin
##ochastic
microflu
carbox
insomnia
GDM
dentin
HepG2
Stage
##iella
DES
constitutes
equival
Individuals
desorption
percentile
comprises
soon
Bal
MPa
develops
hematological
conjugates
atopic
##ighteen
encode
mot
clustered
##aired
tunnel
funding
livers
Apo
notion
Chrom
xanth
##6A
Cognitive
rearrangement
##72
thermodynamic
##ethanol
Another
VF
##cription
substitutions
combine
originally
##ibrill
cleaved
##agglutin
dodec
##Us
corticosteroid
##osphor
geometr
phospholipids
Rats
backbone
forear
scann
BBB
##yrate
RPE
025
##atite
recurrences
Th2
350
Family
proline
lymphomas
weigh
boundaries
sparing
Bu
moisture
serological
##oflurane
biosynthetic
dislocation
##olk
individualized
counting
##ourse
infused
cholangi
Av
##iesis
##oretic
neoplasia
cc
##taining
eradication
##ogle
B2
##urium
vertebrate
Cx
titer
unlike
##optimal
ign
##rology
proteomic
somewh
Pop
##auss
political
scavenging
ageing
neighborhood
tolerability
inhaled
DB
droplets
linearly
Breast
dichlor
district
unr
Aspergillus
LO
reagent
qRT
##vastatin
Mg2
extinction
##olerance
Method
##VR
##onium
career
endoc
Renal
##01
optimizing
aggression
##infection
unnecessary
natri
TRA
NIH
##obacterial
nocic
realized
sensitized
intramuscular
proteases
rotational
##izable
DEGs
cigarettes
AST
##ault
##otrexate
nickel
##utely
vegetables
##KD
versatile
office
Carlo
##ranean
##utch
escal
nitrite
vibration
Grade
parasitic
Rating
journals
lysis
instances
methane
tubulin
cultivars
primer
discrimin
NGF
Mann
S100
boost
##oud
cofact
##iest
computerized
glucuron
##rely
inability
##amen
Plasmodium
##irium
##ican
pod
consumer
keratinocytes
##ALY
germination
frameworks
inversion
oils
##ordant
##imensional
##udi
beads
islets
broadly
intercellular
revised
##reening
entirely
UP
alloy
style
##isal
Preoperative
RES
Altern
##ulsions
biocompatibility
subtil
##olation
Trad
##odiaz
IMP
ic
##lamyd
##ji
AMD
actually
##D2
Associ
##itz
tracer
hCG
##evement
Commit
methoxy
achievement
Formula
habitats
polarity
polyps
BPD
##iles
imply
polyacrylamide
##wann
electrons
swallow
sphing
Medica
Mi
implies
sides
##entic
XRD
127
700
instrumental
ubiquitous
capacities
intrap
Large
AO
gated
##bred
classify
##tide
killer
KL
adiponectin
https
swine
successive
Lower
cytosol
endotoxin
expertise
cyclophosphamide
arc
012
tolerant
##elia
hydration
##silon
015
##IK
protecting
axillary
package
bending
Previously
noct
Imaging
138
gem
##cell
ClinicalTr
immunoassay
odor
Mice
Carb
microbes
##inesterase
holds
##amino
intellectual
##Hz
Interview
www
preserving
##glycerol
##ania
tightly
chimeric
encephalopathy
overd
catheterization
acetic
epic
anthropometric
##ialdehyde
SAP
subclinical
gent
euth
##empl
preeclampsia
lic
##iterp
postin
anx
fructose
simply
bilayer
humidity
tons
cobal
somewhat
freezing
121
replace
stroma
cyclospor
cosmetic
ros
angioplasty
##onitrile
amputation
formulated
heal
underlie
existed
Special
PAHs
vitre
mismatch
interm
exosomes
elbow
Ann
##onuclease
aiming
Genome
CABG
caudal
231
132
dyes
properly
##onine
##arter
pharmacists
HN
benzene
polarized
cow
camera
roll
interpersonal
mG
##jug
Ver
anter
Scopus
tablets
groundwater
##orphyrin
Outcome
Orth
##rophot
neuroimaging
Perform
##vive
A549
Cong
posttrans
146
plateau
##atization
solve
whereby
initiatives
prescriptions
overexpressing
##aric
restrictions
hysterectomy
##rofloxacin
BCR
neurof
bim
##icious
England
incomp
translated
appl
amorphous
##lated
##ece
weaning
stochastic
Investig
Ultras
breaks
peroxis
##worm
boy
Samples
##iently
##ewise
farms
Community
aberrations
irrigation
unfavorable
rays
cadaver
administrative
contraceptive
##ophilia
heterozyg
liv
1989
reform
Medline
neo
##eted
dielectric
serving
freedom
Caucasian
glioblastoma
DQ
SNA
observer
##ureth
1988
##axia
dilation
flavonoids
##yne
enlargement
duplex
granular
detachment
repression
HBsA
PBM
##±1
##hr
Niger
ascending
whilst
ClinicalTrials
IHC
##omethyl
stool
patches
Severe
TKA
heterologous
accident
##aind
colle
talk
Trial
taxonomic
##test
synthet
Complete
dib
libr
PPV
Key
##nes
##ucleotide
##oflav
FE
GFR
##oke
postural
Nat
##97
##omethacin
penicillin
recommendation
carbonyl
unb
detox
name
sor
subtle
granule
##olism
##oxifen
##52
echocardiographic
nomogram
STE
##ye
##eremia
1beta
Unf
##X2
nail
hypothesize
vasoconstr
##ichi
cue
arous
Main
##itual
##oluble
managers
lncRNA
bromide
phospholipase
survive
CTL
lambda
##oxidase
microbiological
glutam
##quis
distinguishing
gallbladder
stimulatory
emphasized
reality
GPs
##osensory
terminals
##osting
##ilized
##gamma
NIC
diphenyl
NET
Sensitivity
Fourteen
DFS
##100
µm
PDGF
Sem
resultant
cloning
additionally
coexist
##elfare
Medicaid
PMA
dens
##cholesterol
##oping
traditionally
##acrylate
answer
microRNA
texture
Ach
hoc
alive
transcriptase
##umination
ICH
cooperation
striatal
antenatal
vegetation
doctor
PBS
Gd
##ivacaine
tot
##earman
filters
BK
table
##therap
reass
alters
aligned
encouraging
coordinate
Km
Trp
Thr
ingredients
Lactobacillus
ulcerative
thirty
bioinformatics
Nether
##anese
##asp
##omyelitis
##opyran
waiting
warfarin
thymidine
##hom
combines
Saf
amplitudes
multimodal
recycling
##ropo
##ethylation
progressed
truncated
coded
characterizing
##justed
##WH
##oidosis
corresponded
Management
municip
beta1
neuroc
anticipated
##opaedic
dilated
problematic
salinity
scientists
unw
pathogenicity
perfect
forearm
intrauterine
CBF
http
normalization
proteomics
resolve
##apter
sphincter
City
foam
CHO
forensic
##anolol
thickening
BPA
indoor
KS
nationwide
Prac
144
haplotypes
##iterranean
duplication
deficiencies
worm
pacem
spondyl
Smad
##tiles
##itate
suboptimal
analytes
ischaemic
##oxane
13C
##itine
SMD
##fr
hepatocyte
Surprisingly
subpopulations
Average
infrequ
PAI
comprehensively
Mexico
Clinic
BRAF
##idation
##real
Netherlands
##ozyme
conflicting
Down
##inephrine
Trich
Elev
rights
anticoagulant
##igibility
dihydroxy
##irt
ALP
tam
Cap
Initial
##87
FISH
##thrombin
##aterally
##ystic
reserve
##atil
EDTA
collective
segregation
MAC
suppresses
##aterial
micromol
##opy
HBsAg
oligosacchar
faced
elegans
##85
necro
generations
##iguous
puncture
regulations
AEs
dispersed
coastal
calf
##chol
afferent
mechanics
inositol
burnout
laparotomy
Spearman
ascites
Morph
##FAs
cytogenetic
BCG
##cean
gh
##yles
chondrocytes
polyph
nanofib
illustrates
steel
Mem
##ATA
##ubs
Public
##iliated
Mediterranean
##urea
triggering
##iper
photocatalytic
##electron
ERK1
##D4
##luoro
mining
Real
##ereb
jaw
curvature
fly
Google
intakes
arrhythmia
seedlings
##itized
##izers
##opedic
uve
loops
diarrh
##iring
geriatric
thre
typh
##oscope
Demographic
microspheres
nude
trib
victims
undes
##tigm
update
##opres
prototype
endurance
vasculature
##enchyma
##yric
neuropathic
##acheal
osteotomy
##noid
##afen
Combined
##orporeal
##itatively
##oactive
depended
##RE
##ycle
chronically
Mort
breed
Sec
##zo
##tructured
determines
##key
##igenic
delivering
apolipoprotein
##ulic
sport
##inositol
##omavirus
mosa
##thetic
outpatients
##coming
creatine
HRQoL
progenitors
radiologists
##eles
dressing
judged
sparse
##othelial
APO
##brile
serotype
epsilon
hypoglycemia
sterile
uric
mandatory
hyperactivity
Committee
##lers
##WS
unev
##ositis
BAC
##istically
##oneph
##hyd
cast
Super
favourable
expectancy
##esthetic
013
Fisher
##inator
##mp
220
danger
quenching
Occ
buc
amylase
hybrids
HV
FNA
borderline
perovsk
divergent
011
##abolism
appropriately
Normal
PAP
ketamine
exacerbation
Sixteen
depolarization
Fib
wire
parac
##idol
methotrexate
amide
simplified
##house
psychotic
enlarged
VM
pyrid
##urt
PTC
automatically
DMS
##emp
LY
hydrochloride
printed
colonoscopy
HRV
cy
##osamine
Sweden
caution
searches
accessory
exploited
oligodend
DU
IBS
Linear
outflow
germline
postsynaptic
deterg
##tivities
PAD
sputum
insensitive
exons
CSA
##alg
antisense
helped
##71
micelles
occipital
##Pa
##traumatic
tubules
bever
phagocytosis
##ondialdehyde
rip
##ofen
orthodontic
discrepancy
##ara
benzodiaz
##andibular
Prevention
vin
014
cured
##rist
enrollment
##ena
Est
DBS
HSCT
##2O3
##flex
conve
Phyl
##yclonal
##ixed
ing
fractionation
Service
Tissue
##ticals
##opher
cutting
FB
urethral
CLL
Screening
efficiencies
sav
nodule
reinforcement
GAD
oxidant
ECMO
macroscopic
heavily
compromise
##orrect
##icide
dependency
cGMP
spectrophot
##cing
##atheter
##UN
neovascular
extremities
protects
airways
doping
People
Numerous
dextr
infiltrating
##arbonate
##ocysteine
##side
CRS
schemes
journal
emphasizes
contract
niche
necessarily
##ulse
Univariate
varieties
outline
calibr
Rad
CHF
provinc
PDE
splice
PTEN
combat
setup
isomers
weaker
specialty
##roportion
fingerpr
glycolysis
Cy
Thirteen
housing
ozone
freshwater
Ro
##andial
advancement
##oprost
Register
dyspnea
##jury
##ifies
anions
biased
stressed
retain
Descrip
##agonal
016
hamster
Character
##aginal
148
Emergency
overt
instance
pit
##ij
responsibility
explaining
acquire
aggrav
excised
##GN
##oto
leaving
##ynchron
autonom
allerg
CaM
##dis
immunocyt
exclusive
##itonin
mumol
Perc
ce
ICAM
conce
Fe3
closer
radioactivity
Maternal
uncontrolled
hypertherm
##adm
##osphere
##orbol
##anus
spanning
telem
accidents
supernatant
girl
cip
134
DAP
Growth
perturbation
##uth
oncogene
hetero
sweet
Though
CDC
coal
##IM
antipl
THA
##ocysts
AIS
DBP
paraffin
Dys
##umps
compensatory
parenchyma
TIMP
epidermis
necrotic
bright
##iling
donation
constric
##arach
ultrastructural
CIs
##ussion
capital
chlorophyll
##ylline
nos
thaw
bid
##arinic
Mr
reactor
epinephrine
qualitatively
delirium
##ariatric
##oscale
kil
volumetric
Unfortunately
Helic
encephalitis
Lymph
Female
rearrangements
piper
139
bub
Classification
aluminum
##fa
note
cultivated
excitability
Common
broil
VIP
heterod
GN
natriuretic
consciousness
acetylation
rif
ABA
seasons
Ill
Province
suppressive
phthal
outd
immunomodulatory
province
Psyc
parenteral
adaptations
mutual
##ietin
disab
cT
Synd
##oted
theoretically
collecting
F2
##WF
navigation
Pulmonary
artifacts
anisotropy
laryng
sustainability
presumed
possessed
##uod
CD44
die
Groups
parametric
hypothyroidism
Pacific
OB
transportation
CML
commitment
EH
Mat
mas
prere
sigma
reperto
IH
postulated
makers
potato
freeze
scalp
innovation
circulatory
parenting
IOL
RM
##aro
HPA
metaph
normot
thinking
##ulae
intrad
##eliac
##ophilus
IGFBP
preserve
solving
PMN
1987
morphologic
ie
SUV
Mortality
emergent
##FP
##ocol
juice
vacuum
##enses
##ultry
disrupt
corrob
intran
adopt
swimming
##ocryst
Insulin
##orex
010
dysphagia
playing
##romic
malformation
infusions
Circ
dropp
Veter
bony
##89
##itan
radioimmun
Mutations
syring
histidine
vertebrates
mosaic
allelic
vasopressin
PAGE
NLRP3
Fre
ITS
pharmacologic
facile
##ecedented
inhab
atmosphere
ceramic
Activity
##ieties
neuroblastoma
##omide
purity
Bel
microv
Measurements
organelles
Camp
robot
libraries
Den
manufactur
amen
##inkage
palmit
lenses
surviving
Dig
##oxon
worksh
siblings
retest
Fin
Od
relapsed
##uns
electroencephal
##wing
attentional
EX
searching
erythematosus
##otechnology
immunostaining
approximation
##ogeny
thirds
residential
ras
master
UTR
collapse
benzyl
appendic
maximize
totally
meningi
velocities
sorting
noradrenaline
disproportion
lamina
Instead
documents
Kle
torque
Sil
##pe
babies
##ford
inference
##ortem
1985
osteoclast
ly
game
eastern
glycoproteins
prey
multifunctional
EQ
adenine
microRNAs
analytic
018
diffus
nested
indeed
elemental
Nit
Diagnosis
horn
##atectomy
Multivariable
bla
##osex
neurotransmitter
indomethacin
neurodevelopmental
Near
originated
##IST
##CM
adducts
redund
##riting
willingness
##orectal
##ensable
warming
sugars
Part
fos
convenience
quartile
##oselective
disk
##riage
neutropenia
worth
vibrational
crack
PRP
synthetase
##amicin
##la
osteosarcoma
unprecedented
norms
cryopres
##obi
suited
lifesp
Flow
##ju
grew
illumination
##ofil
##uronic
evaluates
##oni
neurodegeneration
##idelity
board
replicated
batteries
##Co
solitary
music
microfluidic
##iatry
pix
Angi
unm
##idi
##inities
purch
ho
##arried
chemokines
##icl
thrombotic
Structural
hematologic
bioch
##uspid
malondialdehyde
pelvis
Joh
EO
PCL
nanoc
Stress
##efined
PAF
##entanyl
nanomaterials
moral
nanow
lymphocytic
intramolecular
µM
anomaly
Mich
##AST
permits
pars
Dutch
017
##isson
intrath
PCS
oxytocin
void
dimers
addi
FO
maze
legis
multifact
palate
suitability
linker
landmark
agglutin
comprise
##hepatic
chapter
##CH
raising
nanotubes
corresponds
abiotic
##ama
bisphosph
Guid
##osom
1R
facing
dominance
Estim
##eptidase
##genesis
incen
Repe
##augh
adherent
##zes
##leting
discontinued
AAA
transplants
##rete
##erin
hypothermia
phone
PsycI
ARDS
##omm
##idden
##tebral
CTA
proteome
poultry
Prec
##ocardial
preferential
lignin
bonded
Whit
Polym
Pen
mineralization
attenuate
hypertrophic
##tebr
dependently
cotton
##olith
transported
##anch
observers
Descriptive
printing
polyclonal
welfare
##etite
collateral
corrobor
radioactive
immunogenicity
calor
tears
Gauss
##ifferentiated
foster
labour
conformations
##oichi
leave
stabilizing
carboxy
pad
0000
Overex
##ket
CYP2
##AT1
erythropo
trap
CBT
##S1
2A
Ech
agree
topological
##enoic
plaus
midw
ADA
BG
diseased
##ritical
TNBC
nocturnal
##cephalus
##modulin
informative
wake
rhy
##itum
##ky
TRI
##IO
smear
quarter
Vitamin
oligonucleotide
manus
references
raises
##equent
CPR
came
veterinary
inpatients
##atrol
duoden
LVEF
hamper
colloidal
screws
AAV
occasionally
brachial
orbit
##idym
stenting
Neg
Relative
Histological
propranolol
biodiversity
subtilis
nont
μmol
##vular
reviewers
enteric
everyday
143
replicate
internalization
cf
condensation
eligibility
daytime
##ophores
septum
PLC
pyramidal
##odi
microstructure
reoperation
monolayers
satellite
shortened
lidocaine
##KA
##ouracil
Rb
erosion
##uzumab
elabor
paradox
inexp
gamb
##Br
trav
##ussis
clarified
PKA
accompanying
##forward
residency
ASC
RL
Chlor
##well
gathered
rDNA
pyrim
acidosis
seaw
##icate
symmetric
##veratrol
opposed
convers
sorption
annually
Oper
nephrectomy
abrog
##del
HCl
arousal
##etheless
##aceous
136
polysaccharides
monomers
##elastic
microl
CW
Inflamm
minimizing
polypeptides
Clostr
##ete
##ituximab
deacet
ward
panc
silicone
Last
IG
guiding
lipoproteins
selectin
associate
Fab
##hospital
Sol
sensation
methan
Subsequent
##omorphic
NL
##istine
demyel
quercetin
Education
seques
medias
attained
DLB
##oter
genotyped
charges
dodecyl
##ectomies
clade
stopped
constitutively
Whole
triaz
##istries
rapamycin
##cale
Saudi
trabecular
microsatellite
nanostructures
cyclohex
PDA
cholecystectomy
Kn
transducer
chemoradi
steatosis
emulsion
Identification
dystrophy
pools
reciprocal
salmon
##axial
Tn
##ulants
trainees
##athers
lacks
statins
suggestions
##ionate
1986
haemoglobin
fibrotic
vasculitis
##pa
incis
patent
Heter
##iop
durations
##MCs
##UD
HNS
##teem
168
##oxetine
##Tc
ultimate
pauc
disadvantages
lifespan
skeleton
moieties
##ortal
WS
CsA
adher
##duction
CCA
##ua
142
title
infrastructure
eV
senti
##estock
firm
mediastinal
imid
ESI
orthopedic
Mor
mimicking
Pak
agencies
pores
terres
terat
PGF
periph
increment
biogenesis
valves
##ocations
missense
##oxone
undergoes
##kinin
##istin
rein
conjugation
dextran
##ymp
##ensing
##chool
metalloproteinase
##hR
jump
##erver
##itish
##param
hydrocarbons
arachidonic
implying
myocytes
astroc
cobalt
Poisson
##ications
theta
biphasic
cil
histopathologic
cooperative
waveform
SAH
reprogramm
BRCA1
extends
##essional
displaying
Eighteen
exud
##oderma
abstin
thromboembolism
bank
febrile
discharg
caring
litter
corticosterone
polyphen
##ithromycin
cass
##othermal
##therapy
C18
ideas
eosinophils
Activation
##inflammation
electromy
contraind
constrained
rhinitis
CD11
ss
infancy
altitude
LAS
proliferating
radiolab
twins
##orh
independence
##nic
##bles
##osexual
##unctional
Swedish
pesticide
153
PCV
acknow
ciprofloxacin
Leishman
Gh
columns
grains
##PSCs
friends
biases
treadm
island
telomere
analogous
##nar
somatostatin
FK
##ocortical
##imab
RG
continuum
alleviated
peers
histories
ethics
##idge
homogeneity
##evity
Russ
obviously
aetiology
sacc
H3K
undergraduate
carbohydrates
Haem
antidepressants
calculating
##ondii
supine
##inis
Stroke
Levels
methylene
##evac
##tillation
##RCC
vinyl
plantar
gastroenter
Lewis
guar
inexpensive
convergence
conception
preceded
competent
AChE
##F3
gliomas
Air
##uminal
Water
contour
MPs
thalamus
##idia
##thms
arterio
alginate
acetab
microtubules
feelings
Pregn
microglial
141
stoichi
autonomy
149
transit
spatiotemporal
##istan
paralysis
PARP
##omotion
School
Performance
##amol
oss
dots
m3
RNAi
##TT
Eastern
triplet
##ACS
##actions
radiography
##eterm
BCL
choose
reactivation
##acterium
##tipation
deduced
Altogether
Pf
##izz
Cat
strip
overestim
packing
effluent
CMR
desire
encapsulation
fidelity
CA1
Pap
org
##FF
marital
refined
multifactorial
PDAC
##arate
branching
vegetable
mucus
##pecies
cage
soph
Adverse
adversely
photosens
imprin
emerge
##aze
##prandial
sheets
##vation
assignment
##pine
Neuro
tamoxifen
##UC
TPA
phenylalanine
declines
inverted
##bp
threonine
stores
quantifying
allergens
##ulins
touch
programming
fluorescein
mutational
##adium
endocytosis
Fus
grafted
##ymethyl
Nursing
arbitr
##rolase
##ront
##Ag
##iax
##AN
morphologically
measurable
##DF
Rapid
continuity
##erum
vox
introduces
electrophoretic
copolymer
arises
tibia
Elevated
##relin
NY
parasit
intravascular
Phylogenetic
notic
melting
L2
##othorax
branched
treadmill
Longitudinal
compares
##insulin
NADH
Target
aur
ingu
scintigraphy
##uates
tetracycline
publicly
CYP3A
positioned
choroidal
NH2
calmodulin
epidemiologic
rhythms
neurotoxicity
3rd
##oste
##plicity
saving
AFP
##son
EI
Chemical
livestock
EPA
nanocryst
huge
audi
harvesting
Overexpression
coatings
Lp
galactose
disappearance
OCD
thalass
dealing
Adoles
synchronous
##ofrequency
advancing
##com
workflow
##L2
LBP
flood
distortion
Electron
Mes
##pi
lists
trapping
anaemia
staphyl
##okinase
adjunct
##imeter
pull
ICA
appoint
stated
amniotic
superfamily
econom
transferrin
Therapy
methylated
##peritoneal
##iomy
cylind
serotypes
##74
Dietary
Effects
angiographic
neurotrophic
slice
##KY
Enterobacter
environmentally
##BP1
epididym
mP
##organization
harboring
titration
##evacizumab
##ucosal
packed
##oluminescence
##pinning
unmet
##Hs
##BF
potentiation
1a
Significantly
von
subtr
labelling
##ustion
##ken
Once
stabilize
polyn
formalin
##uber
Gaussian
##AI
##96
##DR
Syndrome
thio
ovari
radiology
Perip
bag
manganese
disposition
175
nose
gastrectomy
mediation
recre
divertic
synapt
Sk
myofib
phosphatidylinositol
microsomes
##azolium
penetrating
##achlor
S2
KRAS
transcriptomic
explains
endocarditis
Src
Cycl
Helicobacter
hypercholesterol
photosynthesis
##auma
speaking
Whitney
GVHD
MAS
esteem
eNOS
dispersal
probabilities
electromagnetic
mandible
uniqu
encounter
contractility
DSS
##ugg
WC
bifurc
cing
opportunistic
E3
discrepancies
pec
randomization
inheritance
jun
cred
monkey
prostheses
interdisciplinary
##ERT
hemodynamics
##eminal
PTX
transiently
Pat
radiologic
affinities
casein
ileum
##arrhythm
suspended
##iana
interne
normotensive
##AP1
##ophagy
periphery
fentanyl
flies
Reporting
directional
outlined
##acute
bact
coherent
PHA
##osteric
2nd
senior
##iguing
hypo
##abies
##innitus
subscales
##evant
stretching
nanoscale
Vascular
##x1
aided
Auth
##osoma
cornea
bariatric
Anim
019
NHS
NO2
PTP
360
anionic
antin
Project
NPY
Concentr
alternate
supram
perturbations
tunable
Therapeutic
undetectable
##ocrit
##ochlor
SSc
testes
freely
adjustments
CIN
longevity
monocyt
eyel
characters
OX
pedicle
ferroptosis
carcinogenic
twelve
asthmatic
Nutrition
osteoblasts
##amins
operate
##ini
packaging
Obesity
##kal
##ario
ensemble
tocopher
NV
p16
periv
##actone
squares
religious
splitting
workload
antiplatelet
metac
900
charts
troponin
layered
capill
ataxia
Qualitative
##lofen
##afenib
##eliness
advancements
unin
##cranial
dwelling
oxo
exclude
##orrhea
Rou
##vix
union
richness
ecology
desens
Older
approximate
messages
implicit
convert
ESRD
kHz
supervised
consolidation
belongs
##ionucl
MSM
##olys
##eving
scanner
##ercise
##eteen
inferred
##imurium
Complex
DOI
##orum
knees
imperative
reb
##osper
prostatectomy
string
IMR
emphasizing
posture
consultations
unsaturated
##state
pertussis
##x2
British
sho
gonadotropin
Student
Kingdom
tablet
165
Xenop
sew
oblig
##trate
inguinal
##cope
PCP
MOF
substitute
pacemaker
roughness
terrestrial
thigh
GER
rheumatic
medullary
neighboring
##imil
isometric
fibrils
midline
##F4
newer
Systemic
triphosphate
##CO2
agriculture
flows
PRIS
Ref
##wes
diethyl
152
##romised
ameliorated
tetrahydro
##astr
##get
broth
Enh
certainty
multin
maturity
dissip
prerequis
Th17
1alpha
sarcopenia
vehicles
MALDI
practitioner
##abd
Animals
Healthcare
carc
##itivities
IK
compressive
nin
##utation
1D
covalently
Mil
repeatedly
acutely
endoph
triang
##assays
spiral
laparoscopy
##operoxidase
hydroxyp
##through
instrumentation
achieves
tolu
granulocyte
gondii
indole
TP53
sacrificed
microsomal
##uistic
tidal
##ulent
Open
impression
selen
##onephritis
biog
keeping
presynaptic
interconn
noticed
Xenopus
Klebs
##lysis
320
##omn
electrocatal
##ffee
seminal
pluripotent
bicarbonate
##idth
##aturing
bill
predisposition
##P4
dyslipidemia
QTL
##oliosis
Hom
stap
##resp
revolution
tilt
beef
Expl
##FGF
##atable
##FI
##ultural
##pot
extrav
##oxib
MIP
insignificant
devast
EUS
uniformly
genomics
##ago
stems
interl
177
Aim
overlo
gar
Indep
sulphate
##hem
price
tracts
MMS
IPV
simplex
##ictor
invited
autonomous
neutralization
147
ORs
##ifl
Biom
psychopathology
##olol
158
Top
Alcoh
degrading
Hip
##ci
physiologically
##DC
overs
##osclerosis
client
##itoneally
basement
Glyc
bridging
transgene
accr
CCT
##ocele
O3
condom
filtering
##ishes
workforce
##ogonal
188
repertoire
carbap
Simultaneous
Response
incorrect
EBP
##esi
Az
endothelin
cannabin
##iaceae
##atial
FG
##ophenyl
bactericidal
##phone
regimes
pharmacology
strengthen
grating
papillomavirus
gentamicin
molars
##being
zoon
CPT
gases
constipation
modulators
##acetic
##nam
##observer
##iotics
Potential
park
OSCC
##imentin
hemolytic
Third
##oreceptors
adrenoceptor
ALK
potentiated
##Ss
##ipar
cholest
ascorbic
##itonitis
CBD
AFM
versions
straw
eIF
silent
##ilum
##acycl
Prom
fric
corrosion
Klebsiella
amines
##gestive
Fed
opac
crystallization
##4A
concentrate
##UL
##NN
##1R
##uents
piglets
CBCT
hyperm
menopausal
##odextr
biosensor
HSA
TCM
##ocus
##omegalovirus
worked
ROM
spacer
medically
transpos
shifting
econ
intent
HTLV
nu
subcl
disturbed
remn
comprehension
Mt
ended
crest
##life
##kary
Correlation
stably
cleaning
desm
Leishmania
230
HGF
##azolam
coronal
Safety
##ogroup
SCA
carboxylic
offset
alongside
San
##ammon
##enous
pict
LTP
loos
##uli
beams
therapists
gad
mechanically
vena
sedimentation
convolution
tonic
ovulation
UL
156
cited
oval
morphogenesis
extracorporeal
##oassay
##agl
##aque
topology
muscarinic
rhod
osteoblast
standardised
earliest
intermolecular
Cron
##ibrio
##irm
DVT
len
ischaemia
arteriovenous
reinforced
goats
parox
swallowing
files
coat
GWAS
statistic
Lo
monocytogenes
algae
intolerance
##itness
Hypert
insoluble
154
frames
##entified
##arachnoid
shoot
homocysteine
naloxone
Plant
vitreous
##Net
buccal
forty
preschool
fur
##aea
destro
Lef
##PSC
empower
strictly
ureteral
##ulous
##level
carbonate
##ersed
shedding
CINA
Diseases
##ECs
BNP
osse
sophistic
Dif
adiposity
##terone
discriminant
endometrium
##ignant
medulla
fundus
##roline
spiritual
NO3
B12
secreting
erythroid
Loss
##width
porosity
propyl
##opoiesis
1A
spores
ups
concrete
distinction
companies
##geons
savings
haemorrhage
##itt
sciatic
dropped
computing
ESCC
attendance
##adec
##riers
##ott
##obia
Sah
menopause
writing
##atility
##tron
carcass
##oct
deleted
##citabine
##epr
farmers
veterans
STEMI
easier
visually
##olia
gate
displaced
primates
Nigeria
PBMC
alarm
thoroughly
NSAIDs
chloroplast
descriptions
retinoic
##B3
ovaries
##itates
cervix
1970
misdiagn
starvation
investment
##py
cellul
grip
annotation
SAM
##NI
infective
figures
##night
##vern
Crypt
##ropine
##tistic
switched
parity
metabolomics
cohes
ICI
integrative
tuned
considers
Sea
QALY
##YP
verification
progeny
tagged
##ailing
centrifugation
leukemic
radionucl
neuroph
stric
Pretreatment
ALD
readers
CINAHL
microp
industries
Gast
nif
quantitation
mimics
cyclooxygenase
passed
COD
nucleoside
mm2
carries
sarcoidosis
postprandial
vent
warning
places
Free
nasopharyngeal
stressful
##iley
##onent
##apatite
##omatosis
utilizes
thymic
phorbol
pneumococcal
seropositive
##ropol
MAT
debrid
##outs
cytoskeletal
disin
##aliana
uncomplicated
orthopaedic
##atisfaction
puberty
HOMA
293
costly
virulent
exempl
Thromb
Good
proteolysis
FX
ranked
Application
sitting
suspensions
Green
##otaxis
##asion
Cu2
RNase
effectors
belonged
actu
##abr
cloud
parenchymal
plain
ns
calp
intraperitoneally
##edullary
3T3
grey
rituximab
opens
lacked
tremor
021
thaliana
db
feces
solved
diagr
dere
rT
portions
##etts
trigeminal
transparent
##amers
##icted
##omegaly
flowering
##iva
pover
spastic
nationally
poverty
Environmental
nodular
##ander
cofactor
deaf
H4
##amid
guarant
probing
##ensors
notice
helping
tang
dehydration
antiserum
##west
supervision
subcutaneously
##istering
fibro
##aded
##oalveolar
stock
perovskite
transfusions
peritonitis
Gi
##orin
congr
uninfected
##94
fifty
devastating
WA
##quilibrium
##thermal
visualize
Determ
bevacizumab
deployment
##allic
listed
flanking
##uer
creat
shaping
##2a
##ano
Traditional
inception
##SO
prolapse
##SR
paucity
parotid
strengthening
gau
rescued
##NTR
##×10
##awa
harvest
Regression
entering
Ra
Controlled
bread
##erine
permeation
##ancreatic
reprogramming
CD14
Phen
Tel
##76
outst
##obarbital
##inin
measles
episodic
sulfide
friction
##erse
photoc
monophosphate
##ocomial
Centre
H2S
favored
alternating
##vertebral
rectum
forec
inflammasome
Immunohistochemical
IX
##ocarcinomas
ran
Cardiovascular
arthroscopic
HNSCC
exceed
##onad
CD45
##rupted
TW
symptomatology
MHz
Lang
penile
incidences
023
zeta
##actants
tinnitus
wing
Sign
##rys
Severity
Island
anthropogenic
NH4
ophthalmic
detergent
##apr
Mb
151
coagul
prospects
ideation
immunocompromised
impuls
Cas9
Decre
##ulo
urgently
##tenosis
economy
recognizing
280
repetition
R1
baby
Abeta
holding
lysozyme
ba
mosquitoes
chitin
interested
coffee
##imotor
##oxication
ancient
RAR
prompted
##imburs
Almost
##oplasts
posttraumatic
sativ
lutein
aggregated
projected
wellbeing
CPB
##icile
discharges
iterative
Eg
FMD
##eria
glucocorticoids
owners
apex
192
SRS
extrinsic
valence
##uliar
##Ig
modular
B6
hub
Prevalence
mammography
aesthetic
acclim
##atching
anorex
encompassing
##kes
superiority
digit
##olymers
biore
oxides
acetonitrile
locomotion
doing
destabil
hollow
NGS
export
abstract
##ira
##olipids
mitosis
classifier
Isra
Tox
##iline
anastomotic
##algia
cavities
deemed
##UR
nucleation
LOD
Ax
conductive
labels
kPa
##eratin
subarachnoid
##p1
Students
Prog
##ublic
sphere
congestive
CGRP
##zz
Tub
##gus
##rofen
##holder
uncovered
shrinkage
Introduction
Sus
REM
SQ
Computed
Off
imposed
##H3
catch
Peri
outstanding
##opharm
nematode
radiofrequency
##entation
burns
ligase
feet
crossing
##ovol
culturally
telomerase
Unit
straightforward
CD40
024
neurogenesis
till
meals
Rab
cava
abstinence
elution
detoxification
CAC
semiconductor
advantageous
legs
besides
laws
unexplained
regards
WBC
##amides
##inar
##HI
APA
Cohort
ALA
##rologic
portable
Surveillance
Tum
Mu
concurrently
reconstructions
ellip
obsc
Fos
##91
equipped
Conventional
biochar
cos
neutron
linearity
oligomers
##ahed
lies
022
##TM
##att
pups
##uclein
checklist
lockdown
VII
Therm
##isations
plausible
Jour
##omain
GBS
##plicating
undifferentiated
Nurses
modulator
colocal
hypothetic
somatosensory
Surface
Do
cooper
normative
PBMCs
odont
##5A
iodide
pyridine
dipole
Ontario
primed
##PM
ash
N1
270
Weight
engaging
crow
ticks
##gran
inspired
compatibility
##erapamil
cope
anthocyan
tracing
VIII
##FE
##ankton
liquids
thousand
##rogl
intoxication
additives
##oys
anaphyl
justif
##onation
cave
Zr
punc
immunologic
pipeline
##aponic
carbam
productive
uroth
##va
turned
##entions
Respiratory
##emoral
##k1
##olars
viewing
##nity
fing
##acetate
##atom
arranged
##otri
Ho
emitting
predominance
##otoxins
##glut
biophysical
##garis
endors
evolve
FGFR
eliminating
trophic
METH
exacerbations
##pray
guanine
resveratrol
sensitivities
peculiar
AVP
washing
##atism
gaining
##ORT
arrival
##ypsin
Bacterial
cavern
leiomy
ribosome
rifamp
destructive
##eptor
regressions
TX
##ensed
malt
capillaries
##otherm
counselling
atrium
ghrelin
brady
Seventeen
020
oligomer
##CI
Cases
couple
safer
supplementary
Clostridium
dynamical
##B4
dichro
NHL
GPCR
hemangi
##NCE
##berry
neglected
Natural
Cronbach
MCT
bacteremia
##ION
##fen
covers
salic
##athyroidism
explanations
impairs
Recomm
blunt
##xine
##acements
mirror
##eptin
exacerbated
collision
statements
prolongation
Clus
##heum
laminin
eukaryotes
encouraged
COS
subclass
##eit
oligonucleotides
ESR
hydrocarbon
vulgaris
innervation
fluxes
Las
nigr
flora
neuropsychiatric
bulb
consequent
ulnar
underscore
difficile
spectrometer
##book
Skin
##inous
PY
wine
Distr
reimburs
neuroinflammation
vitamins
Preliminary
Peripheral
methicillin
lumin
beet
##aicin
ANP
Om
##inescent
##oves
myopia
phil
smallest
ileal
GAP
##imilar
methyltransferase
##ogue
pitch
nonr
##rometry
alkaloids
pericardial
##FV
MSI
diabetics
028
##illar
Republic
Nonetheless
absorp
sounds
RAP
grid
tin
disclosed
ears
##±2
cirrhotic
Tregs
aids
##ecu
tomographic
dying
Head
T1D
mannose
##icked
interruption
hydrod
##optic
monomeric
nonm
##ophylline
decid
##ineral
##aryl
recognised
fluorouracil
priorities
postmortem
##cern
orange
PIC
wavelengths
cingulate
fossa
depolar
opinions
silk
Kd
sophisticated
anomalous
business
##acers
CPP
augment
supramolecular
strategic
##FR
Ethi
paternal
EPR
##T2
recap
manually
##adem
orn
frog
##words
flavonoid
99mTc
subcortical
answered
elevations
PRISMA
##edes
reaches
Actin
microcirc
outgrowth
cu
Ethiopia
annotated
##wich
##ailand
polyd
SLN
mitigation
##light
PLGA
engr
resections
dot
##imetic
##erals
ventilatory
repeatability
civ
schist
##93
occupation
videos
olds
microns
gating
synthes
encounters
##HE
##astically
comment
illumin
ducts
plasmon
##umm
CH3
duodenum
install
scoliosis
TRPV
Deep
GABAergic
1984
Rob
probiotics
HK
amyloidosis
ib
prime
##ortium
scattered
##ifiers
phosphodies
PCB
CNT
indisp
EHR
hyperthermia
precondition
tuber
tack
SGA
ribonucle
sensorimotor
157
Fer
transformations
Util
OK
EGC
solids
metam
intercal
TMD
motone
predisposing
facilitators
inspiratory
##ham
audit
Danish
realize
globulin
Resid
Binding
HEK
DMSO
standardization
conferred
districts
choosing
narc
contributor
Wall
##MM
lon
deliveries
027
##ING
CXCR4
##ilin
##oprote
allosteric
OVA
partitioning
restenosis
helic
uveitis
syph
deprived
occupied
lasted
emptying
assemblies
occasions
olive
internet
defibrill
kJ
brush
biomaterials
peaked
leukaemia
Tb
MEK
##rophin
##osterior
Implications
##MPs
japonic
harmonic
##rals
luminescence
##idus
Leg
edges
AgNPs
Observ
##uty
quit
supplied
##etaxel
diarrhoea
hept
governing
##bul
authentic
260
vigorous
Infection
radioimmunoassay
outdoor
##jac
sciences
DWI
worr
##imid
Mitochondr
topography
Coronary
gemcitabine
2a
orch
cryo
chromium
climatic
Stre
assimil
debridement
##absorption
nanocomposite
182
KT
Cry
fibrom
Physicians
evap
exceptional
instructions
sister
hepatectomy
Comparative
catalyzes
Glut
specificities
ESBL
##drug
permitted
QDs
synuclein
EMS
Urinary
Left
transd
##overy
##lamydia
##NEL
CFTR
neurocognitive
brachy
hydrocephalus
Novel
subpopulation
Likewise
inequalities
##OG
shut
breakthrough
oest
calorimetry
##unted
HRT
##optotic
pK
Light
##hu
breeds
disciplines
##imers
tymp
##cens
constituent
ameliorate
obstacles
##anyl
horse
san
##opril
CNN
comes
feel
ventilator
SiO2
supernatants
societal
migratory
##acies
unsuccessful
psycho
Services
biodegradable
looking
lot
p65
constituted
TME
bundles
##ogaster
FAS
repaired
##enone
##kyl
Oncology
MPO
B3
isotherm
##cholinesterase
Barr
alcohols
hydrophob
Ly
##ocic
H⋯
completing
moved
Symptoms
computation
Alcohol
##agues
Detection
cyclosporine
≥1
married
hypop
nosocomial
##hou
Swiss
dith
folds
sectors
Py
pest
159
RANK
hazardous
Sb
##ibli
##oviruses
Vol
acted
warrant
sentinel
Abnormal
hardness
convergent
Strateg
POD
##istingu
Less
##aked
##ima
catast
##ARS
lobes
hips
##ioc
205
##oxylin
oncological
prokary
Associations
TMS
etiologies
psychotherapy
falling
multidimensional
facilitation
Particular
Eps
GFAP
underestimated
##oglycans
Thailand
##oproliferative
vimentin
maneu
fails
Population
##BE
PFC
STI
Arter
##84
invertebr
VAT
appendicitis
unsu
rotavirus
forests
acknowled
tried
cytomegalovirus
Strong
aneu
##iagn
uniquely
sonography
##KO
creates
fathers
ATCC
ruptured
tocopherol
##otocin
possessing
Sequence
adenylate
cubic
##atured
Pal
xenografts
026
orthogonal
##lusal
oesophageal
ram
NN
operatively
going
##co
##uncil
manipulated
manuscript
dosages
##atoxin
##airs
reasoning
Negative
##orphic
##NFO
provinces
enorm
immunogenic
SERS
Dex
hyperth
MPA
Hol
Improvement
185
##itoneum
##C3
162
albeit
FVC
##HT
diploid
damaging
TAC
LIN
Disorder
prematur
##anda
##ometabolic
Materials
174
zyg
Bur
renewal
transitional
##OV
##olor
##opid
quies
voltamm
##oupling
cores
##LL
TUNEL
hypothetical
heteroc
County
chimer
Nuclear
educators
Maximum
unequ
worker
intrahepatic
hidden
resembling
Wilc
indigenous
unt
mastectomy
modifiable
hots
Mechanistically
##ulinum
execution
##con
dichroism
harmon
Ultrasound
authorities
alert
disaster
##ecutively
debr
comparatively
tubule
untrans
Complications
thousands
twofold
##amphetamine
##entre
keto
carnitine
lactamase
holistic
Continuous
pouch
##tegration
visited
degrade
KCl
autoimmunity
##NG
biocomp
disparity
Across
##retin
beats
dysm
195
##uteal
informal
##atally
immunoblotting
antidi
greenhouse
181
##plasm
message
Norway
appetite
indispensable
oroph
inspection
PED
interacted
dendrites
lymphoblastic
phytochemical
Veterans
remediation
kinematics
EPO
##best
Healthy
Lear
swabs
Saharan
Possible
CREB
##bing
##je
SCN
##ume
##irs
patterning
worst
plei
crosslink
Injury
wearing
ciliary
Disability
ADR
##tinent
BPH
acetabular
##600
Lastly
antiproliferative
Neut
##thrombotic
emphys
seawater
##ogrel
##cm
amphetamine
##vert
##otherapies
adenocarcinomas
reconstituted
metagen
morphometric
lambs
adjunctive
noncoding
##etent
##ypti
neurones
##SM
minerals
##onge
checked
navig
##orphine
bronchi
Aer
Prol
##RF
Effective
##unch
bilaterally
Derm
ECs
shot
##athic
intentions
residing
elasticity
tent
yolk
preventable
glycosylated
164
Period
eosinophilic
L3
delineate
Phil
psychiatry
maintains
sickle
confirmatory
triage
vesicular
##pose
##erating
confers
corrects
restorations
EC50
glucan
Greater
CH4
flower
nev
lactose
PVA
anode
localize
Platelet
nonh
Hand
pie
atl
Liter
substituents
##HV
prednisone
parap
appearing
contig
##ponsive
##aund
tunn
##esthesia
STZ
NASH
primate
5D
pollutant
POP
clav
adduct
##amilton
##unsaturated
##AB
collections
Rac
##okes
fairly
##dens
drawback
##arn
naphth
steep
bFGF
prerequisite
HSC
##oproter
defer
nonf
tricuspid
ecc
synergistically
supers
##120
subscale
Dental
cTn
MACE
##iximab
Prob
H1N1
##olinium
##oxazole
##issive
##ognition
equine
planes
Guidelines
overlooked
##bur
ultrason
χ2
SOX
Rhod
Dou
CD25
prednisolone
Clinicians
backgrounds
replacing
neurob
consecutively
Atlantic
Portug
##ulators
subsp
sandwich
LAD
neglect
occult
thrombolysis
restrictive
##luorescent
nanor
Journal
mAbs
##aec
absorbance
soy
assume
synchronization
immersion
Randomized
ECT
gravity
##ophenol
Compreh
tensor
cathode
##cemia
##oresistance
chew
solute
telemedicine
controversy
##hesus
##atit
POC
phosphatidylcholine
bad
RFLP
advent
##arose
##ronate
psychology
recoveries
750
fulfilled
Hamilton
##ectile
Wilcoxon
UTI
spong
capsules
avenues
cathepsin
rhabd
hydrolys
Internal
1982
islands
ORF
moments
glutamic
endos
explicitly
##anous
nanoshe
##onates
##L3
extensor
cruciate
##albumin
afl
exit
activators
##etra
sequentially
##okines
Comparing
##acylglycerol
polyphenols
sevent
##han
trypan
parv
##BNP
thalamic
AND
Arc
##86
TCGA
aneuploid
declining
dissected
166
##phi
herbiv
VEGFR
acne
##ibb
restoring
Malays
Nineteen
##edipine
refers
diurnal
coordinates
els
thromboembolic
ranking
incl
##PG
QRS
##aptive
##oxal
atropine
##litazone
deph
syphilis
##ystall
##udin
gins
dentate
Parents
Mini
Sciences
Disorders
heightened
chaperone
dentists
Reviews
##osecond
##ifera
##EK
mGlu
##ylobacter
decarboxyl
blindness
##otheli
nephrot
euthan
Viet
RIP
##ancers
Combining
colleagues
proteinase
Sex
Gel
##tz
Measurement
Metabolic
ocean
##estation
threats
Lapa
Toll
capsid
##atized
hindered
035
overdose
##lative
coming
daugh
smears
arbitrary
Mexican
##ifers
dysregulated
repressed
uncertainties
Tex
##ARC
book
IPF
##ardiac
##oproterenol
barley
##okine
IgG4
abstracts
Successful
electrocardiogram
antagonistic
##ca
##arring
flo
##157
sixth
PUFA
unidentified
surprisingly
terminated
morbidities
tow
Daily
Fail
Nd
Virus
##aban
sorb
Animal
##ectral
SMC
grand
Genes
tends
##alth
electrospray
CTX
energetic
##igms
serous
CYP2C
cam
invent
DRG
PrEP
thr
verapamil
IMT
store
##92
##ker
incidental
##82
pointed
##opidogrel
endoscop
##ropr
melanogaster
264
##ygl
bidirectional
Cur
##cessing
exhaustion
nociceptive
G3
father
UG
transcranial
neighbour
initiative
Middle
Flu
##ospec
##osphorylation
##tilled
##iens
##odia
APS
204
wearable
##odextrin
UI
##lea
##ropolitan
predictable
DCM
analgesics
reconstructive
cyclop
167
spasm
##eastern
SAS
voxel
pyrene
capsular
histocompatibility
Subgroup
##acia
161
225
outlines
##H2O
Cov
satur
paradigms
translate
monoc
##SE
handed
SSA
##stry
DSC
ventilated
compensate
transfers
##aplastic
##onclusive
##abilistic
referrals
TMA
##epid
capsaicin
ANG
##entful
tacrolimus
196
Reduction
underscores
CNV
durable
1500
PCNA
bioactivity
##roscopically
Tim
filtered
fellows
warrants
Turkey
drives
ancestral
oxy
breaking
##revalence
tro
originate
##ensory
multilevel
registries
##certained
contrad
speciation
disrupting
supplemental
##IKV
Independent
Lake
Gold
##Ga
deuter
PCT
Methyl
##83
H7
That
eleven
##rew
determinations
163
denitr
anorexia
abrogated
##itants
honey
ACR
neovascularization
DLBCL
deformities
autistic
gonadal
##arians
##mu
ribose
schedules
micropartic
docetaxel
hampered
coexistence
jaund
hardware
##isters
##nem
##encl
##azing
Active
multifocal
Centers
scanned
granulosa
##ett
oligosaccharides
preparing
sutures
unexplored
##tizing
Cop
uneventful
Arth
ascertained
incorporates
oedema
Hel
polyunsaturated
Ber
IO
##erally
gaze
hydroxide
preex
wait
ATG
pter
STS
CPAP
county
172
beha
strips
subacute
societies
extrusion
##idis
cotrans
##ashes
##orphin
flour
retroperitoneal
##endicular
##IG
interpreting
palp
inducer
1983
healed
Supplement
inconclusive
Recommend
fen
Fil
infectivity
ton
trimethyl
interven
discs
ternary
A3
wedge
##ava
fermented
##vitamin
Ant
notes
macroc
anisotropic
##erents
infrequent
shallow
mist
vagal
hamsters
clot
restraint
trapped
pertaining
##icides
##ozotocin
cha
Aden
##etom
##remia
##ka
Vacc
hyperal
lake
aggress
Regional
assuming
Scholar
imaged
reserved
explos
rim
Lab
approached
##ximal
incomplet
legislation
aldehyde
Well
intracerebral
disclosure
gastritis
THP
GlcNAc
syncy
zoonotic
adhesions
equity
Council
contraception
relates
##icrobials
wards
##pos
worsened
competency
pertinent
##rical
##atched
Vietnam
surfactants
leishman
Exercise
fluctuation
impossible
utero
##olaryng
##ishable
ingested
029
cd
##urred
lytic
##king
repressor
Region
tether
evaporation
##rowing
reader
Advanced
rho
##Me
##iazol
coum
Ken
176
contrasting
folic
##anum
##oplankton
##chem
torsion
prion
L5
gauge
##can
ACP
perceive
karyotype
aper
##rophyl
voc
slaugh
##unn
##RR
GMP
pep
objectively
TRAIL
Fram
hundreds
epist
statement
Subst
alkali
distraction
183
participates
##p2
##formed
remodelling
carbapenem
THC
##HRH
Remark
##ineural
##inone
sigmoid
HRQOL
sponge
ubiquitination
occlusal
lich
LC3
##olis
SSI
diluted
≥2
citiz
drops
hematocrit
NH3
203
##field
tactile
##actable
oblique
motions
##N4
##olded
squared
TAP
tal
OL
bandwidth
STR
vegetative
adds
sewage
galactosidase
prel
drastically
rotator
cryp
funded
Area
##adays
186
factorial
proxy
##stalk
DMP
neurogenic
Arm
DSA
shortly
pneumon
##titutional
TO
##itreal
SCLC
choles
pole
TMP
##lable
reorganization
TNM
diode
zirc
wheel
##ATP
##MSC
GERD
meiotic
nonun
durability
##igo
##02
##minth
ALI
wavegu
debris
1b
connecting
primitive
##yrib
AS1
analyte
opened
elucidating
Wiley
##adone
handle
##agglutinin
TNFα
fus
economically
##ewhere
G4
##BB
##udine
##imethyl
hydroxyapatite
constructing
lysosomes
PPD
V1
##noea
Rece
SIRT1
RAW
##GG
Tryp
Imple
Cdc
homozyg
synapse
ortholog
motivated
boron
toluene
Ty
unless
antisera
antagonism
seriously
Comparisons
cock
marketing
discussing
169
jug
##len
temporally
Mad
202
##ocytoma
PEI
##adesh
##oting
lethality
##odermal
##oneg
##ormally
demanding
secrete
Immunohistochemistry
pM
APOE
billion
Gln
##ovalent
222
acetone
luteal
inward
embryogenesis
##atisfactory
strands
eyelid
##eresis
nanocomposites
##AE
MoS2
innerv
tremend
G6
calibrated
##uzi
circumfer
interneurons
linole
glandular
MPS
drift
reviewing
physics
##PL
globin
Que
nicotinic
Tri
stacking
##otracheal
##cience
##juana
ordering
refinement
perpendicular
##ei
032
etiological
hydrophobicity
178
CTC
##romagnetic
MSA
Recomb
IMRT
homogenates
##enedi
HMGB1
CDI
Extensive
##ami
antimicrobials
technically
Stat
Acet
bird
212
##trials
##ammonium
adipocyte
Detailed
##ofibr
ferment
Equ
digestibility
electrolytes
flowers
##oxins
DIC
carotene
secure
2H
scoping
pharyngeal
nigra
chief
##oa
223
witness
gum
##hydrop
Computer
##tii
Epstein
subl
smartphone
vasoconstriction
Until
forebrain
conting
chemop
yog
catecholamine
implantable
genotoxic
rash
annealing
##ictive
ISO
filamentous
rostr
##utrient
##WI
secretions
VLDL
Comprehensive
holes
bioc
Design
Pakistan
##atrogenic
##oventricular
SMI
agarose
phagocytic
overnight
categorical
Ts
ses
ORR
stro
implication
elsewhere
afforded
chicks
weather
Ste
##antile
Mer
equil
Failure
NAME
##plicates
oestr
stern
##eller
##uption
reproduce
Han
scene
UVB
Ky
RBCs
transg
numerically
operon
figure
RNF
RFA
##reement
##iple
hemostasis
##lora
chemotaxis
Support
MRS
enormous
functionalization
counties
adsorbent
synergy
##ERS
Respond
confusion
deployed
neuropeptide
reflectance
Fusarium
tender
##ellate
bibli
disposal
##aceutical
##ML
##arous
attainment
surrounded
##aval
##erculous
multicentre
coarse
receptive
answers
##kines
flexor
##QI
##aminophen
INS
explants
##essel
PCC
collectively
##acea
cancerous
Interventions
Sph
##gesia
Wa
##enicol
rew
quadru
Nearly
Earth
refuge
DAS
prodrug
##ysmal
auxin
rounds
redistribution
CD16
unre
teen
##fo
templates
recapit
##itations
Taking
5th
Vibrio
vicinity
reticul
simulating
##ficially
##adine
##edict
##b2
footpr
subfamily
ejac
buffered
193
brachytherapy
wealth
hydrothermal
lessons
##ozapine
colorimetric
chambers
HEV
TRH
Ter
hypercal
##ESS
PMS
photographs
bear
pixel
Late
glycans
Tor
workshop
saw
Muscle
myo
Poor
CLA
##oconversion
resemble
Add
036
##ashing
paths
##actam
antipsychotics
184
206
Denmark
##transferases
intraepithelial
##lamed
##oned
dispersive
pharmacotherapy
prepro
VH
empathy
##pA
##ishment
spiked
kits
latex
discriminating
eradic
erectile
interests
psychiatr
excreted
homeostatic
workup
loneliness
infect
Tem
inacc
centred
lentiv
crosstalk
Streptom
##orrhiz
173
combustion
register
HSCs
morphologies
prur
171
##istinguishable
Neurop
memories
glycan
##2B
##phase
catalyze
begins
exploit
##ieu
031
ampicillin
Hong
045
clopidogrel
##rosine
##arith
Union
##oselectivity
##arijuana
Endoscopic
Arabia
##oelastic
descriptors
toxicological
photoreceptor
shortage
fove
DTP
2024
keywords
##oporous
##icated
##aminidase
ARF
GSK
##oris
epithelia
Immune
dynamically
Bangl
conjunctival
Accurate
##uprofen
CD20
lept
alpha1
##OLD
##etitive
Gastro
instant
occupancy
urothelial
##operidol
Ile
anchor
sett
##icine
4th
hypn
PsycINFO
mutagenic
adopting
Pg
destroy
lex
214
microplastic
patellar
corpor
reconstruct
incompletely
##dehydes
thalassemia
hydra
##ingly
anchored
isoproterenol
CD13
hop
pyrrol
##tisone
spore
myx
##estin
##oplatin
scarc
emphysema
Peak
sixty
purine
Amb
accumulating
dict
suppl
Practice
##leb
inev
disinfection
binge
arabin
##ocyanate
cruzi
competencies
Enterococcus
erythema
atri
rater
proBNP
seroprevalence
2b
outputs
semin
##Ti
phylogeny
histi
##umulation
hemolysis
DMD
sit
jaundice
relapses
popularity
##ystyrene
##itely
##recogn
photodynamic
elucidation
Monit
cardiometabolic
photoelectron
orientations
##apoptotic
discern
bronchoalveolar
Learning
lect
HRP
posed
enteral
masked
ascribed
speeds
##aumann
pancreat
Training
Task
Electro
Arch
PCBs
##azepine
Cost
GLUT
Repeated
MMR
ionizing
brad
##VECs
bare
034
slides
traction
exome
##dU
inconsist
conference
RFS
Schwann
peroxisome
burdens
##EGG
pictures
Found
nifedipine
ferric
ILD
Univers
empl
Criter
bupivacaine
phosphoryl
shelf
##81
awake
cascades
probabilistic
rainfall
dereg
##imumab
##onergic
037
Record
WR
##uconazole
Flor
ERP
GPR
Behavioral
##repres
hairpin
relapsing
transth
##terolateral
##anthin
linguistic
fractionated
NOD
attenuates
think
decompens
Les
spacing
Lister
MAO
##odeox
indistinguishable
Campylobacter
counterpart
##omeres
Oxid
##ileptic
##ectoral
celiac
decarboxylase
gastrin
empty
caudate
##rov
RAD
TCA
##SCs
##yridine
##ethanolamine
catabolism
UF
incidents
ewes
##eased
electrophys
empirically
1981
readiness
adver
Tf
streptozotocin
freshly
KEGG
disag
stereotactic
desensitization
shares
mitigating
infiltrate
ordinary
antinocic
##ilance
bite
dilem
##oposide
##una
washout
visu
valvular
ATR
calcitonin
photonic
exciting
suspicious
qualified
craniofacial
##p3
PCD
inbred
elite
bifurcation
##nee
##endel
LPA
187
decided
MBP
##employ
rock
Check
autoradi
256
unpredict
##missions
spermatogenesis
hus
##axin
diversification
cytometric
evac
defence
SNR
succinate
heads
##istant
cream
mm3
invasiveness
UR
##osoph
fingers
centrom
leaching
devoid
crim
PrP
herd
performs
intricate
embedding
##ijing
SVM
powered
beverages
escalation
##1p
Enc
##LM
overp
Limited
L4
##annabin
myofibrobl
arres
Monitoring
formaldehyde
ber
paste
abrupt
labile
##astuzumab
protons
radiograph
##homogene
Phosph
genotypic
038
ulceration
wise
microin
Fe3O4
classifications
bedside
##ado
Hepatitis
cadaveric
##activated
ICG
Hepat
rumen
incub
Card
##CLUS
Att
porphyrin
pairing
macromolecules
##chemic
appraisal
constraint
compensated
Micros
##erom
som
Poland
committee
amphiph
rhesus
Initially
amenable
oscillatory
dies
fistulas
##cor
stricture
##uated
##kephal
nanocrystals
##aceted
anhydr
inclusions
PJ
Fig
quater
Kidne
##obium
otitis
acidification
##dig
spikes
averaging
2R
taurine
Now
bean
fluoro
##tific
##opsin
gout
Recommendations
phe
vap
intractable
interrupted
Ple
tips
##itories
ADL
##osomiasis
ISR
##ondon
afferents
Differential
CPA
epig
Partial
##ophosphor
blo
zo
##icacy
m6A
analyzes
occluded
narrowing
Agency
Like
H5
neurosurgical
##pic
046
latencies
Clinically
Artic
goat
048
##cedural
Purpose
sarcomas
Optim
Identifying
##DCS
VDR
UDP
specification
impacting
216
Beck
##menting
##400
scatter
Caco
β2
adequacy
usability
SCT
theme
##onasal
Reduced
agency
halluc
cargo
conflicts
##elvic
inflamed
179
TSP
6J
jet
Streptomyces
mindfulness
Biological
##uab
reimbursement
abscesses
##trated
hydrolase
sequestration
221
devised
integrates
GPI
transparency
imagery
##125
033
employs
trough
##parag
##aca
bit
pS
ka
Fluorescence
≥3
##anging
IgG1
hens
rods
isotopic
equivalents
unve
##entioned
Rates
Magn
Princ
00001
##Cr
classroom
allografts
trachea
educated
hyperpar
CONCLUS
##Ab
Anth
aptamer
##isted
multip
r2
invariant
Radiation
intral
Access
helices
pleth
thoughts
gangli
AMR
opto
##anting
##I2
geometries
anthrac
radiosens
##riceps
beat
contributors
DEX
prothrombin
campaigns
intranasal
##adjusted
push
2B
Image
rubber
##atars
hsa
##rosy
cm3
neurite
GATA
GTPase
GDP
eut
logarith
biomolecules
inequality
Kv
nonsm
biodegradation
bioassay
##acl
##etomidine
longest
jugular
Gle
##KI
##thalm
MICs
4D
algal
marijuana
Literature
glucosidase
meetings
cylindrical
biocompatible
##obutyric
said
reservoirs
reconstitution
assemble
rendered
##ultured
##entanil
##ACs
producers
pharmacodynamic
assesses
Rheum
##ogs
begun
dangerous
BMT
Cyp
sickness
reads
Agg
dysfunctional
EAE
##utions
AuNPs
##graphic
retaining
bridges
##562
pectin
complaint
cocc
prioritiz
##uabain
federal
##ocystis
##othiaz
teacher
MYC
##rows
nanofibers
BMSCs
##ODS
Scot
##urning
traps
eat
##ithiasis
##aned
benzo
los
thermo
chemotactic
unfolding
moderated
physiotherapy
immigrants
VPA
crosslinking
methadone
depths
MMPs
Intensive
stic
atresia
multifaceted
Rhiz
groove
Sexual
##WD
stations
Very
vasodilation
##Health
pairwise
anticoagulants
erythromycin
atrioventricular
ct
sustaining
##ostat
canals
nephritis
metabolized
strokes
CPS
recreational
Remarkably
##ported
Brown
constriction
##ortin
ceramide
thyroidectomy
basolateral
photothermal
endo
polystyrene
hydroxylation
Dynamic
constantly
tert
Acid
judgment
##atergic
N2O
occlud
roughly
faecalis
elongated
μL
analyzer
instit
advers
##urition
Diss
amplic
pem
##WL
orthotopic
paracrine
receipt
syng
Cellular
cytological
Markov
operators
Trypan
##ropin
##kinje
Surgeons
dysfunctions
208
cel
pean
24h
##1B
Trauma
iatrogenic
Vmax
mush
singleton
cooking
Electronic
##ellosis
CMC
generalization
topois
GSE
BAT
##vium
metron
pharmacist
maxill
myocarditis
##ivocal
##electronic
Histopathological
##inatorial
MIS
zym
Purkinje
expectation
Concentrations
accordingly
##ipal
039
covariance
wherein
SVR
motivational
##ipramine
Interleukin
Contrary
privacy
DPP
baumann
untranslated
##ositi
drawing
COL
melanin
axes
foraging
alloys
convolutional
substantia
##othelioma
proposal
influential
##pir
MCC
architectures
bloodstream
Prostate
047
genders
Resistance
consul
osmol
osteogenesis
scarring
hypercholesterolemia
evening
Graph
hyperinsulin
reti
##orthy
B7
debil
midazolam
##MG
Pneum
194
reared
##opropyl
##iginal
dams
doubling
intimate
superconduc
##urrence
hydrodynamic
##obility
mushroom
hyperlipidemia
commens
serotonergic
ancestry
nanowires
ITP
submucosal
fuc
immortal
LED
##eners
supra
DTI
Hypertension
oxalate
osteoporotic
damages
YAG
butyrate
Gluc
headaches
##onat
TACE
oscillation
insert
eclampsia
##ateness
##roat
staged
transcatheter
enthal
Cerebral
lying
##ronchial
granulomatous
##itrate
CQ
baumannii
##uro
##olymph
##une
209
Incidence
ECL
Beijing
advertis
melanomas
placing
coenzyme
PPARγ
Diabetic
contacted
MMC
sibling
que
Kong
Alpha
##idene
##oretin
PQ
initio
mortem
marginally
DPPH
Press
underpinning
cardiomyocyte
biochemistry
intravitreal
thyroxine
EPI
330
nematodes
Condition
KC
##aris
pigmented
##normally
estrogens
abundances
remainder
ingredient
##oxicillin
methacrylate
0005
##oron
beta2
MX
glomerulonephritis
##Si
##osyn
##emide
advis
OVX
##UP
doubled
dimerization
##otericin
AHR
IPA
Glucose
diazepam
vertebrae
infertile
Acin
establishes
##±3
Mont
##ymm
Asc
##SO4
P2X
etoposide
anger
intraclass
Mach
epoxy
gluten
pharmaceuticals
##yseal
dermis
DAT
mounted
HAART
Generally
herpesvirus
asbest
PBL
osteomyelitis
overcoming
extern
mesoporous
##western
Fu
paw
pineal
phosphodiesterase
Ka
##rosthetic
haloperidol
biotic
Attention
intriguing
FFA
obliter
Indones
Gyn
multist
preexisting
hepatoma
##emias
omics
blastocyst
monoph
nearby
Motor
##eor
Atlas
TMJ
socially
PRA
isoflurane
associates
##whel
mobil
pherom
##uresis
NPV
microarrays
chemoradiotherapy
homeless
##ivided
letter
Odds
formulas
chlorine
pneumothorax
Scanning
##ospasm
insecurity
AMPA
##arone
loosening
Shig
RANKL
##asth
necrotizing
weighting
215
leach
Asn
Ever
nt
PSD
##apillary
Zn2
p27
Hemat
Ug
##ype
scalable
hydraulic
##loxacin
##ophor
cephalospor
##ulph
rhamn
risky
Joint
failing
HUVECs
Phyt
uncon
clades
fatality
##D420
Ib
##amphenicol
##onvuls
deceased
confinement
##imod
bradykinin
Doc
kernel
PSS
lining
herds
Gre
jejunum
clonidine
flavor
unemploy
CSC
##his
trout
anaesthetic
TCP
CRD420
parkinson
MMSE
mildly
chym
concomitantly
attribute
rigidity
dimeric
189
eros
AUD
Tax
Ger
imatinib
retraction
FAP
acetaminophen
intu
positional
permeable
##right
dissociated
Spinal
ready
Hepatic
insem
Dose
##uris
##epileptic
persists
##esophag
##immune
##arity
carboplatin
tendons
##ecia
acetylcholinesterase
dorm
broiler
steadily
Foundation
##etting
reproduced
ip
practicing
Fat
nanosheets
Half
##aventricular
clinicopathologic
intrathecal
chose
ocul
radiolabeled
##ael
injecting
##itzer
##urethral
compute
heteros
blank
airborne
##f1
paramount
arrested
analysing
doll
ERCP
Objectives
##apsed
latit
##radi
mold
##artum
monoxide
PC12
eruption
misuse
plug
transposition
Being
heroin
benefici
##κB
Norw
CTS
scap
coral
symmetrical
lt
skew
accessing
rectus
Il
##fin
##trypt
Indigenous
eic
##chicine
##fect
Depending
glutamatergic
Auto
##iased
elementary
2C
mec
##ignment
copolymers
##phosphate
Nico
LMI
benzodiazepine
resembles
paroxysmal
weaken
administering
syncope
Dev
assurance
Ke
Instr
##parametric
crossed
cytokeratin
##H4
##easts
##vised
##isure
facet
autoreg
fossil
caloric
Kit
##quinone
##ingual
Term
birthweight
##cel
serov
teg
spheres
##Al
Listeria
Kidney
trimeth
191
211
inhomogene
ori
digested
ut
midbrain
nap
pathologists
EGCG
hyperparathyroidism
leishmaniasis
philosoph
hepatotoxicity
##ofemoral
depress
Du
207
isoelectric
insecticide
##apeptide
PTB
dividing
##V1
ANC
tDCS
clues
XPS
exertion
##osurgery
trophoblast
Dox
##iparous
##bens
storm
elastase
##uitr
arrangements
##ibrom
kV
neurotransmission
GCS
mutans
fission
prison
##Te
fluoroscopy
TGFβ
PBD
insertions
Aging
neurotoxic
lobectomy
##pred
evaluable
LTC
situated
migrate
##fully
##In
##iabetic
##N3
cholera
apple
CMT
row
London
Param
##ecrosis
liposome
042
contradict
tremendous
##izziness
##nm
choroid
Dir
VOCs
duty
compass
readmissions
Lipid
##ivir
quadrup
anatom
erythropoietin
segmented
clay
styles
communicate
astrocyt
##uctal
glycolytic
obstacle
inqu
Isolated
certified
ibuprofen
fusions
DENV
##onatal
specialties
##yrid
superimp
gadolinium
occlusive
telehealth
SGLT
Max
Gleason
Gli
##yzed
C3H
anxi
reu
schizophrenic
##a1
PER
judgments
cardior
##izability
Beta
##yglucose
polycystic
##ocene
website
##anat
pyrimidine
ABL
steric
seeded
##uridine
##otonic
Full
connect
radiomics
gambling
ABP
##ireless
smoked
phages
immunoglobulins
osteoclasts
TLR2
238
##thesis
##PER
SPR
##timulated
steroidal
##alis
PFAS
shaft
salient
##recognized
tann
K562
rendering
049
thermally
correlating
passing
autophagic
ascorbate
##arenal
rabies
myrist
discriminative
Inclusion
##GL
##arboxylic
backward
Cohen
clozapine
etching
compulsive
cheese
readings
aa
##etobacter
paralleled
commonest
request
0002
ambiguous
accumbens
pointing
tetram
oxygenase
nAC
radiol
chin
unal
overwhel
##azo
capacitance
PSC
ATM
manipulations
fabricate
TSA
##130
halogen
catecholamines
accessed
DOC
##etus
Recombinant
cet
CSS
##itives
supposed
##phenol
##aka
proceeds
##ylephrine
Ia
arose
firstly
heated
CTLA
Fac
ts
Brief
CFA
218
engraft
distorted
harbor
weighing
drinkers
##healthy
pedig
mannitol
MCL
naphthal
5000
Wol
combinatorial
Muc
##azepam
rostral
accelerating
043
stratum
reticular
##astatic
340
plasmonic
PMMA
QS
RY
##algae
##opeptidase
EZ
##ynch
viscoelastic
Authors
justified
modal
pT
metropolitan
theophylline
abnormally
Vir
minus
IVC
pigmentation
committed
kyph
hes
##ipolar
##101
quadriceps
KA
##sulf
alleviating
mucinous
##idinium
Owing
whites
Inflammatory
O157
ROP
ventricul
bcl
relational
arsen
LRR
Sox
paramagnetic
JAK2
lipophilic
Lat
EMR
iris
Prefer
CES
##habd
1B
pubertal
##fection
Compounds
Typh
scars
cryopreservation
LOX
remnant
suction
Death
rhabdomy
Acinetobacter
msec
##rosome
lose
T0
CCl
proliferator
Responses
presently
mesang
PSMA
Spontaneous
relieve
microparticles
transduced
Finland
denervation
226
synchronized
##asant
nig
trastuzumab
Calcium
TGA
homologue
resolving
miscar
HCM
xenob
indol
041
##ominant
WD
Tetr
electrically
worms
PSP
carers
dystonia
##EE
Myocardial
IAP
epiph
##remic
10th
##tail
Intravenous
panic
##mo
##iluminescence
impulse
stigm
##ARs
##itudinally
polluted
##micron
resis
##vinyl
eluting
detectors
neurotransmitters
Biochemical
violent
##roducts
territory
synthesizing
streams
##harose
simulator
##Ks
unresectable
hit
##earing
##VS
artifact
##Man
##atech
representatives
NICU
victimization
ultraf
Israel
##ulence
PEP
##abdominal
emulsions
preconditioning
##idomide
##erus
##inia
WW
##300
ACE2
##umina
curing
exped
counted
bod
hook
PVP
ouabain
##ocutaneous
##enton
UD
Fund
dipl
thyrot
PROS
##gut
##onegative
Selective
antagonized
millions
landmarks
##optosis
predator
ERG
foramen
alph
irritation
burning
sialic
lasers
subdivided
wax
civil
##oinositi
##erged
leprosy
##olization
Sert
hi
##acillin
nearest
FAD
pill
MRA
##aki
aminoglyc
shrimp
glycosyl
##ellulose
bioge
immunocompetent
##escent
qualities
Energy
denaturation
##board
##TI
hypoplasia
##eprazole
##attr
##etization
yeasts
##arf
##alo
justice
##IONS
##odys
junctional
mimicked
linoleic
slowing
bivariate
compartmental
##annel
tank
##neas
ultrastructure
astigm
##retory
lactating
booster
intras
biosensors
childbirth
ancest
bubble
DRB1
Kyoto
Knock
BCVA
Ku
##iet
lamellar
##ocyanine
MOFs
payment
Microb
disadvantage
nest
snow
##agmatic
Switzer
discoveries
Emerging
oncologic
Sj
Optimal
oxidizing
Genomic
enantiomers
CSCs
##abeled
expense
preclud
##Ch
##eri
Concer
cp
##tigo
policym
glia
USP
##oxan
##odeoxy
##uronal
Switzerland
observing
fertilizer
030
minimized
##enh
##BV
##otypically
resum
inotropic
##meth
aldehydes
audio
immunocytochemistry
lax
pumps
intervertebral
Receiver
spending
orches
concordant
##renorphine
fascia
synt
290
Iron
epile
##alt
##bu
##akary
Glas
amoxicillin
complexation
AUR
innovations
Technology
##osylation
##olones
therapist
drinks
capturing
brings
evolutionarily
thread
rotating
##ometrically
cassette
throat
Bangladesh
550
crystallographic
##ahepatic
trifluor
sevoflurane
Rank
criminal
requested
Stimulation
leaflet
##othing
emitted
##anter
##urized
brack
gynecologic
##optera
heterozygosity
hospitalisation
unaltered
phi
##rier
acetyltransferase
CCI
##urface
Belg
##articular
Spect
NCC
##overn
folded
Blue
Sertoli
closest
MLC
SJ
aromatase
Michael
Biol
##ymic
vice
helminth
##insically
Digital
##olide
pond
explanatory
Lu
leader
debated
##osulf
priori
glycosamin
##imine
Burk
municipal
BCS
wildlife
collagenase
affiliated
233
1979
expenditures
##aplasia
correspondence
governed
cyclodextrin
edible
pathologically
Adip
ventricles
inclusive
##acetyl
defines
##onception
##oglobulin
##omandibular
letters
versa
pyroph
##aneurys
NEC
Laparoscopic
V2
fishes
Firstly
infecting
nad
manure
premenopausal
motile
##iplatin
oleic
needles
Finn
##oprotection
HBe
thinning
sacral
QTc
metalloproteinases
HRs
coexisting
simplicity
ICS
anticonvuls
Sample
Pc
screens
bradycardia
hypoglyc
308
compromising
##uitry
##tir
PLA2
piezo
##tica
redundant
iner
##otecan
laying
hyaluronic
diphosphate
rTMS
flame
##kinase
##bryonic
quadratic
##iatricians
##odine
divalent
occasional
##epines
photod
preparedness
herniation
influenzae
referring
224
HCMV
cannabinoid
SCID
chir
sonographic
pathogenetic
thymocytes
astrocyte
grazing
Apart
pleiotropic
granulocytes
returning
official
bee
lamp
Muller
3000
endonuclease
governance
##ophene
KCN
evidences
##olase
retinol
S6
asparag
perivascular
vasoactive
ossification
infantile
thoracotomy
TIA
Except
##ULTS
##obile
chorionic
clotting
Core
unsatisfactory
Behavior
mountain
succe
malad
##CE
hydrolyzed
213
scavenger
235
##acrimal
375
##took
##cus
caesarean
quiescent
##activities
argued
psoriatic
codons
forsk
intima
PGE
benth
transaminase
##espiratory
retarded
voltammetry
##iro
SPE
##odynamically
photosensitiz
skilled
unpredictable
furthermore
WKY
Modified
Asthm
sterol
##uoden
macrol
RESULTS
ISS
lakes
esterase
T7
##kinesia
speculate
accommodate
##planned
Critical
##iensis
leisure
sativa
Alter
PLS
##fly
##kephalin
incentives
##coholic
##osterol
##medetomidine
upward
Pit
terp
abut
gastroc
##MB
##arsh
amphib
census
acrylic
Much
panels
dichotom
CLI
chloroquine
rC
GAS
Iranian
##istein
Schiz
cuc
##NE
outlet
Items
bilayers
Measures
sle
momentum
Transcription
economical
abdom
Rati
intercourse
strugg
##ilt
##oencephal
Efficacy
Irel
Respondents
sliding
computationally
proj
undertook
predefined
TTP
fluoroquin
debilitating
hyperalgesia
##lational
Plus
Criteria
Ireland
NCs
graduate
calcified
reflective
Statistically
NAT
Star
##licit
asbestos
whee
BrdU
antidiab
interior
Theory
Home
chewing
player
P2Y
imprinted
topoisomerase
##ptotic
chloramphenicol
Step
Tib
pigments
##200
Oxidative
renewable
alf
unbiased
##junction
cancell
IRR
420
Valu
deer
chord
Rot
310
quaternary
lichen
Texas
##ementioned
##tiometry
fertile
##trained
shRNA
365
dural
Neonatal
dissipation
Dual
chori
mycobacterial
morphogenetic
dizziness
emuls
mediastin
graduates
##ecoxib
##aP
Programm
rhythmic
reuptake
resonant
carotenoids
macromolecular
Antim
unhealthy
inductive
stature
EDS
drawbacks
interconnected
contaminant
Recovery
ni
neurophysiological
closing
apps
Progn
pupil
Double
cavernous
Congen
proceed
reductive
Advances
Ray
##adow
scaled
298
neuroscience
afor
longitudinally
Illumina
generator
##gow
##idate
SO2
CH2
phenylephrine
##acetamol
epidemics
games
exceeds
##ostom
aforementioned
insecticides
##arrhythmic
humeral
Mixed
Tool
Pancreatic
annular
diastere
##iner
##oagulation
JAK
historically
ovariectomized
rhizosphere
inhabitants
##opeptide
polycyclic
enj
cilia
Trk
044
peg
temperate
try
splenectomy
##ositivity
flash
propionate
Kinetic
schwann
refine
##artz
radionuclide
Any
Commission
washed
ADM
manufacturers
denture
Rs
Gastric
inventory
Shan
limbic
Sodium
chloroform
##inic
##ocalcin
recanal
valpro
forskolin
hap
##orvastatin
Combination
M3
engraftment
amphotericin
Minim
volunteer
disabled
217
intersection
Glasgow
manufactured
##nisolone
bottlen
pun
##uman
nephrotic
recognizes
ABI
Epidemiological
##access
##omatis
sorafenib
devoted
##iagnosed
##iphatic
bark
opposing
##orhabd
utilisation
myopathy
Bro
##ometers
cortices
reasonably
Hi
impulsivity
bovis
HSD
accidental
broken
fuzz
hexagonal
Taq
cinn
254
##c2
eluted
metastas
infiltrates
globe
##assemb
gallst
##yryl
nc
classifying
##onor
Influ
counteract
##umber
232
dentistry
##etan
hierarchy
diversion
Turkish
SSRI
##vac
marks
##ras
injectable
runs
CDs
implicate
tuberc
glucopyran
photoper
extracting
CFS
Mitochondrial
tracheostomy
meniscus
HHV
outperformed
TIL
PTA
internalized
instillation
micronucle
haemodynamic
unfolded
harbour
Board
##change
pericard
##enoids
listening
BCC
posttreatment
FITC
Obst
Cob
quinone
lymphadenopathy
RBD
eco
nitroph
##ytical
oropharyngeal
HCWs
Enhanced
##prop
Euro
##ithine
interpretations
##esiologists
endotracheal
bromo
mW
antithrombotic
##enza
Hp
ruled
##adex
Likert
ACA
subtraction
farming
##avers
Chile
asph
circRNAs
ICT
valued
sinuses
partnership
transloc
clinicaltrials
liposomal
imported
gingivalis
Chlamydia
hatching
MCS
##april
pyrolysis
##dh
DNMT
neonate
myogenic
##amilies
questioned
##ometrial
microcirculation
Theore
##icketts
LIF
##biosis
impregn
epicardial
conduit
inoculum
Childhood
deteriorated
Ministry
concludes
1960
pyel
##eneic
ensures
ketone
##asin
lie
##aques
##rochanter
ecz
tar
##ceptive
controllable
heritability
##ogluc
learners
peanut
manipulate
meiosis
##c1
enucle
basin
preinc
##aC
condensed
Tod
RU
Native
atrophic
locking
##oprop
blunted
encl
caregiving
##293
discipline
botulinum
##D6
reflexes
Colomb
cyanide
logic
restorative
##ofuran
delineated
larynx
##X3
##ozin
##KS
Impact
##achol
##aut
Systems
##ambiguous
photochemical
circumferential
##muir
fiss
hematoxylin
1200
RIA
dosimetry
OPN
Kir
wireless
##ran
INR
MWC
sinusoidal
##hedral
congestion
vacuoles
carriage
intramedullary
##peridone
outward
CDDP
auxiliary
MBC
##eto
saph
##otin
##yotrophic
photoluminescence
##imate
##analysis
preferable
pulsatile
Panel
nevertheless
castration
LINC
citizens
##antine
absorptiometry
TAS
##uded
Mendel
##okers
DXA
nuclease
IAA
Congenital
trisomy
guarantee
TJ
nyst
POS
deeply
Langmuir
mutually
##oS
EIA
##arine
##pecial
histochemical
separating
glutamyl
mitogenic
harness
floral
Sepharose
etiologic
heterosexual
acinar
spines
profoundly
##ticism
pine
##elected
deals
##nemius
TLC
culturing
antiepileptic
wanted
electronics
cultivar
phenanth
semiqu
##uin
granuloma
mesangial
housed
illicit
SET
##ycop
fundament
GAL
Smoking
GIS
lengthening
Without
env
preca
##trac
trachomatis
specially
colonized
click
mastitis
complemented
##illes
##argin
distilled
gastroesophageal
##XS
linkages
Der
##igand
Epidemiology
ECD
phthalate
##accharide
exagg
E6
arthroscopy
appropriateness
soleus
Especially
fragile
destin
germinal
Polic
positives
CMS
autumn
##agers
entrap
##itidis
Lack
##odyn
undesirable
##Bank
voiding
##iglycer
hyperthyroidism
##onged
metronidazole
discordant
diaphragmatic
Basic
##opar
arthrop
conservatively
lymphadenectomy
Cle
EDs
Cmax
##anthine
##days
tertile
punct
stance
antioxidative
Rat
##opecia
leukotri
amplify
lingual
Erb
acquiring
35S
##intervention
rins
Pregnancy
anonymous
##rops
noticeable
##ycycline
cutic
Vit
Transform
##oney
ridge
snake
insult
Certain
Mill
looked
hyaluron
relied
interrel
##yron
grap
carpal
correcting
FRET
yearly
mesothelioma
seeks
getting
3β
##opolym
circuitry
anxious
unresolved
##retion
migrants
##odopa
resembled
sleepiness
causality
Intraoperative
sad
eccentric
RET
nicotinamide
junior
##enders
urgency
AHI
meningioma
##eping
vitrectomy
##lep
Bm
##ceived
HCs
tetanus
continuation
airflow
Kenya
##ila
chemoattr
relatedness
Knee
lysates
hT
cytosine
practically
aliphatic
megakary
##icals
Comple
FAK
B16
##A4
Correlations
##orphism
persistently
hsp
complained
NRS
fluoxetine
Search
##otstr
machines
Ae
Tm
cognate
centrally
precipitated
##otrans
bleomycin
oesophag
##phos
Land
Reli
RSD
Adults
urtic
Mechanical
Secondly
controller
##ref
##GTT
Laser
websites
Particularly
CIP
Tat
pir
purely
predispose
necessitating
##uel
masking
Asthma
chondro
LUAD
bees
17A
emergencies
##oplasmosis
##rodesis
microbe
##eptives
unambiguous
NPS
titres
metaplasia
communications
##tists
oncogenes
doubt
BO
identities
osseous
want
Eye
##ivirus
##oning
##iflozin
Infants
fuzzy
hydroper
fragmented
adhere
DTPA
Lym
derivation
myeloperoxidase
chemopre
homologs
interobserver
retrovirus
apoE
colchicine
acidity
integrins
##ulary
Color
##implantation
##adenosine
##K4
##glyc
RGD
metabolically
##plate
TKI
##wood
ppb
midwives
1975
ICSI
##180
SMR
Week
diagram
condyl
##jiang
##orie
SDF
banding
##aud
emerges
unwanted
went
organelle
##lofenac
##kinetic
##ympathetic
adrenaline
rifampicin
Excess
IRS
Wales
CAG
BZ
cDNAs
turning
WH
##urus
introns
multilayer
Fall
bursts
##ooled
diuretic
##ourished
applies
amend
exactly
aeg
hyperint
##utter
compressed
rearing
pellets
sink
##ucine
##elta
##capes
exploiting
prevailing
zeol
SCS
nephrotoxicity
blend
maternity
hemostatic
NZ
##oremed
##astig
zoster
contraceptives
piece
obscure
plastid
bead
Regard
##ahedral
intrinsically
##oxyc
##gluc
Occup
disabling
glomeruli
magnetization
SAT
DHEA
Bioinform
beneficiaries
infliximab
KP
strengthened
Ghana
oestrogen
tables
assimilation
##R3
render
Existing
immunophen
foli
##atumoral
##rement
Fetal
customized
##foot
haematological
Td
unified
Ultim
##omib
starts
Moderate
sleeping
Thyroid
jejunal
anaphylaxis
identifiable
311
approaching
optimally
distinctly
scru
outperforms
predators
Ley
228
stillbirth
methamphetamine
carotenoid
cyclization
##AX
exocytosis
anesthetics
inert
meningiomas
##ille
unrecognized
enjoy
##onide
Seph
reacting
3a
1978
Improved
primord
Gender
aperture
fumig
serology
cardiorespiratory
typhimurium
bout
mS
##opamine
Tre
eventual
HAP
ripening
undiagnosed
mitigated
sympath
foetal
##NB
gastrocnemius
rarity
##yalgia
Working
unravel
shoots
Diet
##burgh
Dele
##ademy
mainst
seedling
sharply
twitch
rheological
Rather
aerial
SIV
concussion
Nep
nonad
cystectomy
retroviral
androgens
##regulation
substituent
communicating
##ospecific
Lac
antimal
##avirin
furn
##acral
confid
OI
glycosides
##iters
avenue
##oxidation
membranous
merits
##lich
pragmatic
accred
compliant
favoring
universities
##ocap
milieu
Caspase
diminish
##brand
syngeneic
Delphi
PBC
##aters
deacetylase
delt
comments
Force
##itorial
budding
slowed
mite
##ipher
chrys
neuroprotection
ROI
libitum
stringent
Regardless
##modified
Trypanosoma
casp
Serial
isotropic
Enterobacteriaceae
229
neurovascular
##orphyr
##ofer
Argenti
CBP
FLT
Ct
gavage
cages
##reek
seldom
guanosine
##phosphor
matches
vulv
swab
nonsignificant
locked
bronchoscopy
SUD
guest
heifers
oxaliplatin
lanth
Cluster
Ze
extravas
Luc
descent
Field
seb
fulfill
agitation
##oconjug
CYP3A4
##tening
##urf
##116
membership
Leuk
Krus
polymorphonuclear
disproportionately
pressor
Fluor
fluconazole
PSI
cro
Strategies
##position
##ETs
verb
##aer
Ki67
##187
compete
##oregional
aHR
azo
extubation
dext
Bt
##oflavin
lub
##taz
antidiabetic
grounded
glycation
SCH
placent
##oviral
##haled
##oxygenation
CD19
##PLA
pieces
autocrine
##arcer
##ycles
##Gl
275
migrating
attraction
TAT
Eph
wasting
239
##ponsiveness
SAD
police
##falls
company
RhoA
##N0
##ictions
District
##ottic
li
quartiles
dissimilar
32P
tunneling
##osse
##rosarcoma
names
##icola
advised
HOX
virological
Insurance
Squ
organisation
quadrant
##iformis
astigmatism
song
news
uniformity
modulatory
##endym
CD28
complementation
##atases
Wallis
##L4
Injection
S3
219
favorably
pressing
650
##uretics
040
##pervised
##iculus
Anat
##otypical
##itherto
IRF
LAMP
monos
citations
370
Tau
dimeth
Norweg
keratitis
centi
LVAD
oligo
gynecological
principally
windows
contradictory
801
Implementation
responds
albino
disequilibrium
homod
transection
polysomn
##ermined
neuromod
appreciable
macaques
thumb
ASP
##uccin
LTR
##VC
compelling
Run
##kappa
##ENT
Change
reversibly
potently
muss
photons
Adjusted
Incubation
unavail
compiled
transactivation
Transient
PROSPER
##inite
Iss
cleared
graphite
##elevant
##ource
##ineurin
ApoE
immunohistochemically
##obank
cin
opiate
##EX
##elong
CLP
convention
##mer
seventy
mole
anaplastic
##SAR
##iferous
Bland
gastroenteritis
Models
monoamine
##ocarb
reposition
##calc
dinit
##VP
soc
##angiogenic
##ologr
mur
PAM
coincided
##ouses
adapting
##anoid
##aculture
mucous
biomechan
##hist
dialys
##othane
##atide
Tob
##eworthy
intraventricular
hardly
Seq
slopes
Sup
pruritus
biotrans
thromboxane
Sulf
Initiative
implied
withdrawn
stoichiometry
meteor
pt
##ismus
##ien
unadjusted
##ubstituted
ignored
bottleneck
policymakers
stopping
##resh
##FL
245
polyvinyl
NCI
contrasts
speakers
responsibilities
geometrical
##GP
scrutin
CRH
reliance
AGE
PDMS
villages
solubilized
radiologist
##oremediation
grouping
threefold
Hybrid
femt
binocular
CHOP
##biotic
Protection
metatars
regenerated
##ethal
Florida
tracked
##comings
##ADE
##azosin
tumoral
##C5
##oeba
carboxylate
pon
Asians
facets
PIP
viz
appreciated
##teroidal
Neuros
##olysin
intimal
##tryptamine
Har
##ager
##uodenal
##avian
SEP
harms
REC
TRP
aband
unexpectedly
buprenorphine
incisors
stands
##ald
Corn
##angitis
ultrafil
vire
##ned
androst
##ruit
nervosa
balancing
PGC
artificially
Person
eosinophilia
##ogenin
Reference
##prednisolone
##uries
crystallinity
##ounted
crystallography
C7
phosphoinositi
immigrant
Ln
##enorhabd
##rofessional
##porter
Malaysia
##tera
234
bioreactor
chondrocyte
NETs
##ultures
shielding
sweat
##anil
Kl
acknowledged
##azon
alpha2
biphenyl
QD
aminobutyric
moreover
PROSPERO
featuring
##Ar
##ght
Arterial
languages
prehospital
proteoglycan
##odomain
entrapment
hospice
##105
valgus
stainless
intrag
jointly
Dic
file
TEE
Characteristic
default
380
win
releases
Schiff
simvastatin
nanocar
diclofenac
visiting
spons
PGF2
molecularly
formulate
##oton
##etrically
arguments
extraord
intelligent
##oprim
Gran
##±4
ERα
Altman
##aks
MDC
##ennial
weighed
Lev
enhancers
surprising
stays
digoxin
##omedial
associative
prostaglandins
##eme
hyponat
xylose
ribosomes
##oreactive
replicates
downward
##tices
Aw
##obiliary
480
observable
##otomies
##fil
PLR
Routine
concentric
dissatisfaction
##omplex
Mendelian
Employ
justify
sterilization
##omycosis
PSM
Ped
saphenous
peptic
NW
GRP
PBP
##apore
Decreased
chelating
GGT
Govern
endocrin
manipulating
Wille
##issible
CCC
Perceived
ligaments
##cast
##ivision
FLA
##apsular
locate
fasted
nominal
pI
dinucleotide
##enzymes
##126
Nucle
isopropyl
trou
##ircular
endow
perpetr
CNTs
restrict
##rotal
Abdominal
mE
Enzyme
##emes
pR
ANA
shortcomings
kines
##olstein
manufacturer
Leydig
wells
Unexpected
Nb
provoked
CAL
PNA
Uganda
Psychological
##ytoin
coma
##S3
Optical
##cristine
systemically
IIb
carcinogen
accessions
aggressiveness
abduction
##cys
toe
luteinizing
Polymer
##tificial
sows
COOH
##merc
anchoring
thicknesses
War
##udied
visibility
##oil
##ucting
penal
METHODS
Graves
mug
##erae
344
unplanned
fits
PNI
##anar
Neural
sulfon
Norwegian
##iry
DOM
maltreatment
uremic
hyperv
DY
##aba
Temper
paracetamol
2D3
demethyl
osteocalcin
vasodilator
stains
hexane
1c
AMH
Larg
expresses
##hc
##dy
Cz
catabolic
cytologic
spheroids
thrombectomy
HSP70
autoantibody
reinforcing
K1
##accept
##robenz
Academic
ZIKV
Lin
seronegative
cerv
##letic
##amples
##bra
inflation
1990s
nondiabetic
hallmarks
##TL
Emotion
##obenzene
Kruskal
transdermal
reef
##asmic
##iciting
OPG
Iso
lexical
##berr
AAP
tumorigenic
##jective
##JD
##ulline
transmitter
##coprotein
clarity
##etron
##fast
CCR5
histomorph
##dor
MEG
H9
microch
tape
##osyltransferase
proliferate
barb
##original
serogroup
casual
##utrients
Antibodies
spill
heparan
Preferred
LAP
doxycycline
psychomotor
TNFalpha
PsA
Utilizing
PVR
John
BMS
migrated
Singapore
##reatments
transcriptionally
RSA
feline
heterochrom
orific
TAVR
CD11b
aquaculture
barr
pret
Cervical
Triton
daughter
curved
VSMCs
##ellae
advocated
hypoglycemic
seeding
Fa
##ogel
consume
stalk
asynchron
expands
tPA
supplies
encompasses
C16
fragility
ANCA
underweight
KI
enforce
subch
Franc
##Ox
##03
MAb
perineal
UN
PCs
benzodiazepines
chair
realization
motoneurons
Bif
##asma
prematurity
hemic
ARI
MIF
FABP
erb
Columb
Targeted
alopecia
subspecies
##timulatory
rivers
progressing
accelerates
urethra
tough
MTHF
congruent
Should
tolerate
##oxamine
##romal
wires
corroborated
EtOH
suggestion
Eligible
##ki
electrochem
##itably
OE
eczema
##avelet
af
##ectic
LPL
zirconia
Eryth
plating
yrs
Holstein
bullying
ABO
##ropical
exploitation
MMT
repairs
TCDD
homogenous
inefficient
SUMO
runoff
Viral
##aceuticals
prokaryotic
##rons
bacteriophage
atorvastatin
##ropic
histones
Transcript
alkaloid
diamond
bomb
slaughter
aegypti
xanthine
Willebrand
nascent
deprot
##ounting
cv
Lum
IIA
##agliflozin
schistosomiasis
metab
##X4
echin
carbachol
mastic
##rum
##oposterior
soccer
##iliation
##ectants
tags
progresses
ovalbumin
236
stomatal
##enafil
ESD
Achilles
enum
probed
##angeal
genistein
Apoptosis
rebound
227
responder
thrombolytic
Thai
PAT
##osupp
slide
pCR
symbiotic
aphasia
ban
diuretics
clamping
neurobiological
tour
Quanti
##Mn
MAD
SOS
##olates
lubric
persisting
##istal
keratinocyte
XY
##untary
##b1
aneurysmal
irrelevant
detects
unmodified
biomimetic
proficiency
Intracellular
stellate
Having
predation
spirometry
parasympathetic
##ophytes
merely
##ormone
externally
##tring
Institutes
convey
mainstay
ontology
##tite
cannulation
S1P
tort
relieved
##omponent
##rice
incarcer
door
intensified
extant
calorie
##child
##arterial
jejuni
##RSV
##afted
rumin
palatal
Cav
##loaded
levodopa
Simple
demyelinating
corrections
noncom
followup
##iodarone
Proble
Multid
streptococci
##breeding
masks
callosum
extrahepatic
##iazole
##VEC
dyads
##reth
##rett
demyelination
neurofibrom
eighty
##gesterone
relying
##yly
Tom
GLU
TAVI
steat
Toxoplasma
sprou
248
electrocardiographic
Rib
##enorhabditis
Xa
##oT
vertigo
barium
##Zn
pursuit
anticipate
exposing
Guang
hitherto
DCA
interrog
triad
Latino
curricula
Observational
SV40
##lutide
classifiers
##ught
Caenorhabditis
##edgeh
##ubertal
XX
##oons
##ospermia
pyroptosis
antine
##ollen
cyanobacteria
TEA
herbs
##ospatial
cannula
indeterm
appointments
6M
diary
Interviews
hematopoiesis
senescent
##ontrol
##rophylaxis
exponentially
G0
TRPV1
242
nanotube
exacerbate
arterioles
PM10
transthoracic
##esters
decide
postc
Relations
Event
virions
dexmedetomidine
##odynia
spectrometric
lyase
CaMK
aseptic
aberration
entang
##adol
fun
TFs
Hen
GenBank
depicted
commentary
locoregional
##MTS
appointment
##aggreg
alcoholism
molyb
T1DM
practiced
Cumulative
ARGs
##oV
epitheli
instantaneous
##TF
functionalities
accomplish
##Fv
Antimicrobial
EGFP
alternatively
Cho
chemosens
permeabil
RW
Oxygen
psychotropic
Macroph
##tage
Geor
increments
##ipenem
maximally
Statistics
anxiolytic
E7
MAR
DMA
RUN
Academy
taxonomy
Cam
MSH
MBL
licensed
achievable
maxilla
trehal
xylan
HBeAg
UM
myotub
attenuating
microplastics
Adolescents
##OCl
protozo
##oreflex
postp
##omyosin
decor
elastin
enkephalin
coils
t1
waveguide
bacilli
initiates
FLI
oncologists
reabsorption
Summ
NF1
##openic
252
membered
advocate
nebul
##ika
SCF
##ighter
SUVmax
CYP1
interprofessional
GHz
terminology
elicits
intraoperatively
SNAP
bleaching
hypoxemia
Bon
##Met
##tian
prices
organoids
glycated
boosting
BALF
accumulates
turns
dollars
adrenoceptors
modelled
remember
Highly
##represented
methylprednisolone
SGLT2
243
##yline
RLS
photoperiod
biotechn
CTCs
immunosuppress
him
buck
electromyography
Manual
Southeast
##yronine
##LF
##atia
broilers
CBS
pc
trin
##burg
##k2
##agens
genesis
imidazole
Chest
##oms
cytoch
tune
calpain
isopren
##RO
##dm
disinf
Endothelial
##apsules
tackle
hyperc
empowerment
Induction
mail
disrupts
deafness
Principal
##xious
vascularization
##urities
PAA
VAP
hypocal
electrop
resonances
strictures
stressor
7th
HEK293
##NR
quoti
Bilateral
##PB
optics
budget
antenna
##tiveness
tailed
##ysm
broadband
nong
chondroitin
ribavirin
refraction
##EST
##balanced
mycobacteria
cholangiocarcinoma
##arcomas
bootstr
ccRCC
reside
##anolic
defl
MVPA
DOP
4000
ECC
lifelong
dt
draining
##ochondral
markets
Circulating
SEC
quadrupole
grape
Mycoplasma
##atter
evacuation
AJ
novelty
DNAs
DOPA
Extracellular
paradoxical
calcineurin
dysbiosis
geographically
##uracy
endodontic
##pots
Caucasians
WMD
hematuria
simpler
##body
antiarrhythmic
seroconversion
ultrasonographic
versatility
bioinformatic
##rosemide
##cripts
discriminated
1976
piezoelectric
loose
##anta
##phig
cones
lectins
##GM
Eb
IRI
dates
##anzapine
harbored
Mn2
story
polyphenol
cognitively
pheochrom
##anav
Hosp
##rote
misdiagnosed
Fe2
CLD
sentence
thior
##x10
organizing
##itil
##riamycin
Inhibit
citric
##lassification
degran
colloid
LNC
RADS
##eav
##erea
subclavian
multitude
instrumented
imping
Simulation
vincristine
supervis
Abstr
##ZV
SLI
##brevi
convex
Lt
C8
litterm
Covid
biceps
CHB
categorization
##alcoholic
Knockdown
325
homologues
isoflav
galectin
orph
GU
##zymatic
##ivol
##osynthesis
Hunting
anabolic
##ucing
effusions
GSK3
cholangitis
equivalence
blastocysts
DCE
ANN
##overs
IPC
isothermal
universally
optoelectronic
putamen
H⋯O
intratumoral
maneuver
halothane
255
##eb
##ockets
##BW
upright
Aedes
proactive
##years
GJ
259
trichlor
singular
Mild
##fol
hypercap
asperg
##pecified
pace
##ocalization
toxicology
ambig
Zh
lipoxygenase
ovine
##rologists
circle
KIR
##aur
joining
adjuv
Bol
NOR
hyperpolar
##7A
pale
Walk
Finnish
Ultimately
ionophore
MZ
Sequencing
1977
##pm
##anoic
##asy
helicase
##endence
gun
triterp
deoxyrib
poster
Echocardi
##ofluorescent
Mamm
crust
##oj
##ylyl
##imidazole
TKIs
oldest
fluency
##ostosis
##oprol
##aseous
HCO3
colistin
F3
FVIII
##isen
##ghai
Heat
ADAM
eliciting
##reach
Frequency
infestation
SAA
6th
optically
identifier
humerus
251
familiarity
DBA
Ear
YAP
vitr
tuberculous
Testing
Deletion
photoreceptors
surpass
##low
mine
fifteen
##thenium
##haem
varices
fec
truth
##roleum
fim
anastomoses
peptidase
Nepal
Ion
Indonesia
##anavalin
Bab
GCs
Washing
##users
Cx43
PZ
phantoms
IBM
efferent
Pathological
relaxed
affordable
beverage
tubal
Morphological
cardiology
NHE
palladium
Comput
heterodimer
bronchitis
##methyl
VWF
##oyal
##oproteins
AMS
##antle
##orporation
pristine
TAM
Ry
Soft
##lete
hemi
##bearing
##avicular
pharmacies
dorsolateral
241
shortest
wastes
serologic
avers
##onf
retail
PML
ankyl
necessitates
pts
adhered
meniscal
Inn
##usor
pseudoaneurys
Carol
hypertr
melt
solvation
habitual
biomaterial
LVH
NMDAR
cryptic
Coronavirus
SPA
ownership
R0
Lept
PAL
IHD
DNase
##rogenesis
SRE
photovol
sunlight
pheromone
Por
##VT
ChIP
237
##elective
Basal
capita
cholestasis
##actyl
Soil
transgender
NID
utilised
##anze
Integrated
muscul
XI
Efforts
Perm
reacts
Revised
pepsin
crash
odd
pumping
##ologics
unaccept
survivin
callus
behave
recanalization
comfortable
BOLD
##serine
##igration
probands
tyrosinase
##ospinal
##MF
##arded
##Ni
##xime
merit
nip
1980s
##iphenyl
246
contracture
BDI
HY
dol
edition
##uximab
265
indexed
binomial
##obronchial
Schist
Carbon
survivorship
denitrification
promptly
characterisation
laun
##lassified
Thereafter
##amili
multicellular
Catal
QU
ortho
##IU
hrs
unresponsive
permissive
derivatization
captopril
HNF
Hs
decipher
traces
vasospasm
##impanze
##hexidine
vivax
tonsill
bronchodil
Females
##TG
##264
modifier
fasci
Hall
sentences
Concomitant
hernias
Electroph
investigator
avoids
marriage
cM
##cinated
Percutaneous
tamp
carbamazepine
dsRNA
chemiluminescence
slit
CIS
##igan
244
Adherence
capsul
##ICA
fuller
phonological
##omon
##acental
##reotide
##verted
TDP
##ceps
NTS
CRE
resins
partnerships
Ms
weakened
neurolep
gonorrh
truly
FW
Art
##osseous
complexed
argument
flare
Flav
phenomenological
crowns
##hard
##ogastric
##RN
Along
preced
symbion
##antigen
##triax
powders
Rest
Larger
##iors
ANS
walled
diffusivity
Ratio
LOH
AAC
aerosols
tracers
tailor
epididymal
Brass
slip
haploid
lipolysis
266
microorganism
##VO
LMP
dehis
phytoh
Aboriginal
advocacy
extravasation
rt
elaborate
Tanz
heterocyclic
PDGFR
inflow
oligodendrocytes
recruiting
miscarriage
##otrypsin
colored
monolith
Effect
Shanghai
retinoblastoma
pharmacologically
Fi
VB
digest
##aration
proprio
theor
##kappaB
##onins
characterise
spasticity
obt
Langer
frustr
fmol
ICUs
Living
##I1
Transmission
##trum
##ynucle
landf
therapeutically
Sanger
HCA
bifunctional
recurred
instructed
##enda
##omyces
Unexpectedly
##tigmine
##aploid
Pattern
Prolonged
organisations
Strain
##ageen
##edgehog
NYHA
antral
delineation
palmitate
regenerating
##cortisone
oligomeric
PNS
maxillofacial
conferring
agglutination
MMA
Raf
microalgae
##bi
##standing
BET
spiking
recalc
##unar
covariate
hypogonad
amphiphilic
COP
##asters
hypotensive
Bruc
TZ
Gall
nanod
concentrates
hemispheres
##agal
##triaxone
##aglutide
Bene
pave
Upper
irrig
gynaec
Neurological
##orel
##erry
##liptin
oestradiol
distension
##oA
Theoretical
##embryonic
valine
gather
##dine
whenever
##μg
cylinder
scarcity
Pyr
Signal
rejected
SBRT
Imm
Occupational
Vide
moll
##ilyl
completeness
ETS
##front
VCAM
α1
PDI
PEEP
indeterminate
annexin
mC
photoin
##ynes
Mutation
##fs
chances
##ells
cholerae
Retin
##osporidium
regi
mCR
synch
249
IPS
ROR
enterica
sarcopl
epidermidis
Ess
gamm
Tx
carcinogens
endeav
filler
GABAA
dephosphorylation
disruptions
DIS
BCA
purpos
##D88
##gers
Researchers
Lam
casting
##3a
##ineralization
fibrinolytic
##inol
##ynyl
internalizing
##iang
granulation
gt
overwhelming
##iglycerid
CBA
SMAD
scholars
osmolality
pu
cardiotoxicity
Every
##bec
pitfalls
##ifolia
silenced
femtosecond
gaseous
lacrimal
RAGE
Adj
Reson
log10
manufacture
pige
phonon
basilar
##MAR
Gm
Frequ
barc
Ent
atherogenic
enterpr
pA
Standards
fingerprint
##alkyl
cadavers
HIT
##agmus
hologr
asymptotic
##leg
cornerst
hotspots
researches
exaggerated
transist
##etries
Artificial
adaptability
PX
302
Intrac
taught
Fast
Bank
Egg
immunoblot
pione
Solid
##net
247
weaknesses
Aud
TiO
##dd
annulus
dsDNA
##uctured
adaptor
##iaxial
DNP
threatened
MRD
nanotechnology
##ivial
Checklist
seemingly
tetrachlor
blots
##orptive
rotations
Alternatively
anteroposterior
congeners
Law
nonsteroidal
##oupled
wavelet
FFR
Industr
inactivity
Personal
QL
SOD1
trimethoprim
synonymous
Bacteroides
##othyronine
ornithine
V3
tailoring
Better
##adish
cardioprotective
DMF
##exy
##osteal
cardiogenic
##ensives
juxt
SMS
asphyx
temporomandibular
corneas
signed
##omening
quartz
formats
CCl4
oxidored
##pret
melanocytes
intersp
buds
GCT
315
infrequently
convinc
atlas
Tun
attempting
Pass
##ellin
kain
##eno
Antibody
MDCT
bridged
cyano
253
terminally
genotoxicity
##allik
inducers
directing
##unts
waveforms
##torh
##osable
##lessness
Seg
enthalpy
Memory
passages
G6PD
fumigatus
##ortez
##mph
MST
CSP
Consum
TRIM
rolling
##arabine
vaccinations
ADT
##oxides
cardio
Sin
bats
Targeting
##ounds
PEC
eliminates
##architect
CONCLUSIONS
Bul
##isia
AW
##Y1
impurities
##entilation
AhR
hydatid
EMA
EFS
obsessive
##osylated
tachy
##itiligo
##NL
Los
##enet
psychiatrists
acetylated
glycaemic
haemodialysis
formerly
cecal
##orrhizal
##agas
##allikre
natal
##Gy
##V2
Generalized
Spor
SZ
Applying
PPE
##pEF
rooms
Sperm
Reaction
unic
petroleum
thorax
DK
##isco
aggl
defensive
Avail
##Cu
metabolomic
allop
##yclo
RBP
fight
chimpanze
supras
nanorods
albuminuria
fecund
landscapes
aggravated
##apez
originates
sinusitis
invertebrates
gang
inaccurate
micelle
Rub
sider
crosses
##2R
##HG
Sed
DON
0003
Scientific
termini
1950
##ynamics
fuels
interrelations
DHT
##ogy
hypertonic
Pig
CTR
sT
##otrip
##Cl3
traced
BRCA2
biodistribution
discourse
Waals
##erts
reactors
forth
phosphatases
Gas
##olytica
noteworthy
heritable
varicella
publish
Hung
gill
##odone
exchanges
##ractionated
##istructured
##ortezomib
##ischer
endosomal
hatch
Virt
tenderness
cach
chow
LCA
wrong
##icc
draft
negoti
Right
west
staphylococcal
undetermined
##respond
##ych
pyridyl
lesioned
Face
aspartic
CCS
Toxic
pm
listeners
oligomerization
citrus
estrus
maladaptive
##intended
antinociceptive
##rophilic
Online
Related
equilibr
accommodation
##OU
stir
SSR
##icus
validating
candidiasis
PaO2
Lead
Clear
glasses
ABS
CA3
##Pb
insemination
##romegal
moderating
metaphase
radiosurgery
Amino
HFpEF
Gynec
##±5
301
conclusive
conspic
DCIS
microelectro
biotransformation
cystatin
transs
##occlusion
Sp1
noxious
MCs
##limb
administer
Ben
intert
F4
palpable
anthocyanin
unsupervised
subgen
unusually
Youth
crime
258
mTORC1
##onecrosis
Huntington
dysplastic
invading
unchar
##arche
thermost
RCA
305
glucuronide
Ampl
##rP
adoptive
hydroxybut
##ofluor
##5Y
CCD
hos
floating
##ancerous
PVC
##children
Washington
##aner
α2
257
granulomas
strikingly
Ovid
Russian
##onol
exchanger
Barrett
PNP
##ifferentiation
hemispheric
PID
Cul
Pos
##oly
subtotal
myopic
butter
ultrafast
subdural
query
fibril
shel
##orrected
IUGR
##tigens
IVIG
stimulator
bronchiol
cochlea
stimulant
##ths
cryopreserved
MEP
furosemide
##amyl
Neiss
Spatial
stenoses
263
##hans
calcifications
##oing
delaying
TRAP
humor
impressive
##welling
##roduct
mRS
compositional
dehiscence
unselected
##zid
PHQ
exceptionally
heel
Nav
Urine
athlete
deterministic
1974
defenses
Microc
vascularized
drastic
meso
adjuvants
Penic
##apical
claimed
rises
staffing
CDH
abl
##operfusion
diol
SDH
phosphoinositide
patterned
protonated
dT
discriminatory
mans
AGEs
lycop
rech
##igenin
Reported
##CA1
stemness
potentiate
WNT
##eptors
Consecutive
##gs
##ja
##erson
nystagmus
migrant
Again
Freund
aneuploidy
##ip1
Peru
##junctiv
##feron
occlusions
##lys
pread
alve
##illium
agro
seventh
unco
Malignant
whey
condyle
Mouse
actors
Improving
Sjogr
myristate
##SG
save
EST
noradrenergic
multisystem
sinensis
modifies
Tumors
dd
east
PHC
##accumulation
Arr
Reports
chemoresistance
manifests
##oeb
catastrophic
GRADE
##uese
MPTP
interferes
tampon
byst
antimalarial
researcher
quadruplex
##ecium
##ildenafil
bulky
QTLs
continence
HUVEC
##imolar
APD
##eyer
##eradish
TY
sorted
pork
Haemophilus
##icum
IIIa
virgin
autoradiography
embolic
##titudes
Receptor
##cephaly
MMF
##imentary
Infectious
recovering
Days
PWV
herbicide
GAT
eph
azithromycin
##09
288
mont
phenotypically
incompatible
oligosaccharide
273
framesh
Sjogren
penetrate
facts
uranium
##axanthin
Oxford
##ogels
interdep
contrasted
##ecum
##g1
Argentina
N3
Mtb
HIP
FES
CSE
##tress
proband
##ropylene
tol
Matrix
Conn
Tl
fractal
##encephalic
##MN
dermatology
##CRT
NU
urological
macron
278
##ystitis
aflatoxin
sarcoplasmic
fork
amyotrophic
Portuguese
OAT
##Ph
##armacy
contiguous
canopy
nations
weaned
ninety
shield
superimposed
chemoattractant
mission
vagina
Alterations
Annual
Appropriate
fluctuating
breakfast
Today
pests
268
thrombi
coiled
Hsp90
stakeholder
TOC
VAD
sensorineural
285
##acoustic
allyl
##me3
##ferior
##arius
catalys
nitrous
HES
youths
##oder
wish
pemphig
translocations
##LIF
destroyed
Adolescent
money
subth
ICIs
biotechnology
##worth
olanzapine
VSMC
renders
graphs
unlabeled
endorsed
MTHFR
complexities
UVA
##arietal
suck
##isy
Pax
Males
EOC
cycload
MDM2
##oglut
gay
decel
carrageen
Hox
lymphoproliferative
Shigella
##rowning
buffalo
##entesis
CYP2D6
nucleosome
S100A
##ithin
ligated
ESS
##thus
anticonvulsant
Agr
Histologically
internationally
##asthenia
scrap
##PW
BMC
sexuality
incisor
propos
##energe
##orient
Antibiotic
perturbed
divisions
football
##oints
meter
directors
Block
##olyticus
thoracoscopic
demethylation
Foxp3
##othermic
thyroiditis
footprint
colp
spliced
MVD
aspergill
club
##gener
cyclosporin
athletic
Investigation
assault
keratocon
attrition
Consortium
incidentally
triti
dilute
graphical
CB1
##ographies
esophagectomy
##ogon
JC
allergies
Proteins
blacks
chronological
CD56
##oniazid
RIF
##thi
SBS
runners
BIS
410
hydrated
##oride
Simultaneously
Semi
acclimation
estimations
Fract
photovolta
Framework
argues
Sephadex
glucoside
##havioral
cystein
metabolizing
##3B
Sao
Hsp70
##oco
outreach
enantiomer
OGTT
≥5
295
lactis
reconc
AY
lymphedema
##ANES
Psychiatric
localised
immortalized
##roma
glenoid
magnitudes
Fatigue
PND
polyureth
internally
Wild
resectable
KIT
poplit
VO2max
PLD
chloroplasts
20th
popliteal
certific
seropositivity
##azoline
ESA
##etrics
polyamine
Presence
##responding
Areas
phasic
suite
clath
milder
externalizing
Polish
304
decont
HCPs
endarter
inactivating
GPCRs
##azin
Technical
##ropruss
Van
redundancy
##type
##ibbean
Harr
rGO
##anics
CST
##angiect
Cryptosporidium
cholecystitis
splenocytes
localisation
##activator
underlies
SO4
thicker
butanol
##oprolol
mentally
developmentally
Forest
biomechanics
isomerization
fenes
proceeded
Chr
##cysteine
fluorine
Federal
craving
##araldehyde
imprinting
Victor
verm
Removal
##romatic
recommends
267
Lith
cerc
presump
abortions
synthesised
Rac1
proves
##LDL
##rotron
certification
##ofloxacin
Caribbean
viremia
hysteresis
Fenton
niches
##legia
employee
trying
preg
governments
Neisseria
##lock
unintended
phenobarbital
##inately
Lyme
276
synchrony
##MAP
##SOD
##etermined
Pooled
##ORTA
##ilament
sulfameth
520
##adecan
IKK
Microbial
D4
immersed
##odipine
##indole
fractured
endocytic
commensal
mites
##roprusside
sCD
micromolar
esophagitis
CZ
APAC
azide
##meas
hypoglycaemia
periodically
Morr
Colorectal
trehalose
ink
Hispanics
##allikrein
Machine
CPC
explant
decis
##antial
logical
dG
witnessed
##oidy
absorbing
declared
pron
Carolina
chlorhexidine
Anoph
sulcus
modifiers
implicating
restricting
##ystalline
anatomically
anteced
GPx
tic
Kap
PRS
##angular
forage
##cholic
##tex
ICR
MeHg
##athiop
Ster
Intestinal
sati
##agglutination
Ather
##xi
craniotomy
##uzz
adrenocortical
BSI
narratives
polyposis
THz
fibrinolysis
ancestor
calving
ambly
mitophagy
microbiology
262
##asias
uridine
antich
Vas
shells
Cushing
440
inductively
unil
duplicate
guides
##nourished
scleral
RNFL
##aya
##uristic
coordinating
endosomes
inclination
##amoeba
ESC
negativity
dentition
Miss
##har
sedative
##tinct
Langerhans
antithrombin
BU
##K9
Flex
densely
hydrolytic
exo
Recurrent
rs10
##ongru
Alternative
brand
DDT
UPR
##rc
tubul
##duced
##ostal
mantle
colectomy
aroma
transposon
hyperpolarization
contracted
contraindications
VZV
phenytoin
operates
Typhimurium
chalc
Prev
hindlimb
##Na
Ve
urticaria
Spl
Improve
mU
##acid
Chol
Percent
##omyelin
TCC
parturition
##asties
phenotyping
isothi
appreciation
PVN
inferences
Colon
osteoblastic
rH
Wu
LAA
##iabetes
Density
Haz
borders
Consensus
dislocations
antid
Russia
##NM
##otax
arthrodesis
pea
##olem
substitutes
##opathogenic
triangular
orifice
profit
disparate
oryz
Bifid
glucone
miniat
##ylv
understudied
CTD
ADAMTS
##feri
316
syringe
LHRH
##utious
##athioprine
taxon
myocl
Careg
##itions
replacements
orex
syncytial
GK
multicomponent
ketones
subspecial
damp
Atrial
Mol
TMZ
Liqu
cycloheximide
timed
infarcts
##osi
nonl
vortex
midgut
vWF
##tilb
Numerical
insula
PIK3
Interaction
queried
heights
LSD
272
Columbia
##ontan
##idian
##charge
disadvantaged
elastography
emit
Legion
Burn
STN
compassion
Intell
Cath
TOP
296
topographic
captures
##usate
manager
##rolithiasis
immunoassays
inherently
A23
separations
DLP
aversive
proteoglycans
degranulation
dm
ginseng
tetrap
INH
Report
##3T3
Birth
ceftriaxone
##odin
##albuminuria
17beta
NQ
homing
awa
##rad
phenols
Set
kel
Plants
prioritize
fundamentally
hydrocortisone
##maximal
FMR
##antel
##entration
crush
##lotinib
impr
amiodarone
nitroprusside
1973
faeces
##athin
nonsense
urod
QA
##onella
mansoni
Volum
SSC
##endazole
Omicron
hyperplastic
##ohep
##xin
nonrandom
PACAP
##folate
exocrine
CD38
lysate
cong
vertebra
pellet
estimator
unavailable
phytoplankton
##anone
specialization
characterizes
switches
Nutr
303
uncharacter
##astine
Membrane
syndromic
Proteobacteria
institute
##acyclin
Far
neurosurgery
sulfoxide
UPLC
##edoxin
estrous
entrance
microinjection
TTR
Accum
phosphates
biologics
##oronary
Plan
hES
##idosis
999
ultrafiltration
Relevant
solutes
GDF
WL
##q11
Status
earthqu
parall
≥50
##athion
detrusor
##ames
hybridized
monitors
risperidone
accuracies
chromophore
Evans
##hydryl
retains
proto
PCM
NFAT
styrene
##ository
##urization
##ios
TST
sulfonyl
##peak
Johns
morphometry
##tazid
ANF
Reverse
coales
##roni
CAF
contag
reassess
orbitals
##ectant
BAS
MOR
Kappa
Pathology
312
pretest
##VHD
neuropeptides
##SF
ovid
##afe
Contrast
nonph
##olon
duck
elaborated
conceived
cohesion
nic
fault
gard
##amics
##QoL
myri
suspect
achievements
##ematous
##lier
##pox
broadening
streptom
fetoprotein
##PAR
myelodys
Anopheles
naming
artem
xer
##ubiqu
Subjective
hypertriglycerid
grained
autograft
temporarily
repolarization
##ums
village
SPT
colostr
##140
basophil
PPS
cric
##ovine
ultrac
##onus
equivocal
IMPORTA
biotechnological
propria
Bir
intentional
tut
ADH
##pliance
rectif
genit
territories
party
##ivolumab
naphthalene
MLS
Power
confron
CGM
gm
API
chyl
divide
pneumonitis
ependym
nucleophilic
biochemically
deserv
capping
dihydrop
MOD
feedst
Gross
CD133
##tazidime
electroencephalography
pathophysiologic
sulfated
dilemma
transients
MicroRNAs
ODI
BOD
##oda
Stem
rubella
horseradish
crosslinked
##individual
myoblasts
IL6
submandibular
nonex
OTA
PES
MIR
##ollagen
LMICs
##roventricular
Tanzania
moth
incisions
shocks
issued
professions
##ffer
grounds
AFB1
burg
assignments
EPCs
urbanization
malate
##olinergic
crashes
cautious
displacements
##eca
radon
adopts
heterojunction
replicating
Histor
##ophyt
oscillator
GIST
Vo
##ureter
BPS
CENTR
##itim
##eedback
PTS
neurochemical
microstructural
Fried
SY5Y
cheap
##burn
dibenz
##ourinary
deaminase
exciton
Delayed
conventionally
phyto
##box
participatory
incap
hypoc
phylogenetically
11C
leaks
astrocytic
##bos
##tra
MLR
grows
##orf
##omethane
administrated
ENT
Ophthal
##ynur
SCL
mc
NAA
Metal
STAT1
##ipient
interphase
viscous
##GI
spectrophotometric
PTT
bottle
dosed
##orch
##dorferi
##kg
stoma
Dan
GPS
thinner
segregated
strab
meteorological
collim
##ozoites
CENTRAL
uPA
Roman
NCT00
SST
cereal
myelopathy
261
##itarian
dressings
Ds
immunop
occurrences
ti
nadir
Mothers
##mM
TAG
ambul
immunocytochemical
esthetic
ACD
##vaginal
STD
SCR
deactivation
polygen
TPO
unbound
epilept
##argeted
Scores
VV
Constr
nonsmokers
##nex
##chair
losartan
snack
DEP
GAG
Janus
Strength
vibrations
genu
##KL
[...]
